{
  "version": "1.0",
  "truncation": {
    "direction": "Right",
    "max_length": 512,
    "strategy": "LongestFirst",
    "stride": 0
  },
  "padding": {
    "strategy": "BatchLongest",
    "direction": "Right",
    "pad_to_multiple_of": null,
    "pad_id": 0,
    "pad_type_id": 0,
    "pad_token": "[PAD]"
  },
  "added_tokens": [
    {
      "id": 0,
      "content": "[PAD]",
      "single_word": false,
      "lstrip": false,
      "rstrip": false,
      "normalized": false,
      "special": true
    },
    {
      "id": 1,
      "content": "[UNK]",
      "single_word": false,
      "lstrip": false,
      "rstrip": false,
      "normalized": false,
      "special": true
    },
    {
      "id": 2,
      "content": "[CLS]",
      "single_word": false,
      "lstrip": false,
      "rstrip": false,
      "normalized": false,
      "special": true
    },
    {
      "id": 3,
      "content": "[SEP]",
      "single_word": false,
      "lstrip": false,
      "rstrip": false,
      "normalized": false,
      "special": true
    },
    {
      "id": 4,
      "content": "[MASK]",
      "single_word": false,
      "lstrip": false,
      "rstrip": false,
      "normalized": false,
      "special": true
    }
  ],
  "normalizer": {
    "type": "BertNormalizer",
    "clean_text": true,
    "handle_chinese_chars": true,
    "strip_accents": null,
    "lowercase": true
  },
  "pre_tokenizer": {
    "type": "BertPreTokenizer"
  },
  "post_processor": {
    "type": "TemplateProcessing",
    "single": [
      {
        "SpecialToken": {
          "id": "[CLS]",
          "type_id": 0
        }
      },
      {
        "Sequence": {
          "id": "A",
          "type_id": 0
        }
      },
      {
        "SpecialToken": {
          "id": "[SEP]",
          "type_id": 0
        }
      }
    ],
    "pair": [
      {
        "SpecialToken": {
          "id": "[CLS]",
          "type_id": 0
        }
      },
      {
        "Sequence": {
          "id": "A",
          "type_id": 0
        }
      },
      {
        "SpecialToken": {
          "id": "[SEP]",
          "type_id": 0
        }
      },
      {
        "Sequence": {
          "id": "B",
          "type_id": 1
        }
      },
      {
        "SpecialToken": {
          "id": "[SEP]",
          "type_id": 1
        }
      }
    ],
    "special_tokens": {
      "[CLS]": {
        "id": "[CLS]",
        "ids": [
          2
        ],
        "tokens": [
          "[CLS]"
        ]
      },
      "[SEP]": {
        "id": "[SEP]",
        "ids": [
          3
        ],
        "tokens": [
          "[SEP]"
        ]
      }
    }
  },
  "decoder": {
    "type": "WordPiece",
    "prefix": "##",
    "cleanup": true
  },
  "model": {
    "type": "WordPiece",
    "unk_token": "[UNK]",
    "continuing_subword_prefix": "##",
    "max_input_chars_per_word": 100,
    "vocab": {
      "[PAD]": 0,
      "[UNK]": 1,
      "[CLS]": 2,
      "[SEP]": 3,
      "[MASK]": 4,
      "##an": 5,
      "d": 6,
      "##er": 7,
      "m": 8,
      "##en": 9,
      "s": 10,
      "p": 11,
      "##ar": 12,
      "b": 13,
      "k": 14,
      "##at": 15,
      "##ang": 16,
      "##in": 17,
      "t": 18,
      "##ak": 19,
      "##al": 20,
      "##ah": 21,
      "##as": 22,
      "##un": 23,
      "##am": 24,
      "##em": 25,
      "di": 26,
      "##ya": 27,
      "##el": 28,
      "##ad": 29,
      "##eng": 30,
      "y": 31,
      "##kan": 32,
      "##tu": 33,
      "yang": 34,
      "se": 35,
      "##ap": 36,
      "##is": 37,
      "l": 38,
      "##ik": 39,
      "h": 40,
      "dan": 41,
      "j": 42,
      "ke": 43,
      "##il": 44,
      "men": 45,
      "##on": 46,
      "##it": 47,
      "in": 48,
      "ber": 49,
      "##us": 50,
      "##ga": 51,
      "##or": 52,
      "##es": 53,
      "ter": 54,
      "##ing": 55,
      "r": 56,
      "##nya": 57,
      "##ur": 58,
      "##akan": 59,
      "mem": 60,
      "c": 61,
      "per": 62,
      "##ut": 63,
      "##id": 64,
      "##ari": 65,
      "##ul": 66,
      "##um": 67,
      "n": 68,
      "##ada": 69,
      "##uk": 70,
      "##ek": 71,
      "##ir": 72,
      "##ol": 73,
      "##ih": 74,
      "##engan": 75,
      "##ung": 76,
      "##eb": 77,
      "un": 78,
      "dengan": 79,
      "meng": 80,
      "##tuk": 81,
      "##ag": 82,
      "g": 83,
      "##et": 84,
      "##ara": 85,
      "##and": 86,
      "##ti": 87,
      "##au": 88,
      "i": 89,
      "untuk": 90,
      "##asi": 91,
      "ini": 92,
      "##alam": 93,
      "##ai": 94,
      "##im": 95,
      "##ba": 96,
      "pen": 97,
      "dari": 98,
      "##ud": 99,
      "w": 100,
      "##om": 101,
      "##ia": 102,
      "##alah": 103,
      "##ab": 104,
      "##ot": 105,
      "##si": 106,
      "##aj": 107,
      "f": 108,
      "2": 109,
      "##up": 110,
      "1": 111,
      "dalam": 112,
      "pr": 113,
      "tid": 114,
      "##bu": 115,
      "##ama": 116,
      "at": 117,
      "##ok": 118,
      "tidak": 119,
      "ad": 120,
      "##ian": 121,
      "##aw": 122,
      "##ain": 123,
      "##anya": 124,
      "##per": 125,
      "pada": 126,
      "pem": 127,
      "##aya": 128,
      "##adi": 129,
      "##aku": 130,
      "mer": 131,
      "##apat": 132,
      "##ed": 133,
      "##eh": 134,
      "##amp": 135,
      "and": 136,
      "itu": 137,
      "##ay": 138,
      "##angan": 139,
      "mas": 140,
      "##ant": 141,
      "##atan": 142,
      "##os": 143,
      "##uh": 144,
      "anda": 145,
      "peng": 146,
      "mel": 147,
      "bis": 148,
      "##ep": 149,
      "akan": 150,
      "##eg": 151,
      "##ita": 152,
      "##ent": 153,
      "adalah": 154,
      "##ta": 155,
      "kar": 156,
      "sel": 157,
      "atau": 158,
      "##ber": 159,
      "##aan": 160,
      "##orang": 161,
      "ju": 162,
      "##od": 163,
      "sem": 164,
      "20": 165,
      "bisa": 166,
      "##baga": 167,
      "bah": 168,
      "##apa": 169,
      "##atu": 170,
      "menj": 171,
      "har": 172,
      "dapat": 173,
      "##wa": 174,
      "##ter": 175,
      "ada": 176,
      "##ac": 177,
      "##oleh": 178,
      "##end": 179,
      "##ali": 180,
      "##ena": 181,
      "kam": 182,
      "##og": 183,
      "##ata": 184,
      "sek": 185,
      "juga": 186,
      "##yak": 187,
      "##amb": 188,
      "##tr": 189,
      "##bagai": 190,
      "##udah": 191,
      "##ana": 192,
      "##ua": 193,
      "##ati": 194,
      "##agi": 195,
      "##ika": 196,
      "##ebih": 197,
      "kem": 198,
      "##asa": 199,
      "al": 200,
      "##ub": 201,
      "##aran": 202,
      "tah": 203,
      "##ip": 204,
      "ind": 205,
      "##seb": 206,
      "ban": 207,
      "##elah": 208,
      "saya": 209,
      "ser": 210,
      "karena": 211,
      "##lah": 212,
      "oleh": 213,
      "meny": 214,
      "##ikan": 215,
      "lebih": 216,
      "##angg": 217,
      "##ob": 218,
      "kita": 219,
      "##alu": 220,
      "##sebut": 221,
      "##angk": 222,
      "an": 223,
      "##isi": 224,
      "##ong": 225,
      "##emp": 226,
      "##uan": 227,
      "ak": 228,
      "v": 229,
      "##api": 230,
      "##itu": 231,
      "orang": 232,
      "##ukan": 233,
      "menjadi": 234,
      "##aat": 235,
      "##ib": 236,
      "##inya": 237,
      "ker": 238,
      "kep": 239,
      "201": 240,
      "kel": 241,
      "sebagai": 242,
      "##00": 243,
      "##akukan": 244,
      "lain": 245,
      "##op": 246,
      "seb": 247,
      "bar": 248,
      "mak": 249,
      "##ahan": 250,
      "##eka": 251,
      "##gun": 252,
      "a": 253,
      "bel": 254,
      "##ja": 255,
      "tersebut": 256,
      "ba": 257,
      "kon": 258,
      "sudah": 259,
      "memb": 260,
      "mend": 261,
      "tahun": 262,
      "##gi": 263,
      "ag": 264,
      "##alan": 265,
      "##ilik": 266,
      "mereka": 267,
      "dis": 268,
      "hal": 269,
      "ap": 270,
      "banyak": 271,
      "##perti": 272,
      "##aja": 273,
      "##ones": 274,
      "##ingk": 275,
      "##angat": 276,
      "##cara": 277,
      "##iri": 278,
      "##oh": 279,
      "pas": 280,
      "dil": 281,
      "satu": 282,
      "3": 283,
      "##ew": 284,
      "indones": 285,
      "ya": 286,
      "kal": 287,
      "##ungan": 288,
      "kes": 289,
      "pend": 290,
      "##asil": 291,
      "##itas": 292,
      "##uj": 293,
      "as": 294,
      "seperti": 295,
      "##emb": 296,
      "##asan": 297,
      "pel": 298,
      "##af": 299,
      "indonesia": 300,
      "##ri": 301,
      "man": 302,
      "ar": 303,
      "aku": 304,
      "saat": 305,
      "##buat": 306,
      "##anj": 307,
      "harus": 308,
      "##ow": 309,
      "sangat": 310,
      "menc": 311,
      "kom": 312,
      "bahwa": 313,
      "##iliki": 314,
      "##ihat": 315,
      "dik": 316,
      "##ist": 317,
      "pert": 318,
      "##ind": 319,
      "sed": 320,
      "kami": 321,
      "##gunakan": 322,
      "##ingga": 323,
      "##aman": 324,
      "tr": 325,
      "##int": 326,
      "##uar": 327,
      "##orm": 328,
      "##unya": 329,
      "su": 330,
      "##esar": 331,
      "set": 332,
      "##usah": 333,
      "beb": 334,
      "ses": 335,
      "seh": 336,
      "##uran": 337,
      "jika": 338,
      "secara": 339,
      "pemb": 340,
      "##ic": 341,
      "baik": 342,
      "memiliki": 343,
      "hanya": 344,
      "“": 345,
      "##ec": 346,
      "berk": 347,
      "ket": 348,
      "bi": 349,
      "dit": 350,
      "telah": 351,
      "##yar": 352,
      "tent": 353,
      "cara": 354,
      "##empat": 355,
      "si": 356,
      "bers": 357,
      "ben": 358,
      "tet": 359,
      "##ungk": 360,
      "##ala": 361,
      "##ota": 362,
      "tan": 363,
      "dia": 364,
      "##angs": 365,
      "semua": 366,
      "ing": 367,
      "tak": 368,
      "dim": 369,
      "maka": 370,
      "##entu": 371,
      "samp": 372,
      "e": 373,
      "is": 374,
      "mengh": 375,
      "neg": 376,
      "saja": 377,
      "##arkan": 378,
      "bu": 379,
      "##erapa": 380,
      "terb": 381,
      "##upakan": 382,
      "para": 383,
      "kec": 384,
      "##apan": 385,
      "membuat": 386,
      "apa": 387,
      "beberapa": 388,
      "##ini": 389,
      "##angkan": 390,
      "so": 391,
      "##ikut": 392,
      "inf": 393,
      "##aks": 394,
      "dip": 395,
      "bagi": 396,
      "bag": 397,
      "st": 398,
      "berb": 399,
      "nam": 400,
      "4": 401,
      "rum": 402,
      "member": 403,
      "##buh": 404,
      "harga": 405,
      "hari": 406,
      "merupakan": 407,
      "##anan": 408,
      "##ingg": 409,
      "res": 410,
      "##imp": 411,
      "o": 412,
      "##ikasi": 413,
      "terl": 414,
      "wak": 415,
      "tentang": 416,
      "##onal": 417,
      "5": 418,
      "masih": 419,
      "terj": 420,
      "besar": 421,
      "mau": 422,
      "lagi": 423,
      "ant": 424,
      "ku": 425,
      "19": 426,
      "salah": 427,
      "tu": 428,
      "##oduk": 429,
      "sej": 430,
      "mul": 431,
      "dib": 432,
      "##uka": 433,
      "##idup": 434,
      "##arang": 435,
      "anak": 436,
      "##usia": 437,
      "##akar": 438,
      "##ilih": 439,
      "baru": 440,
      "atas": 441,
      "um": 442,
      "keb": 443,
      "##ulan": 444,
      "##hir": 445,
      "##tor": 446,
      "ia": 447,
      "rumah": 448,
      "namun": 449,
      "setelah": 450,
      "yaitu": 451,
      "##ine": 452,
      "##pun": 453,
      "kh": 454,
      "kepada": 455,
      "ked": 456,
      "##ku": 457,
      "##ingkat": 458,
      "min": 459,
      "pers": 460,
      "sp": 461,
      "gr": 462,
      "##akat": 463,
      "melakukan": 464,
      "##ont": 465,
      "##ungkin": 466,
      "##unj": 467,
      "peny": 468,
      "tapi": 469,
      "send": 470,
      "sep": 471,
      "jadi": 472,
      "##tif": 473,
      "memper": 474,
      "menggunakan": 475,
      "##if": 476,
      "dilakukan": 477,
      "##art": 478,
      "##buah": 479,
      "##had": 480,
      "##mas": 481,
      "##ingan": 482,
      "da": 483,
      "##engk": 484,
      "sehingga": 485,
      "waktu": 486,
      "200": 487,
      "pes": 488,
      "u": 489,
      "on": 490,
      "##na": 491,
      "sebuah": 492,
      "sampai": 493,
      "kerja": 494,
      "##ima": 495,
      "##otel": 496,
      "produk": 497,
      "##ahkan": 498,
      "–": 499,
      "sama": 500,
      "serta": 501,
      "0": 502,
      "##mu": 503,
      "seti": 504,
      "th": 505,
      "##ov": 506,
      "##pr": 507,
      "kamu": 508,
      "##olah": 509,
      "##epat": 510,
      "tim": 511,
      "ek": 512,
      "sesu": 513,
      "air": 514,
      "tempat": 515,
      "##tuh": 516,
      "##uhan": 517,
      "kr": 518,
      "dir": 519,
      "re": 520,
      "makan": 521,
      "des": 522,
      "ch": 523,
      "mus": 524,
      "ga": 525,
      "##baik": 526,
      "##apkan": 527,
      "terd": 528,
      "##angun": 529,
      "mes": 530,
      "bukan": 531,
      "##pa": 532,
      "bert": 533,
      "sen": 534,
      "##anc": 535,
      "sendiri": 536,
      "pal": 537,
      "##yarakat": 538,
      "##arah": 539,
      "bl": 540,
      "perl": 541,
      "jaw": 542,
      "##ting": 543,
      "##elum": 544,
      "kons": 545,
      "##oc": 546,
      "berd": 547,
      "pol": 548,
      "##annya": 549,
      "pern": 550,
      "setiap": 551,
      "masyarakat": 552,
      "##ra": 553,
      "##unia": 554,
      "hotel": 555,
      "pak": 556,
      "mendapat": 557,
      "##eri": 558,
      "ob": 559,
      "sebelum": 560,
      "ingin": 561,
      "hasil": 562,
      "##ila": 563,
      "did": 564,
      "diper": 565,
      "pul": 566,
      "##ongan": 567,
      "##ensi": 568,
      "or": 569,
      "##ungg": 570,
      "##ui": 571,
      "##gan": 572,
      "pun": 573,
      "sur": 574,
      "kas": 575,
      "##ormasi": 576,
      "war": 577,
      "kl": 578,
      "agar": 579,
      "##erah": 580,
      "##atakan": 581,
      "sm": 582,
      "##ual": 583,
      "berh": 584,
      "kur": 585,
      "mod": 586,
      "komp": 587,
      "pemer": 588,
      "##eker": 589,
      "bagian": 590,
      "##le": 591,
      "##angsung": 592,
      "pros": 593,
      "dunia": 594,
      "##ajar": 595,
      "seorang": 596,
      "terjadi": 597,
      "pos": 598,
      "kalau": 599,
      "rp": 600,
      "ul": 601,
      "sh": 602,
      "##edia": 603,
      "##akarta": 604,
      "##line": 605,
      "6": 606,
      "suatu": 607,
      "##era": 608,
      "seg": 609,
      "terk": 610,
      "##hadap": 611,
      "tel": 612,
      "inter": 613,
      "berm": 614,
      "##ans": 615,
      "##ampil": 616,
      "ut": 617,
      "terhadap": 618,
      "##imana": 619,
      "lainnya": 620,
      "##tus": 621,
      "am": 622,
      "##est": 623,
      "##iv": 624,
      "##etah": 625,
      "kota": 626,
      "ac": 627,
      "berbagai": 628,
      "lalu": 629,
      "##ch": 630,
      "##tar": 631,
      "ti": 632,
      "kali": 633,
      "##enis": 634,
      "##olog": 635,
      "ng": 636,
      "##tur": 637,
      "tetapi": 638,
      "##awan": 639,
      "ketika": 640,
      "##elas": 641,
      "##udian": 642,
      "##uru": 643,
      "antara": 644,
      "##idikan": 645,
      "##iran": 646,
      "mungkin": 647,
      "kab": 648,
      "tek": 649,
      "##ilai": 650,
      "memberikan": 651,
      "dem": 652,
      "z": 653,
      "keluar": 654,
      "perm": 655,
      "##urut": 656,
      "##iswa": 657,
      "ken": 658,
      "belum": 659,
      "##atang": 660,
      "kata": 661,
      "dua": 662,
      "online": 663,
      "negara": 664,
      "##ej": 665,
      "manusia": 666,
      "##ukup": 667,
      "alam": 668,
      "hidup": 669,
      "kemb": 670,
      "sum": 671,
      "berl": 672,
      "mulai": 673,
      "##aikan": 674,
      "ay": 675,
      "##of": 676,
      "##ekat": 677,
      "jakarta": 678,
      "##esi": 679,
      "7": 680,
      "##ogr": 681,
      "kemudian": 682,
      "informasi": 683,
      "sekali": 684,
      "##inggi": 685,
      "keh": 686,
      "##alis": 687,
      "##istem": 688,
      "##ulu": 689,
      "##alui": 690,
      "##usahaan": 691,
      "##ulis": 692,
      "##ambil": 693,
      "##umlah": 694,
      "##butuh": 695,
      "##omp": 696,
      "memp": 697,
      "tem": 698,
      "proses": 699,
      "##anjut": 700,
      "pendidikan": 701,
      "##usaha": 702,
      "ab": 703,
      "##ulit": 704,
      "tanpa": 705,
      "##arnya": 706,
      "##inta": 707,
      "mar": 708,
      "melalui": 709,
      "mat": 710,
      "paling": 711,
      "nama": 712,
      "berikut": 713,
      "pemerint": 714,
      "##nis": 715,
      "pl": 716,
      "tinggi": 717,
      "##alnya": 718,
      "daerah": 719,
      "##ani": 720,
      "##und": 721,
      "melihat": 722,
      "il": 723,
      "cukup": 724,
      "akhir": 725,
      "##lam": 726,
      "jam": 727,
      "langsung": 728,
      "buk": 729,
      "##ori": 730,
      "memang": 731,
      "##eda": 732,
      "hingga": 733,
      "##ij": 734,
      "perlu": 735,
      "pertama": 736,
      "sistem": 737,
      "dep": 738,
      "##inan": 739,
      "10": 740,
      "yg": 741,
      "perusahaan": 742,
      "##20": 743,
      "bahasa": 744,
      "diri": 745,
      "pernah": 746,
      "sekarang": 747,
      "##unt": 748,
      "##unc": 749,
      "##ig": 750,
      "selain": 751,
      "umum": 752,
      "mengen": 753,
      "art": 754,
      "kembali": 755,
      "berp": 756,
      "##re": 757,
      "##oto": 758,
      "im": 759,
      "##ajaran": 760,
      "##ilah": 761,
      "jenis": 762,
      "allah": 763,
      "##st": 764,
      "##enc": 765,
      "##antu": 766,
      "8": 767,
      "ters": 768,
      "fil": 769,
      "la": 770,
      "kat": 771,
      "##ina": 772,
      "##uas": 773,
      "##akah": 774,
      "mah": 775,
      "selama": 776,
      "##uc": 777,
      "mendapatkan": 778,
      "##usus": 779,
      "angg": 780,
      "digunakan": 781,
      "##uruh": 782,
      "mudah": 783,
      "##ni": 784,
      "##oba": 785,
      "sesuai": 786,
      "##faat": 787,
      "##akin": 788,
      "memba": 789,
      "mur": 790,
      "##ode": 791,
      "dij": 792,
      "perk": 793,
      "ny": 794,
      "jalan": 795,
      "##ons": 796,
      "##engah": 797,
      "##ump": 798,
      "##utan": 799,
      "##eksi": 800,
      "br": 801,
      "##angka": 802,
      "##ologi": 803,
      "masuk": 804,
      "masalah": 805,
      "##com": 806,
      "menurut": 807,
      "##asional": 808,
      "tangg": 809,
      "##aian": 810,
      "selalu": 811,
      "baw": 812,
      "##inggal": 813,
      "band": 814,
      "sy": 815,
      "bahkan": 816,
      "##itar": 817,
      "situ": 818,
      "baga": 819,
      "##asanya": 820,
      "##ukum": 821,
      "em": 822,
      "bulan": 823,
      "##atif": 824,
      "tubuh": 825,
      "wis": 826,
      "##imb": 827,
      "##tikan": 828,
      "sedang": 829,
      "tetap": 830,
      "##ide": 831,
      "str": 832,
      "##aru": 833,
      "##anda": 834,
      "bahan": 835,
      "##awat": 836,
      "##atis": 837,
      "intern": 838,
      "benar": 839,
      "put": 840,
      "kegi": 841,
      "terbaik": 842,
      "jangan": 843,
      "aw": 844,
      "kegiatan": 845,
      "mis": 846,
      "##ny": 847,
      "me": 848,
      "##li": 849,
      "met": 850,
      "##obil": 851,
      "##000": 852,
      "##ers": 853,
      "##any": 854,
      "kecil": 855,
      "##ca": 856,
      "khusus": 857,
      "##tim": 858,
      "##oy": 859,
      "##anjang": 860,
      "sekolah": 861,
      "lap": 862,
      "##owongan": 863,
      "##asar": 864,
      "wan": 865,
      "sal": 866,
      "##di": 867,
      "islam": 868,
      "##ort": 869,
      "##elit": 870,
      "##ola": 871,
      "beg": 872,
      "##aki": 873,
      "9": 874,
      "##aftar": 875,
      "tekn": 876,
      "pemerintah": 877,
      "##ogram": 878,
      "kedua": 879,
      "ik": 880,
      "##jalan": 881,
      "##atkan": 882,
      "##ontoh": 883,
      "sering": 884,
      "hukum": 885,
      "dih": 886,
      "##sa": 887,
      "sup": 888,
      "##gas": 889,
      "masa": 890,
      "maupun": 891,
      "luar": 892,
      "##ami": 893,
      "no": 894,
      "mobil": 895,
      "##ampu": 896,
      "pet": 897,
      "##aknya": 898,
      "tahu": 899,
      "##aksan": 900,
      "##uang": 901,
      "bentuk": 902,
      "q": 903,
      "kor": 904,
      "##ember": 905,
      "penting": 906,
      "tuj": 907,
      "te": 908,
      "##usi": 909,
      "##yakit": 910,
      "##ubungan": 911,
      "up": 912,
      "##upa": 913,
      "pt": 914,
      "##atas": 915,
      "bagaimana": 916,
      "##ail": 917,
      "cer": 918,
      "2013": 919,
      "dekat": 920,
      "x": 921,
      "wanita": 922,
      "gun": 923,
      "##tiv": 924,
      "obat": 925,
      "penc": 926,
      "##erb": 927,
      "par": 928,
      "belajar": 929,
      "##engar": 930,
      "##aksi": 931,
      "##udi": 932,
      "lay": 933,
      "en": 934,
      "##ev": 935,
      "##emukan": 936,
      "apakah": 937,
      "lok": 938,
      "##auh": 939,
      "menyeb": 940,
      "tok": 941,
      "keseh": 942,
      "bersama": 943,
      "terus": 944,
      "kek": 945,
      "gamb": 946,
      "sekitar": 947,
      "##gr": 948,
      "ri": 949,
      "penj": 950,
      "kan": 951,
      "##atur": 952,
      "##itik": 953,
      "kau": 954,
      "makanan": 955,
      "##lo": 956,
      "##ihan": 957,
      "uj": 958,
      "pilih": 959,
      "guru": 960,
      "##ait": 961,
      "##enal": 962,
      "barang": 963,
      "kesehatan": 964,
      "##ond": 965,
      "##urun": 966,
      "din": 967,
      "buat": 968,
      "seluruh": 969,
      "15": 970,
      "diber": 971,
      "cepat": 972,
      "##etahui": 973,
      "tert": 974,
      "begitu": 975,
      "penyakit": 976,
      "semakin": 977,
      "meningkat": 978,
      "##ustr": 979,
      "siswa": 980,
      "12": 981,
      "ot": 982,
      "##ikat": 983,
      "pan": 984,
      "lama": 985,
      "program": 986,
      "##uda": 987,
      "uang": 988,
      "pad": 989,
      "ef": 990,
      "jumlah": 991,
      "lowongan": 992,
      "##aten": 993,
      "##onom": 994,
      "##iaya": 995,
      "bisnis": 996,
      "contoh": 997,
      "##caya": 998,
      "trans": 999,
      "sk": 1000,
      "tip": 1001,
      "the": 1002,
      "##yat": 1003,
      "berada": 1004,
      "##engg": 1005,
      "data": 1006,
      "##emen": 1007,
      "dr": 1008,
      "pus": 1009,
      "perb": 1010,
      "##irim": 1011,
      "kap": 1012,
      "##arik": 1013,
      "##ungsi": 1014,
      "##ainan": 1015,
      "lem": 1016,
      "mengg": 1017,
      "##ungi": 1018,
      "ma": 1019,
      "##alaman": 1020,
      "##ilan": 1021,
      "lingk": 1022,
      "eks": 1023,
      "jawab": 1024,
      "##agian": 1025,
      "suk": 1026,
      "##uhi": 1027,
      "bay": 1028,
      "kond": 1029,
      "##usan": 1030,
      "##engkap": 1031,
      "##likasi": 1032,
      "biasanya": 1033,
      "##idang": 1034,
      "pembel": 1035,
      "terp": 1036,
      "##masuk": 1037,
      "##lan": 1038,
      "##asarkan": 1039,
      "##av": 1040,
      "mener": 1041,
      "bal": 1042,
      "sil": 1043,
      "us": 1044,
      "##ses": 1045,
      "##ug": 1046,
      "sak": 1047,
      "##uli": 1048,
      "##man": 1049,
      "fak": 1050,
      "adanya": 1051,
      "tujuan": 1052,
      "##bab": 1053,
      "mal": 1054,
      "membantu": 1055,
      "ilmu": 1056,
      "kurang": 1057,
      "##ekerja": 1058,
      "##embangan": 1059,
      "##ukkan": 1060,
      "##unyai": 1061,
      "usaha": 1062,
      "bila": 1063,
      "sosi": 1064,
      "##acam": 1065,
      "ibu": 1066,
      "el": 1067,
      "##ikian": 1068,
      "jawa": 1069,
      "##ubah": 1070,
      "##ro": 1071,
      "foto": 1072,
      "kamar": 1073,
      "##otor": 1074,
      "##apai": 1075,
      "##ki": 1076,
      "alat": 1077,
      "mempunyai": 1078,
      "##fat": 1079,
      "##ns": 1080,
      "##mi": 1081,
      "disebut": 1082,
      "##ef": 1083,
      "##adan": 1084,
      "mampu": 1085,
      "##ard": 1086,
      "termasuk": 1087,
      "##omb": 1088,
      "situs": 1089,
      "blog": 1090,
      "##utus": 1091,
      "mengenai": 1092,
      "##angkat": 1093,
      "pe": 1094,
      "datang": 1095,
      "##upaten": 1096,
      "##ikir": 1097,
      "sejak": 1098,
      "sumber": 1099,
      "dic": 1100,
      "bur": 1101,
      "bawah": 1102,
      "murah": 1103,
      "organ": 1104,
      "mencari": 1105,
      "##uangan": 1106,
      "nya": 1107,
      "##ma": 1108,
      "daftar": 1109,
      "tanggal": 1110,
      "##angi": 1111,
      "ger": 1112,
      "11": 1113,
      "terbaru": 1114,
      "##ompok": 1115,
      "of": 1116,
      "bank": 1117,
      "##angunan": 1118,
      "jar": 1119,
      "pih": 1120,
      "punya": 1121,
      "tangan": 1122,
      "bat": 1123,
      "kej": 1124,
      "##ikit": 1125,
      "##ambah": 1126,
      "jelas": 1127,
      "penelit": 1128,
      "ah": 1129,
      "##me": 1130,
      "sebelumnya": 1131,
      "waj": 1132,
      "kabupaten": 1133,
      "terdapat": 1134,
      "##one": 1135,
      "##abkan": 1136,
      "keluarga": 1137,
      "web": 1138,
      "mengatakan": 1139,
      "##entuk": 1140,
      "2014": 1141,
      "##istr": 1142,
      "demikian": 1143,
      "##isasi": 1144,
      "wil": 1145,
      "##alami": 1146,
      "barat": 1147,
      "penggun": 1148,
      "##anti": 1149,
      "bud": 1150,
      "ok": 1151,
      "mana": 1152,
      "gambar": 1153,
      "##ess": 1154,
      "##ampilkan": 1155,
      "ib": 1156,
      "nom": 1157,
      "##ea": 1158,
      "kol": 1159,
      "sedikit": 1160,
      "##apun": 1161,
      "biaya": 1162,
      "mata": 1163,
      "##akhir": 1164,
      "had": 1165,
      "tanah": 1166,
      "biasa": 1167,
      "wal": 1168,
      "##erta": 1169,
      "##ayah": 1170,
      "uk": 1171,
      "tengah": 1172,
      "lihat": 1173,
      "ins": 1174,
      "nilai": 1175,
      "##etak": 1176,
      "mengan": 1177,
      "##ash": 1178,
      "kepala": 1179,
      "##ban": 1180,
      "tingkat": 1181,
      "lingkungan": 1182,
      "##ekerj": 1183,
      "##insi": 1184,
      "##ilang": 1185,
      "kondisi": 1186,
      "ka": 1187,
      "##12": 1188,
      "##ord": 1189,
      "prof": 1190,
      "##alitas": 1191,
      "##lik": 1192,
      "##min": 1193,
      "kelas": 1194,
      "pasti": 1195,
      "akhirnya": 1196,
      "dok": 1197,
      "berbeda": 1198,
      "##antai": 1199,
      "##edi": 1200,
      "kehidup": 1201,
      "negeri": 1202,
      "##war": 1203,
      "##ern": 1204,
      "dasar": 1205,
      "##ohon": 1206,
      "gam": 1207,
      "pengh": 1208,
      "diba": 1209,
      "tentu": 1210,
      "##unga": 1211,
      "##uter": 1212,
      "permainan": 1213,
      "rasa": 1214,
      "kulit": 1215,
      "sedangkan": 1216,
      "malam": 1217,
      "berdasarkan": 1218,
      "depan": 1219,
      "##adaan": 1220,
      "##eli": 1221,
      "kebutuh": 1222,
      "wisata": 1223,
      "tiga": 1224,
      "anggota": 1225,
      "to": 1226,
      "##10": 1227,
      "buku": 1228,
      "jauh": 1229,
      "bekerja": 1230,
      "##ikel": 1231,
      "##ulkan": 1232,
      "18": 1233,
      "tepat": 1234,
      "##ger": 1235,
      "##angga": 1236,
      "na": 1237,
      "##own": 1238,
      "##uduk": 1239,
      "##entara": 1240,
      "pihak": 1241,
      "##tul": 1242,
      "gratis": 1243,
      "##ajak": 1244,
      "keter": 1245,
      "memilih": 1246,
      "##ibat": 1247,
      "dulu": 1248,
      "##ack": 1249,
      "bum": 1250,
      "tuhan": 1251,
      "sakit": 1252,
      "kehidupan": 1253,
      "bidang": 1254,
      "kebutuhan": 1255,
      "utama": 1256,
      "##uta": 1257,
      "sosial": 1258,
      "merasa": 1259,
      "##agu": 1260,
      "##ikm": 1261,
      "dimana": 1262,
      "##teri": 1263,
      "##ite": 1264,
      "mo": 1265,
      "er": 1266,
      "##unan": 1267,
      "hati": 1268,
      "badan": 1269,
      "##tup": 1270,
      "rep": 1271,
      "##gris": 1272,
      "##araan": 1273,
      "##ukul": 1274,
      "##butuhkan": 1275,
      "timur": 1276,
      "##akai": 1277,
      "inggris": 1278,
      "2015": 1279,
      "efek": 1280,
      "##anfaat": 1281,
      "sat": 1282,
      "sementara": 1283,
      "##tian": 1284,
      "##amin": 1285,
      "gu": 1286,
      "nasional": 1287,
      "nomor": 1288,
      "##to": 1289,
      "##ly": 1290,
      "##ampuan": 1291,
      "menarik": 1292,
      "menunj": 1293,
      "meningkatkan": 1294,
      "##onomi": 1295,
      "penelitian": 1296,
      "##iden": 1297,
      "##entukan": 1298,
      "dah": 1299,
      "agama": 1300,
      "##ampak": 1301,
      "##anding": 1302,
      "2012": 1303,
      "perh": 1304,
      "bagus": 1305,
      "##ili": 1306,
      "buah": 1307,
      "pemain": 1308,
      "mengalami": 1309,
      "##osi": 1310,
      "kelompok": 1311,
      "##ore": 1312,
      "media": 1313,
      "hubungan": 1314,
      "mesin": 1315,
      "##uman": 1316,
      "bak": 1317,
      "karya": 1318,
      "hak": 1319,
      "beli": 1320,
      "warna": 1321,
      "##wan": 1322,
      "##ikuti": 1323,
      "##ci": 1324,
      "op": 1325,
      "bermain": 1326,
      "14": 1327,
      "13": 1328,
      "memas": 1329,
      "misalnya": 1330,
      "##aris": 1331,
      "pin": 1332,
      "##antung": 1333,
      "##eks": 1334,
      "fr": 1335,
      "sebagian": 1336,
      "##asaan": 1337,
      "kasih": 1338,
      "aplikasi": 1339,
      "##ate": 1340,
      "##aca": 1341,
      "##aga": 1342,
      "awal": 1343,
      "pekerj": 1344,
      "##nyata": 1345,
      "##aranya": 1346,
      "##arti": 1347,
      "##eorang": 1348,
      "tum": 1349,
      "wilayah": 1350,
      "desa": 1351,
      "kemampuan": 1352,
      "##umen": 1353,
      "seben": 1354,
      "pula": 1355,
      "##ph": 1356,
      "ulasan": 1357,
      "sol": 1358,
      "199": 1359,
      "##angkah": 1360,
      "##ubahan": 1361,
      "komun": 1362,
      "##ook": 1363,
      "say": 1364,
      "##lim": 1365,
      "##uni": 1366,
      "pekerjaan": 1367,
      "part": 1368,
      "ternyata": 1369,
      "sesuatu": 1370,
      "model": 1371,
      "keber": 1372,
      "rek": 1373,
      "##amu": 1374,
      "tinggal": 1375,
      "##uri": 1376,
      "seseorang": 1377,
      "kant": 1378,
      "tar": 1379,
      "pria": 1380,
      "ram": 1381,
      "dew": 1382,
      "cp": 1383,
      "li": 1384,
      "##aksanakan": 1385,
      "terlalu": 1386,
      "surat": 1387,
      "##angsa": 1388,
      "lah": 1389,
      "sebaga": 1390,
      "sub": 1391,
      "beras": 1392,
      "##load": 1393,
      "##amat": 1394,
      "pok": 1395,
      "berat": 1396,
      "segera": 1397,
      "##abat": 1398,
      "motor": 1399,
      "tertentu": 1400,
      "##aud": 1401,
      "##ult": 1402,
      "jual": 1403,
      "berarti": 1404,
      "##embang": 1405,
      "##ula": 1406,
      "16": 1407,
      "mencapai": 1408,
      "kad": 1409,
      "darah": 1410,
      "##ukung": 1411,
      "dig": 1412,
      "pukul": 1413,
      "##yah": 1414,
      "##aju": 1415,
      "jasa": 1416,
      "pusat": 1417,
      "##men": 1418,
      "##isik": 1419,
      "##buhan": 1420,
      "mengetahui": 1421,
      "panjang": 1422,
      "25": 1423,
      "sebenarnya": 1424,
      "##oga": 1425,
      "##ink": 1426,
      "perubahan": 1427,
      "semp": 1428,
      "teknologi": 1429,
      "masing": 1430,
      "artikel": 1431,
      "be": 1432,
      "bek": 1433,
      "##toran": 1434,
      "cal": 1435,
      "pasar": 1436,
      "tab": 1437,
      "##ver": 1438,
      "lakukan": 1439,
      "sebab": 1440,
      "tugas": 1441,
      "oper": 1442,
      "‘": 1443,
      "##abila": 1444,
      "judi": 1445,
      "ped": 1446,
      "ekonomi": 1447,
      "mand": 1448,
      "gen": 1449,
      "rak": 1450,
      "menemukan": 1451,
      "tik": 1452,
      "pember": 1453,
      "internet": 1454,
      "ko": 1455,
      "sah": 1456,
      "terlihat": 1457,
      "##0000": 1458,
      "munc": 1459,
      "film": 1460,
      "berj": 1461,
      "##anyaan": 1462,
      "cat": 1463,
      "##imal": 1464,
      "aja": 1465,
      "##enang": 1466,
      "keku": 1467,
      "gel": 1468,
      "##th": 1469,
      "warga": 1470,
      "orangorang": 1471,
      "##uanya": 1472,
      "##ira": 1473,
      "pand": 1474,
      "##asiswa": 1475,
      "pembelajaran": 1476,
      "pres": 1477,
      "##tum": 1478,
      "##ity": 1479,
      "siap": 1480,
      "diter": 1481,
      "17": 1482,
      "yak": 1483,
      "##amatan": 1484,
      "##fer": 1485,
      "##aturan": 1486,
      "##inggu": 1487,
      "##11": 1488,
      "gak": 1489,
      "##buatan": 1490,
      "##tuj": 1491,
      "muncul": 1492,
      "sd": 1493,
      "kont": 1494,
      "soal": 1495,
      "apabila": 1496,
      "trad": 1497,
      "sar": 1498,
      "##lukan": 1499,
      "##ingin": 1500,
      "batu": 1501,
      "##utama": 1502,
      "daya": 1503,
      "kalian": 1504,
      "iklan": 1505,
      "suka": 1506,
      "##asilkan": 1507,
      "##ampilan": 1508,
      "##iz": 1509,
      "kay": 1510,
      "selatan": 1511,
      "##pl": 1512,
      "##ast": 1513,
      "##akt": 1514,
      "pilihan": 1515,
      "ruang": 1516,
      "segala": 1517,
      "##ambut": 1518,
      "id": 1519,
      "berhasil": 1520,
      "##atikan": 1521,
      "bola": 1522,
      "##ampir": 1523,
      "komputer": 1524,
      "##ust": 1525,
      "##wah": 1526,
      "pot": 1527,
      "maks": 1528,
      "cpns": 1529,
      "peserta": 1530,
      "jep": 1531,
      "restoran": 1532,
      "tulis": 1533,
      "gol": 1534,
      "##ry": 1535,
      "##asikan": 1536,
      "##anjutnya": 1537,
      "2016": 1538,
      "fungsi": 1539,
      "##ill": 1540,
      "kuat": 1541,
      "##isan": 1542,
      "##13": 1543,
      "pertanyaan": 1544,
      "siapa": 1545,
      "acara": 1546,
      "belak": 1547,
      "for": 1548,
      "sw": 1549,
      "memberi": 1550,
      "##etahuan": 1551,
      "##co": 1552,
      "kualitas": 1553,
      "ur": 1554,
      "##ker": 1555,
      "lengkap": 1556,
      "##edit": 1557,
      "30": 1558,
      "tidur": 1559,
      "pelay": 1560,
      "##alahan": 1561,
      "kini": 1562,
      "go": 1563,
      "##enda": 1564,
      "sin": 1565,
      "##tua": 1566,
      "anakan": 1567,
      "##ha": 1568,
      "le": 1569,
      "##ainkan": 1570,
      "kantor": 1571,
      "##eran": 1572,
      "##ator": 1573,
      "bandung": 1574,
      "##udara": 1575,
      "sab": 1576,
      "terg": 1577,
      "kasus": 1578,
      "##urkan": 1579,
      "terutama": 1580,
      "##uti": 1581,
      "rel": 1582,
      "##ura": 1583,
      "yakni": 1584,
      "sini": 1585,
      "##antan": 1586,
      "manfaat": 1587,
      "sejarah": 1588,
      "tamb": 1589,
      "amer": 1590,
      "diberikan": 1591,
      "##ender": 1592,
      "##15": 1593,
      "tua": 1594,
      "de": 1595,
      "kend": 1596,
      "akibat": 1597,
      "##ulai": 1598,
      "##ens": 1599,
      "fl": 1600,
      "##ownload": 1601,
      "posisi": 1602,
      "und": 1603,
      "lokasi": 1604,
      "toko": 1605,
      "##urn": 1606,
      "stand": 1607,
      "pengetahuan": 1608,
      "ukuran": 1609,
      "##atian": 1610,
      "ham": 1611,
      "disini": 1612,
      "##erita": 1613,
      "teman": 1614,
      "ikan": 1615,
      "materi": 1616,
      "info": 1617,
      "menyebabkan": 1618,
      "lat": 1619,
      "sam": 1620,
      "bantu": 1621,
      "menu": 1622,
      "##umsi": 1623,
      "##oran": 1624,
      "bayi": 1625,
      "sus": 1626,
      "sik": 1627,
      "##arga": 1628,
      "layanan": 1629,
      "vide": 1630,
      "##jek": 1631,
      "mengambil": 1632,
      "juta": 1633,
      "cerita": 1634,
      "##tp": 1635,
      "macam": 1636,
      "jl": 1637,
      "kontr": 1638,
      "##empatan": 1639,
      "##asih": 1640,
      "selanjutnya": 1641,
      "bangsa": 1642,
      "mu": 1643,
      "menerima": 1644,
      "pener": 1645,
      "##estasi": 1646,
      "menunjukkan": 1647,
      "##rasi": 1648,
      "##uari": 1649,
      "ver": 1650,
      "##endah": 1651,
      "##isme": 1652,
      "##iter": 1653,
      "##unggu": 1654,
      "boleh": 1655,
      "##askan": 1656,
      "perkembangan": 1657,
      "##eck": 1658,
      "km": 1659,
      "es": 1660,
      "agus": 1661,
      "##ivers": 1662,
      "2011": 1663,
      "##masing": 1664,
      "kand": 1665,
      "int": 1666,
      "##ase": 1667,
      "terakhir": 1668,
      "ex": 1669,
      "cinta": 1670,
      "semoga": 1671,
      "pemba": 1672,
      "##ateg": 1673,
      "ps": 1674,
      "faktor": 1675,
      "perjalan": 1676,
      "##awasan": 1677,
      "luas": 1678,
      "memen": 1679,
      "dibuat": 1680,
      "politik": 1681,
      "bern": 1682,
      "det": 1683,
      "24": 1684,
      "##ungguh": 1685,
      "kalo": 1686,
      "putih": 1687,
      "##ediakan": 1688,
      "##baya": 1689,
      "masingmasing": 1690,
      "##alkan": 1691,
      "##anggap": 1692,
      "ii": 1693,
      "##abi": 1694,
      "##irkan": 1695,
      "berjalan": 1696,
      "##da": 1697,
      "##empuan": 1698,
      "suara": 1699,
      "metode": 1700,
      "it": 1701,
      "dirinya": 1702,
      "aman": 1703,
      "mad": 1704,
      "sehat": 1705,
      "##impin": 1706,
      "##arian": 1707,
      "manaj": 1708,
      "bet": 1709,
      "pat": 1710,
      "terc": 1711,
      "organisasi": 1712,
      "new": 1713,
      "##ipt": 1714,
      "##enaga": 1715,
      "##ayaan": 1716,
      "##aha": 1717,
      "berasal": 1718,
      "bang": 1719,
      "ist": 1720,
      "##kah": 1721,
      "med": 1722,
      "##su": 1723,
      "##ikiran": 1724,
      "menyel": 1725,
      "jan": 1726,
      "lanjut": 1727,
      "desain": 1728,
      "##asia": 1729,
      "klik": 1730,
      "ph": 1731,
      "##ation": 1732,
      "video": 1733,
      "muda": 1734,
      "univers": 1735,
      "minggu": 1736,
      "##mad": 1737,
      "##uma": 1738,
      "anakanak": 1739,
      "pop": 1740,
      "##itif": 1741,
      "##all": 1742,
      "»": 1743,
      "mahasiswa": 1744,
      "rat": 1745,
      "##tivitas": 1746,
      "perempuan": 1747,
      "hit": 1748,
      "sang": 1749,
      "##asakan": 1750,
      "amerika": 1751,
      "perjalanan": 1752,
      "pelayanan": 1753,
      "form": 1754,
      "##ungkan": 1755,
      "berupa": 1756,
      "budaya": 1757,
      "##inasi": 1758,
      "jer": 1759,
      "##ipun": 1760,
      "tiket": 1761,
      "keadaan": 1762,
      "100": 1763,
      "mengel": 1764,
      "##entar": 1765,
      "walau": 1766,
      "##ublik": 1767,
      "##erh": 1768,
      "wajah": 1769,
      "##ket": 1770,
      "##ben": 1771,
      "pembangunan": 1772,
      "##ht": 1773,
      "##30": 1774,
      "langkah": 1775,
      "log": 1776,
      "##atasi": 1777,
      "##antik": 1778,
      "tind": 1779,
      "terkait": 1780,
      "08": 1781,
      "do": 1782,
      "muslim": 1783,
      "laut": 1784,
      "mengk": 1785,
      "aktif": 1786,
      "terdiri": 1787,
      "terima": 1788,
      "##isah": 1789,
      "##esan": 1790,
      "tips": 1791,
      "dikenal": 1792,
      "seri": 1793,
      "jepang": 1794,
      "nah": 1795,
      "##sel": 1796,
      "##19": 1797,
      "alami": 1798,
      "jaringan": 1799,
      "bin": 1800,
      "##ocok": 1801,
      "##..": 1802,
      "##unjung": 1803,
      "##dung": 1804,
      "kartu": 1805,
      "pajak": 1806,
      "##ey": 1807,
      "prov": 1808,
      "tenaga": 1809,
      "dibanding": 1810,
      "##elaskan": 1811,
      "gl": 1812,
      "perd": 1813,
      "membaca": 1814,
      "menit": 1815,
      "usia": 1816,
      "penger": 1817,
      "istr": 1818,
      "rem": 1819,
      "ikut": 1820,
      "pergi": 1821,
      "##kipun": 1822,
      "pendapat": 1823,
      "rah": 1824,
      "2010": 1825,
      "##ifikasi": 1826,
      "##alik": 1827,
      "##uju": 1828,
      "rakyat": 1829,
      "##erang": 1830,
      "keuangan": 1831,
      "jat": 1832,
      "inv": 1833,
      "po": 1834,
      "sebesar": 1835,
      "industr": 1836,
      "teg": 1837,
      "belakang": 1838,
      "##oll": 1839,
      "##embangkan": 1840,
      "coba": 1841,
      "##ahami": 1842,
      "##gn": 1843,
      "kak": 1844,
      "produksi": 1845,
      "nov": 1846,
      "prib": 1847,
      "##utusan": 1848,
      "##olong": 1849,
      "ir": 1850,
      "meninggal": 1851,
      "penggunaan": 1852,
      "##get": 1853,
      "##res": 1854,
      "##ulang": 1855,
      "hampir": 1856,
      "kamp": 1857,
      "konsep": 1858,
      "mencoba": 1859,
      "merah": 1860,
      "mati": 1861,
      "ayat": 1862,
      "meskipun": 1863,
      "tentunya": 1864,
      "agen": 1865,
      "pengalaman": 1866,
      "##no": 1867,
      "##sp": 1868,
      "dana": 1869,
      "##aruh": 1870,
      "presiden": 1871,
      "##ongk": 1872,
      "##ell": 1873,
      "calon": 1874,
      "menger": 1875,
      "penuh": 1876,
      "##tut": 1877,
      "memer": 1878,
      "umumnya": 1879,
      "bo": 1880,
      "ev": 1881,
      "membawa": 1882,
      "dokter": 1883,
      "##enter": 1884,
      "lagu": 1885,
      "kateg": 1886,
      "##50": 1887,
      "##aft": 1888,
      "##ulasi": 1889,
      "##gak": 1890,
      "##atih": 1891,
      "teknik": 1892,
      "mengikuti": 1893,
      "menuju": 1894,
      "##apus": 1895,
      "##ekan": 1896,
      "##ho": 1897,
      "23": 1898,
      "sulit": 1899,
      "bumi": 1900,
      "22": 1901,
      "simp": 1902,
      "##ment": 1903,
      "##itan": 1904,
      "##ji": 1905,
      "ro": 1906,
      "sis": 1907,
      "naik": 1908,
      "##14": 1909,
      "berf": 1910,
      "stu": 1911,
      "##uler": 1912,
      "penyeb": 1913,
      "##pek": 1914,
      "agustus": 1915,
      "mew": 1916,
      "##aksanaan": 1917,
      "##anyak": 1918,
      "tanaman": 1919,
      "##akter": 1920,
      "keti": 1921,
      "strateg": 1922,
      "membutuhkan": 1923,
      "pesawat": 1924,
      "cl": 1925,
      "##aksud": 1926,
      "##iner": 1927,
      "angka": 1928,
      "diatas": 1929,
      "penulis": 1930,
      "##anggung": 1931,
      "ni": 1932,
      "diant": 1933,
      "industri": 1934,
      "##benar": 1935,
      "sura": 1936,
      "##han": 1937,
      "##...": 1938,
      "##percaya": 1939,
      "webs": 1940,
      "kaki": 1941,
      "itulah": 1942,
      "##pada": 1943,
      "##untungan": 1944,
      "lew": 1945,
      "inilah": 1946,
      "kesempatan": 1947,
      "##andingan": 1948,
      "##itkan": 1949,
      "##alat": 1950,
      "yo": 1951,
      "##aka": 1952,
      "alamat": 1953,
      "alasan": 1954,
      "##inj": 1955,
      "##sh": 1956,
      "##ahal": 1957,
      "mengur": 1958,
      "inst": 1959,
      "menghad": 1960,
      "##adian": 1961,
      "##apak": 1962,
      "ide": 1963,
      "##omo": 1964,
      "menghasilkan": 1965,
      "sih": 1966,
      "prakt": 1967,
      "bunga": 1968,
      "pengel": 1969,
      "##ank": 1970,
      "menulis": 1971,
      "indah": 1972,
      "email": 1973,
      "download": 1974,
      "benarbenar": 1975,
      "profesi": 1976,
      "##ass": 1977,
      "pu": 1978,
      "##ergi": 1979,
      "check": 1980,
      "##osa": 1981,
      "bab": 1982,
      "resmi": 1983,
      "pulau": 1984,
      "##kannya": 1985,
      "##asis": 1986,
      "##encana": 1987,
      "gad": 1988,
      "artinya": 1989,
      "panas": 1990,
      "he": 1991,
      "bb": 1992,
      "sifat": 1993,
      "dar": 1994,
      "##sifat": 1995,
      "surabaya": 1996,
      "membeli": 1997,
      "paket": 1998,
      "##emat": 1999,
      "gar": 2000,
      "fasil": 2001,
      "musik": 2002,
      "##port": 2003,
      "rambut": 2004,
      "##ome": 2005,
      "##ingat": 2006,
      "##phone": 2007,
      "tersedia": 2008,
      "bus": 2009,
      "game": 2010,
      "empat": 2011,
      "bali": 2012,
      "##abis": 2013,
      "membuka": 2014,
      "##agam": 2015,
      "berkembang": 2016,
      "##ingkatan": 2017,
      "##alagi": 2018,
      "##amanan": 2019,
      "silahkan": 2020,
      "##asama": 2021,
      "##ebr": 2022,
      "pro": 2023,
      "utara": 2024,
      "##16": 2025,
      "##sur": 2026,
      "unit": 2027,
      "pribadi": 2028,
      "rendah": 2029,
      "jad": 2030,
      "##hal": 2031,
      "perj": 2032,
      "pendek": 2033,
      "et": 2034,
      "car": 2035,
      "nanti": 2036,
      "tes": 2037,
      "pasangan": 2038,
      "website": 2039,
      "cocok": 2040,
      "menjalan": 2041,
      "##age": 2042,
      "lemb": 2043,
      "##adang": 2044,
      "”": 2045,
      "dom": 2046,
      "##ie": 2047,
      "##18": 2048,
      "pelangg": 2049,
      "bermanfaat": 2050,
      "pasal": 2051,
      "olah": 2052,
      "disk": 2053,
      "pesan": 2054,
      "apr": 2055,
      "##hl": 2056,
      "ataupun": 2057,
      "##asaran": 2058,
      "tradisi": 2059,
      "##awa": 2060,
      "turun": 2061,
      "##itab": 2062,
      "standar": 2063,
      "baca": 2064,
      "kalim": 2065,
      "##anyakan": 2066,
      "##ujud": 2067,
      "##gab": 2068,
      "arah": 2069,
      "##ice": 2070,
      "admin": 2071,
      "##usnya": 2072,
      "2009": 2073,
      "fac": 2074,
      "kekuatan": 2075,
      "sambil": 2076,
      "sejumlah": 2077,
      "muh": 2078,
      "menjaga": 2079,
      "##ubungi": 2080,
      "##emu": 2081,
      "##inc": 2082,
      "ayam": 2083,
      "peraturan": 2084,
      "##ino": 2085,
      "keras": 2086,
      "apalagi": 2087,
      "tau": 2088,
      "dapatkan": 2089,
      "leb": 2090,
      "##awab": 2091,
      "reg": 2092,
      "ht": 2093,
      "##uktur": 2094,
      "kebij": 2095,
      "ras": 2096,
      "##utkan": 2097,
      "##iptakan": 2098,
      "##iti": 2099,
      "##edaan": 2100,
      "##ve": 2101,
      "by": 2102,
      "##ansi": 2103,
      "sebagaimana": 2104,
      "kok": 2105,
      "minyak": 2106,
      "pengembangan": 2107,
      "co": 2108,
      "hp": 2109,
      "manajemen": 2110,
      "maj": 2111,
      "##angnya": 2112,
      "objek": 2113,
      "dahulu": 2114,
      "juli": 2115,
      "aj": 2116,
      "##asang": 2117,
      "nggak": 2118,
      "karakter": 2119,
      "ketua": 2120,
      "tot": 2121,
      "##tinya": 2122,
      "sisi": 2123,
      "kenapa": 2124,
      "yah": 2125,
      "##itur": 2126,
      "##awarkan": 2127,
      "##iku": 2128,
      "norm": 2129,
      "sl": 2130,
      "seks": 2131,
      "pelaksanaan": 2132,
      "##enangan": 2133,
      "##atnya": 2134,
      "sebaik": 2135,
      "##uku": 2136,
      "udah": 2137,
      "fasilitas": 2138,
      "##ester": 2139,
      "berita": 2140,
      "##ambahkan": 2141,
      "provinsi": 2142,
      "dimaksud": 2143,
      "mengandung": 2144,
      "lewat": 2145,
      "yog": 2146,
      "percaya": 2147,
      "menyediakan": 2148,
      "##let": 2149,
      "ji": 2150,
      "##taf": 2151,
      "sukses": 2152,
      "mil": 2153,
      "##ps": 2154,
      "memenuhi": 2155,
      "kompet": 2156,
      "##ark": 2157,
      "asal": 2158,
      "##iks": 2159,
      "gunakan": 2160,
      "ayah": 2161,
      "post": 2162,
      "##ebook": 2163,
      "kayu": 2164,
      "dl": 2165,
      "nas": 2166,
      "##arapkan": 2167,
      "ed": 2168,
      "sept": 2169,
      "asli": 2170,
      "bes": 2171,
      "kecamatan": 2172,
      "##tion": 2173,
      "banget": 2174,
      "##ida": 2175,
      "cantik": 2176,
      "##utar": 2177,
      "lembaga": 2178,
      "bebas": 2179,
      "##iah": 2180,
      "##rip": 2181,
      "##ote": 2182,
      "##encan": 2183,
      "lahir": 2184,
      "##istrik": 2185,
      "##wal": 2186,
      "##out": 2187,
      "jawaban": 2188,
      "penyel": 2189,
      "##gerak": 2190,
      "##ikmati": 2191,
      "##raga": 2192,
      "juni": 2193,
      "##eter": 2194,
      "menyatakan": 2195,
      "##gaw": 2196,
      "##ost": 2197,
      "ditemukan": 2198,
      "##yataan": 2199,
      "##45": 2200,
      "mb": 2201,
      "seni": 2202,
      "cari": 2203,
      "keuntungan": 2204,
      "dag": 2205,
      "##auan": 2206,
      "vi": 2207,
      "pagi": 2208,
      "link": 2209,
      "mit": 2210,
      "##uny": 2211,
      "##ainya": 2212,
      "sof": 2213,
      "##engaruhi": 2214,
      "menentukan": 2215,
      "sc": 2216,
      "perbedaan": 2217,
      "angk": 2218,
      "##ukaan": 2219,
      "lo": 2220,
      "##udul": 2221,
      "##ahaya": 2222,
      "september": 2223,
      "##uki": 2224,
      "udara": 2225,
      "keputusan": 2226,
      "seles": 2227,
      "saw": 2228,
      "smp": 2229,
      "wib": 2230,
      "com": 2231,
      "##obatan": 2232,
      "##tulis": 2233,
      "padahal": 2234,
      "listrik": 2235,
      "ki": 2236,
      "##wak": 2237,
      "bir": 2238,
      "saling": 2239,
      "lima": 2240,
      "berg": 2241,
      "komunikasi": 2242,
      "ketiga": 2243,
      "##ampaikan": 2244,
      "##oda": 2245,
      "top": 2246,
      "pasi": 2247,
      "##iman": 2248,
      "##epas": 2249,
      "##ish": 2250,
      "modal": 2251,
      "diketahui": 2252,
      "pantai": 2253,
      "##ibatkan": 2254,
      "membangun": 2255,
      "ca": 2256,
      "##bar": 2257,
      "lak": 2258,
      "pembuatan": 2259,
      "##ewan": 2260,
      "dilihat": 2261,
      "sebanyak": 2262,
      "cr": 2263,
      "raya": 2264,
      "##adah": 2265,
      "gaya": 2266,
      "##inal": 2267,
      "akses": 2268,
      "pelajaran": 2269,
      "mon": 2270,
      "##uarkan": 2271,
      "tas": 2272,
      "baju": 2273,
      "##ihkan": 2274,
      "sederh": 2275,
      "ribu": 2276,
      "bersifat": 2277,
      "pi": 2278,
      "cuma": 2279,
      "##awaran": 2280,
      "studi": 2281,
      "wah": 2282,
      "198": 2283,
      "sehari": 2284,
      "##awatan": 2285,
      "ged": 2286,
      "diperlukan": 2287,
      "hij": 2288,
      "##istik": 2289,
      "##alisasi": 2290,
      "##ert": 2291,
      "universitas": 2292,
      "non": 2293,
      "upaya": 2294,
      "dianggap": 2295,
      "##roid": 2296,
      "sikap": 2297,
      "##ebihan": 2298,
      "##eman": 2299,
      "bantuan": 2300,
      "##etapkan": 2301,
      "ta": 2302,
      "tampilkan": 2303,
      "partai": 2304,
      "musim": 2305,
      "##por": 2306,
      "ali": 2307,
      "bangunan": 2308,
      "##ela": 2309,
      "aktivitas": 2310,
      "terlebih": 2311,
      "wisat": 2312,
      "isi": 2313,
      "kp": 2314,
      "kebijakan": 2315,
      "walaupun": 2316,
      "penduduk": 2317,
      "milik": 2318,
      "pengertian": 2319,
      "burung": 2320,
      "menya": 2321,
      "daun": 2322,
      "cab": 2323,
      "##vis": 2324,
      "##17": 2325,
      "tindakan": 2326,
      "##arif": 2327,
      "sma": 2328,
      "diseb": 2329,
      "kemungkin": 2330,
      "mir": 2331,
      "pengguna": 2332,
      "##pen": 2333,
      "##gus": 2334,
      "ang": 2335,
      "mei": 2336,
      "memperoleh": 2337,
      "yes": 2338,
      "##eta": 2339,
      "analis": 2340,
      "##entuan": 2341,
      "pertum": 2342,
      "##arap": 2343,
      "fisik": 2344,
      "##usun": 2345,
      "semuanya": 2346,
      "gag": 2347,
      "##ono": 2348,
      "##ektr": 2349,
      "##ambat": 2350,
      "##yakar": 2351,
      "berubah": 2352,
      "##urus": 2353,
      "wajib": 2354,
      "menjelaskan": 2355,
      "50": 2356,
      "stat": 2357,
      "##tober": 2358,
      "bul": 2359,
      "mengapa": 2360,
      "##tugas": 2361,
      "hid": 2362,
      "penyebab": 2363,
      "sederhana": 2364,
      "menurun": 2365,
      "##adar": 2366,
      "##hari": 2367,
      "selamat": 2368,
      "##qu": 2369,
      "##tern": 2370,
      "wisatawan": 2371,
      "khususnya": 2372,
      "nabi": 2373,
      "katanya": 2374,
      "##onton": 2375,
      "tumbuh": 2376,
      "sana": 2377,
      "##usak": 2378,
      "##ajari": 2379,
      "perangkat": 2380,
      "gunung": 2381,
      "nyaman": 2382,
      "con": 2383,
      "##ach": 2384,
      "berlaku": 2385,
      "dijual": 2386,
      "istri": 2387,
      "sul": 2388,
      "jum": 2389,
      "berusaha": 2390,
      "##orong": 2391,
      "bas": 2392,
      "hewan": 2393,
      "operasi": 2394,
      "pemerintahan": 2395,
      "##unci": 2396,
      "kun": 2397,
      "##bum": 2398,
      "kode": 2399,
      "pah": 2400,
      "##icara": 2401,
      "##emuan": 2402,
      "pay": 2403,
      "ol": 2404,
      "total": 2405,
      "poker": 2406,
      "tambahan": 2407,
      "##isten": 2408,
      "##ganti": 2409,
      "android": 2410,
      "kemungkinan": 2411,
      "##are": 2412,
      "mendukung": 2413,
      "kapal": 2414,
      "##ex": 2415,
      "##ivid": 2416,
      "##olak": 2417,
      "maret": 2418,
      "pm": 2419,
      "ulang": 2420,
      "##ullah": 2421,
      "meski": 2422,
      "dibandingkan": 2423,
      "selesai": 2424,
      "##isk": 2425,
      "ahli": 2426,
      "kew": 2427,
      "hitam": 2428,
      "muham": 2429,
      "memahami": 2430,
      "##ilangan": 2431,
      "##ock": 2432,
      "##ows": 2433,
      "dibawah": 2434,
      "##isti": 2435,
      "tulisan": 2436,
      "##ikah": 2437,
      "##hatikan": 2438,
      "jal": 2439,
      "kim": 2440,
      "dpr": 2441,
      "ha": 2442,
      "##ital": 2443,
      "tekan": 2444,
      "##25": 2445,
      "supaya": 2446,
      "tadi": 2447,
      "kop": 2448,
      "##unjungi": 2449,
      "##vi": 2450,
      "27": 2451,
      "resep": 2452,
      "dipakai": 2453,
      "jab": 2454,
      "##enj": 2455,
      "dilaksanakan": 2456,
      "korban": 2457,
      "pp": 2458,
      "##epatan": 2459,
      "spes": 2460,
      "##egah": 2461,
      "perc": 2462,
      "mengaku": 2463,
      "##insip": 2464,
      "kerj": 2465,
      "mengatasi": 2466,
      "##ukur": 2467,
      "pakai": 2468,
      "april": 2469,
      "##asinya": 2470,
      "pertumbuhan": 2471,
      "##yarat": 2472,
      "meminta": 2473,
      "28": 2474,
      "##rik": 2475,
      "bersih": 2476,
      "bint": 2477,
      "##osis": 2478,
      "energi": 2479,
      "anti": 2480,
      "may": 2481,
      "file": 2482,
      "##alian": 2483,
      "##imak": 2484,
      "halaman": 2485,
      "pertandingan": 2486,
      "tanda": 2487,
      "gej": 2488,
      "berc": 2489,
      "laporan": 2490,
      "##amanya": 2491,
      "dewasa": 2492,
      "##za": 2493,
      "gi": 2494,
      "pakaian": 2495,
      "dinas": 2496,
      "tahap": 2497,
      "sekaligus": 2498,
      "duduk": 2499,
      "bib": 2500,
      "pasang": 2501,
      "olahraga": 2502,
      "kos": 2503,
      "##anja": 2504,
      "hadir": 2505,
      "internasional": 2506,
      "##adinya": 2507,
      "positif": 2508,
      "pap": 2509,
      "memakai": 2510,
      "##erv": 2511,
      "apapun": 2512,
      "demi": 2513,
      "##tra": 2514,
      "individ": 2515,
      "lupa": 2516,
      "ent": 2517,
      "##aitan": 2518,
      "kaum": 2519,
      "hi": 2520,
      "af": 2521,
      "21": 2522,
      "##ce": 2523,
      "##ona": 2524,
      "sebaiknya": 2525,
      "gue": 2526,
      "##erbal": 2527,
      "unik": 2528,
      "temp": 2529,
      "##ilaku": 2530,
      "##iksi": 2531,
      "kanker": 2532,
      "lib": 2533,
      "kot": 2534,
      "bergerak": 2535,
      "kesel": 2536,
      "##unuh": 2537,
      "##ikin": 2538,
      "melaksanakan": 2539,
      "##ork": 2540,
      "##ware": 2541,
      "raja": 2542,
      "##erasi": 2543,
      "api": 2544,
      "terh": 2545,
      "tokoh": 2546,
      "elektr": 2547,
      "perp": 2548,
      "##anfaatkan": 2549,
      "hend": 2550,
      "##adakan": 2551,
      "pengaruh": 2552,
      "menang": 2553,
      "dat": 2554,
      "berlangsung": 2555,
      "##adikan": 2556,
      "kendaraan": 2557,
      "terkenal": 2558,
      "##ualan": 2559,
      "##obat": 2560,
      "arti": 2561,
      "##ganya": 2562,
      "antar": 2563,
      "efektif": 2564,
      "komentar": 2565,
      "##egang": 2566,
      "vir": 2567,
      "##aih": 2568,
      "persen": 2569,
      "hand": 2570,
      "lel": 2571,
      "mempr": 2572,
      "kategori": 2573,
      "berkata": 2574,
      "##ulus": 2575,
      "diharapkan": 2576,
      "peta": 2577,
      "##arakan": 2578,
      "minum": 2579,
      "kul": 2580,
      "pola": 2581,
      "##untut": 2582,
      "tangga": 2583,
      "##enti": 2584,
      "26": 2585,
      "##yakarta": 2586,
      "##rah": 2587,
      "##bi": 2588,
      "gerakan": 2589,
      "lab": 2590,
      "tiap": 2591,
      "malah": 2592,
      "##opa": 2593,
      "modern": 2594,
      "tipe": 2595,
      "rencana": 2596,
      "##ewa": 2597,
      "perhatian": 2598,
      "##idik": 2599,
      "bp": 2600,
      "lar": 2601,
      "##ement": 2602,
      "peningkatan": 2603,
      "##asilan": 2604,
      "penilai": 2605,
      "kawasan": 2606,
      "smart": 2607,
      "konsumen": 2608,
      "berapa": 2609,
      "peri": 2610,
      "yesus": 2611,
      "##itis": 2612,
      "##200": 2613,
      "versi": 2614,
      "pemilih": 2615,
      "staf": 2616,
      "por": 2617,
      "sing": 2618,
      "berhubungan": 2619,
      "suami": 2620,
      "##adilan": 2621,
      "del": 2622,
      "pengg": 2623,
      "sa": 2624,
      "##jo": 2625,
      "##isip": 2626,
      "##bo": 2627,
      "##ee": 2628,
      "potensi": 2629,
      "##rat": 2630,
      "fitur": 2631,
      "buruk": 2632,
      "##alia": 2633,
      "2008": 2634,
      "##oni": 2635,
      "bekas": 2636,
      "teori": 2637,
      "mengembangkan": 2638,
      "bernama": 2639,
      "##engkapnya": 2640,
      "akun": 2641,
      "40": 2642,
      "##anian": 2643,
      "##aftaran": 2644,
      "menimb": 2645,
      "##itung": 2646,
      "mag": 2647,
      "goog": 2648,
      "##epon": 2649,
      "##tifikasi": 2650,
      "##yang": 2651,
      "kre": 2652,
      "mengak": 2653,
      "melay": 2654,
      "butuh": 2655,
      "http": 2656,
      "##okan": 2657,
      "##lihat": 2658,
      "gan": 2659,
      "keraj": 2660,
      "##edar": 2661,
      "##impinan": 2662,
      "##angund": 2663,
      "trip": 2664,
      "vari": 2665,
      "spesi": 2666,
      "saud": 2667,
      "##uali": 2668,
      "bon": 2669,
      "umat": 2670,
      "##hi": 2671,
      "gas": 2672,
      "##erd": 2673,
      "kandungan": 2674,
      "cew": 2675,
      "##amaan": 2676,
      "##arab": 2677,
      "proy": 2678,
      "##aji": 2679,
      "tamu": 2680,
      "##net": 2681,
      "berpikir": 2682,
      "yogyakarta": 2683,
      "##uskan": 2684,
      "dibutuhkan": 2685,
      "rup": 2686,
      "balik": 2687,
      "amp": 2688,
      "##bal": 2689,
      "menteri": 2690,
      "wh": 2691,
      "##ng": 2692,
      "peran": 2693,
      "##ahas": 2694,
      "ge": 2695,
      "mengin": 2696,
      "kunci": 2697,
      "duk": 2698,
      "oktober": 2699,
      "prop": 2700,
      "##indari": 2701,
      "##impan": 2702,
      "pasien": 2703,
      "dikatakan": 2704,
      "ujian": 2705,
      "##gabung": 2706,
      "##ham": 2707,
      "##uga": 2708,
      "##ret": 2709,
      "disebabkan": 2710,
      "##top": 2711,
      "febr": 2712,
      "desember": 2713,
      "istilah": 2714,
      "jiwa": 2715,
      "##umpulan": 2716,
      "distr": 2717,
      "mengurangi": 2718,
      "halhal": 2719,
      "membentuk": 2720,
      "super": 2721,
      "##uf": 2722,
      "##wi": 2723,
      "main": 2724,
      "##esu": 2725,
      "pil": 2726,
      "maaf": 2727,
      "##angkap": 2728,
      "terasa": 2729,
      "##urangan": 2730,
      "##ge": 2731,
      "ment": 2732,
      "penilaian": 2733,
      "##oper": 2734,
      "tampak": 2735,
      "merek": 2736,
      "tengg": 2737,
      "was": 2738,
      "namanya": 2739,
      "sempat": 2740,
      "##oma": 2741,
      "##yaran": 2742,
      "all": 2743,
      "pant": 2744,
      "melip": 2745,
      "minim": 2746,
      "serikat": 2747,
      "##isa": 2748,
      "taruhan": 2749,
      "perang": 2750,
      "##esaikan": 2751,
      "lokal": 2752,
      "pengobatan": 2753,
      "##ion": 2754,
      "gw": 2755,
      "##unda": 2756,
      "minta": 2757,
      "tant": 2758,
      "pintu": 2759,
      "rasul": 2760,
      "dijadikan": 2761,
      "##andang": 2762,
      "##tas": 2763,
      "sir": 2764,
      "##der": 2765,
      "##onsumsi": 2766,
      "##arin": 2767,
      "dimulai": 2768,
      "tv": 2769,
      "##ahari": 2770,
      "benda": 2771,
      "lakil": 2772,
      "##timb": 2773,
      "terletak": 2774,
      "pd": 2775,
      "sud": 2776,
      "##uksi": 2777,
      "##ium": 2778,
      "2018": 2779,
      "##ajib": 2780,
      "terbuka": 2781,
      "##22": 2782,
      "pa": 2783,
      "pemimpin": 2784,
      "kirim": 2785,
      "fre": 2786,
      "leg": 2787,
      "asam": 2788,
      "pendaftaran": 2789,
      "takut": 2790,
      "##amping": 2791,
      "##ero": 2792,
      "##ustru": 2793,
      "hutan": 2794,
      "##kir": 2795,
      "pelanggan": 2796,
      "herbal": 2797,
      "menimbulkan": 2798,
      "pemilik": 2799,
      "menciptakan": 2800,
      "alq": 2801,
      "uc": 2802,
      "samping": 2803,
      "diberi": 2804,
      "terbesar": 2805,
      "##ower": 2806,
      "soft": 2807,
      "der": 2808,
      "sunga": 2809,
      "pk": 2810,
      "bapak": 2811,
      "titik": 2812,
      "beliau": 2813,
      "justru": 2814,
      "qu": 2815,
      "tata": 2816,
      "strategi": 2817,
      "profesional": 2818,
      "##bul": 2819,
      "dll": 2820,
      "##ton": 2821,
      "belanda": 2822,
      "tradisional": 2823,
      "daripada": 2824,
      "cm": 2825,
      "januari": 2826,
      "##eja": 2827,
      "area": 2828,
      "ip": 2829,
      "##oid": 2830,
      "##40": 2831,
      "##idak": 2832,
      "##jid": 2833,
      "menikmati": 2834,
      "##omosi": 2835,
      "zat": 2836,
      "kredit": 2837,
      "##ien": 2838,
      "agak": 2839,
      "sun": 2840,
      "hamil": 2841,
      "##abu": 2842,
      "proyek": 2843,
      "pohon": 2844,
      "menyer": 2845,
      "kanan": 2846,
      "##entingan": 2847,
      "pur": 2848,
      "mor": 2849,
      "##rib": 2850,
      "struktur": 2851,
      "mari": 2852,
      "##oduksi": 2853,
      "kapan": 2854,
      "makin": 2855,
      "gangg": 2856,
      "pembayaran": 2857,
      "menjadikan": 2858,
      "sec": 2859,
      "karyawan": 2860,
      "facebook": 2861,
      "##ros": 2862,
      "lakilaki": 2863,
      "jadwal": 2864,
      "pikiran": 2865,
      "home": 2866,
      "hilang": 2867,
      "matahari": 2868,
      "##ram": 2869,
      "##onen": 2870,
      "jatuh": 2871,
      "##inginan": 2872,
      "bukti": 2873,
      "penjualan": 2874,
      "taman": 2875,
      "def": 2876,
      "##amar": 2877,
      "ciri": 2878,
      "tog": 2879,
      "psik": 2880,
      "pengunjung": 2881,
      "peluang": 2882,
      "29": 2883,
      "penawaran": 2884,
      "sip": 2885,
      "direk": 2886,
      "tergantung": 2887,
      "##its": 2888,
      "##unggulan": 2889,
      "##idah": 2890,
      "mengenal": 2891,
      "pokok": 2892,
      "prinsip": 2893,
      "berdiri": 2894,
      "##aksa": 2895,
      "diam": 2896,
      "google": 2897,
      "##iring": 2898,
      "dikel": 2899,
      "kejadian": 2900,
      "konf": 2901,
      "##ampung": 2902,
      "mohon": 2903,
      "nih": 2904,
      "pac": 2905,
      "anggaran": 2906,
      "##engkapi": 2907,
      "didalam": 2908,
      "##elasan": 2909,
      "##bl": 2910,
      "bilang": 2911,
      "mengubah": 2912,
      "kaya": 2913,
      "maksud": 2914,
      "malang": 2915,
      "##intah": 2916,
      "album": 2917,
      "##istrasi": 2918,
      "ketentuan": 2919,
      "##visor": 2920,
      "berkaitan": 2921,
      "sepanjang": 2922,
      "##60": 2923,
      "emas": 2924,
      "perawatan": 2925,
      "##ith": 2926,
      "##ayan": 2927,
      "##ograf": 2928,
      "##ajukan": 2929,
      "##tujuan": 2930,
      "au": 2931,
      "cap": 2932,
      "amb": 2933,
      "##enakan": 2934,
      "sungai": 2935,
      "perilaku": 2936,
      "jantung": 2937,
      "november": 2938,
      "khas": 2939,
      "##ediksi": 2940,
      "semangat": 2941,
      "berfungsi": 2942,
      "tw": 2943,
      "menambah": 2944,
      "asing": 2945,
      "aturan": 2946,
      "remaja": 2947,
      "##ck": 2948,
      "suh": 2949,
      "sms": 2950,
      "##urna": 2951,
      "mandi": 2952,
      "menambahkan": 2953,
      "##ayakan": 2954,
      "publik": 2955,
      "cewek": 2956,
      "keamanan": 2957,
      "fir": 2958,
      "kisah": 2959,
      "##abil": 2960,
      "individu": 2961,
      "gejala": 2962,
      "##alikan": 2963,
      "aceh": 2964,
      "otak": 2965,
      "normal": 2966,
      "berikan": 2967,
      "eropa": 2968,
      "pej": 2969,
      "dimiliki": 2970,
      "##ater": 2971,
      "daging": 2972,
      "yakin": 2973,
      "##tivasi": 2974,
      "merasakan": 2975,
      "jalur": 2976,
      "pegaw": 2977,
      "meliputi": 2978,
      "harapan": 2979,
      "rut": 2980,
      "##ilangkan": 2981,
      "unsur": 2982,
      "deh": 2983,
      "pulang": 2984,
      "pid": 2985,
      "aspek": 2986,
      "##ick": 2987,
      "pab": 2988,
      "kepad": 2989,
      "bakal": 2990,
      "##egara": 2991,
      "penderita": 2992,
      "diterima": 2993,
      "huj": 2994,
      "garis": 2995,
      "##form": 2996,
      "##ripsi": 2997,
      "##ferensi": 2998,
      "bikin": 2999,
      "senang": 3000,
      "tanya": 3001,
      "latihan": 3002,
      "##uluh": 3003,
      "##pon": 3004,
      "terjadinya": 3005,
      "kiner": 3006,
      "##edakan": 3007,
      "syari": 3008,
      "out": 3009,
      "##ahun": 3010,
      "judul": 3011,
      "##inginkan": 3012,
      "keper": 3013,
      "##warna": 3014,
      "##23": 3015,
      "menunggu": 3016,
      "sb": 3017,
      "##ipta": 3018,
      "mempengaruhi": 3019,
      "##ilis": 3020,
      "cor": 3021,
      "wakil": 3022,
      "camp": 3023,
      "##irikan": 3024,
      "menjual": 3025,
      "comp": 3026,
      "pegawai": 3027,
      "mencegah": 3028,
      "gangguan": 3029,
      "##ungguhnya": 3030,
      "polisi": 3031,
      "##ikul": 3032,
      "##indah": 3033,
      "pec": 3034,
      "perg": 3035,
      "lu": 3036,
      "##iko": 3037,
      "##ungkinkan": 3038,
      "##impi": 3039,
      "satunya": 3040,
      "kepentingan": 3041,
      "##use": 3042,
      "zaman": 3043,
      "pelat": 3044,
      "menjalankan": 3045,
      "bertemu": 3046,
      "berharap": 3047,
      "##istiwa": 3048,
      "##unjuk": 3049,
      "sehar": 3050,
      "arab": 3051,
      "mendengar": 3052,
      "dp": 3053,
      "##cing": 3054,
      "##uji": 3055,
      "kerus": 3056,
      "kimia": 3057,
      "prod": 3058,
      "35": 3059,
      "kalangan": 3060,
      "syarat": 3061,
      "##ukai": 3062,
      "##erbitkan": 3063,
      "panc": 3064,
      "##mat": 3065,
      "pertanian": 3066,
      "sayang": 3067,
      "##ahat": 3068,
      "##uliah": 3069,
      "persi": 3070,
      "hat": 3071,
      "jarak": 3072,
      "197": 3073,
      "ho": 3074,
      "cel": 3075,
      "terpercaya": 3076,
      "investasi": 3077,
      "##oris": 3078,
      "perasaan": 3079,
      "populer": 3080,
      "##elajari": 3081,
      "##enangkan": 3082,
      "disel": 3083,
      "##anjutkan": 3084,
      "##nur": 3085,
      "sebagainya": 3086,
      "umur": 3087,
      "##arata": 3088,
      "kebanyakan": 3089,
      "##umb": 3090,
      "susu": 3091,
      "dap": 3092,
      "gedung": 3093,
      "radi": 3094,
      "##antinya": 3095,
      "kecuali": 3096,
      "term": 3097,
      "periode": 3098,
      "##oritas": 3099,
      "ingat": 3100,
      "bog": 3101,
      "mandiri": 3102,
      "ruangan": 3103,
      "pemilihan": 3104,
      "semarang": 3105,
      "alk": 3106,
      "enak": 3107,
      "transaksi": 3108,
      "seharusnya": 3109,
      "##ualitas": 3110,
      "diperoleh": 3111,
      "##okok": 3112,
      "##ren": 3113,
      "gadis": 3114,
      "##atal": 3115,
      "##put": 3116,
      "##iksa": 3117,
      "wind": 3118,
      "bant": 3119,
      "##elih": 3120,
      "buka": 3121,
      "eng": 3122,
      "##ace": 3123,
      "sepatu": 3124,
      "pake": 3125,
      "togel": 3126,
      "mengatur": 3127,
      "kut": 3128,
      "hijau": 3129,
      "berwarna": 3130,
      "##kes": 3131,
      "kinerja": 3132,
      "##advisor": 3133,
      "meninggalkan": 3134,
      "disi": 3135,
      "sant": 3136,
      "diambil": 3137,
      "luc": 3138,
      "##evel": 3139,
      "om": 3140,
      "bergabung": 3141,
      "menghadapi": 3142,
      "temb": 3143,
      "muhammad": 3144,
      "tripadvisor": 3145,
      "serv": 3146,
      "##urat": 3147,
      "her": 3148,
      "tekanan": 3149,
      "bintang": 3150,
      "jok": 3151,
      "banj": 3152,
      "##ne": 3153,
      "kitab": 3154,
      "##uruan": 3155,
      "lapangan": 3156,
      "##uruf": 3157,
      "cek": 3158,
      "teb": 3159,
      "spesifikasi": 3160,
      "sebelah": 3161,
      "2007": 3162,
      "market": 3163,
      "##yu": 3164,
      "##angundang": 3165,
      "tang": 3166,
      "kesalahan": 3167,
      "gigi": 3168,
      "analisis": 3169,
      "naf": 3170,
      "##ahu": 3171,
      "##eku": 3172,
      "asia": 3173,
      "komponen": 3174,
      "hujan": 3175,
      "pertemuan": 3176,
      "kris": 3177,
      "telepon": 3178,
      "##akaan": 3179,
      "maksimal": 3180,
      "##iksaan": 3181,
      "kecepatan": 3182,
      "catatan": 3183,
      "##24": 3184,
      "##baiki": 3185,
      "##anggu": 3186,
      "net": 3187,
      "sya": 3188,
      "pencarian": 3189,
      "mengeluarkan": 3190,
      "##dul": 3191,
      "kapas": 3192,
      "##80": 3193,
      "##tual": 3194,
      "##ral": 3195,
      "solusi": 3196,
      "mic": 3197,
      "glob": 3198,
      "menjawab": 3199,
      "off": 3200,
      "permas": 3201,
      "##ade": 3202,
      "didik": 3203,
      "##entasi": 3204,
      "undangundang": 3205,
      "sens": 3206,
      "##urah": 3207,
      "guna": 3208,
      "mengirim": 3209,
      "nasi": 3210,
      "kuliah": 3211,
      "kering": 3212,
      "suku": 3213,
      "##aluasi": 3214,
      "meter": 3215,
      "##ayat": 3216,
      "##ukti": 3217,
      "##arch": 3218,
      "##bernur": 3219,
      "##iling": 3220,
      "kalah": 3221,
      "ep": 3222,
      "##jakan": 3223,
      "peristiwa": 3224,
      "peral": 3225,
      "##atat": 3226,
      "lahan": 3227,
      "tampil": 3228,
      "sahabat": 3229,
      "penerb": 3230,
      "##upati": 3231,
      "pernik": 3232,
      "pengirim": 3233,
      "##nas": 3234,
      "bos": 3235,
      "den": 3236,
      "bertanya": 3237,
      "##sb": 3238,
      "##agia": 3239,
      "mulut": 3240,
      "##27": 3241,
      "lum": 3242,
      "sempurna": 3243,
      "semb": 3244,
      "vol": 3245,
      "tur": 3246,
      "mempert": 3247,
      "senin": 3248,
      "berikutnya": 3249,
      "medan": 3250,
      "##una": 3251,
      "berbicara": 3252,
      "jumat": 3253,
      "masjid": 3254,
      "##oo": 3255,
      "gubernur": 3256,
      "hot": 3257,
      "##emahan": 3258,
      "penjelasan": 3259,
      "##ect": 3260,
      "##21": 3261,
      "diantaranya": 3262,
      "##ora": 3263,
      "berisi": 3264,
      "##pe": 3265,
      "tampilan": 3266,
      "##utuskan": 3267,
      "keduanya": 3268,
      "sarana": 3269,
      "##arat": 3270,
      "##set": 3271,
      "republik": 3272,
      "sesungguhnya": 3273,
      "keinginan": 3274,
      "selengkapnya": 3275,
      "ratarata": 3276,
      "mi": 3277,
      "##mb": 3278,
      "pikir": 3279,
      "vit": 3280,
      "##yo": 3281,
      "memungkinkan": 3282,
      "kemenangan": 3283,
      "sim": 3284,
      "pemberian": 3285,
      "bogor": 3286,
      "ujung": 3287,
      "##uci": 3288,
      "seng": 3289,
      "habis": 3290,
      "hadi": 3291,
      "##etik": 3292,
      "black": 3293,
      "seper": 3294,
      "kerusakan": 3295,
      "jel": 3296,
      "jarang": 3297,
      "##te": 3298,
      "you": 3299,
      "pernikahan": 3300,
      "##35": 3301,
      "##usuri": 3302,
      "mahal": 3303,
      "februari": 3304,
      "##mer": 3305,
      "##amakan": 3306,
      "huruf": 3307,
      "biar": 3308,
      "memerlukan": 3309,
      "berkualitas": 3310,
      "minimal": 3311,
      "didapat": 3312,
      "bupati": 3313,
      "perbuatan": 3314,
      "##yaratan": 3315,
      "kompl": 3316,
      "##onsel": 3317,
      "perut": 3318,
      "##fi": 3319,
      "dukungan": 3320,
      "##artemen": 3321,
      "kari": 3322,
      "kematian": 3323,
      "tuk": 3324,
      "nyata": 3325,
      "mengingat": 3326,
      "##lat": 3327,
      "ref": 3328,
      "##inf": 3329,
      "kotak": 3330,
      "##ka": 3331,
      "sepeda": 3332,
      "##tusi": 3333,
      "##ras": 3334,
      "menikah": 3335,
      "berbagi": 3336,
      "kehilangan": 3337,
      "##unyi": 3338,
      "dong": 3339,
      "##inding": 3340,
      "kalimat": 3341,
      "fot": 3342,
      "komunitas": 3343,
      "timbul": 3344,
      "dampak": 3345,
      "siang": 3346,
      "##do": 3347,
      "##imu": 3348,
      "perum": 3349,
      "minuman": 3350,
      "berhenti": 3351,
      "pelatihan": 3352,
      "tanggung": 3353,
      "##oro": 3354,
      "mik": 3355,
      "penis": 3356,
      "pemeriksaan": 3357,
      "nus": 3358,
      "##entang": 3359,
      "##urusan": 3360,
      "##utr": 3361,
      "##atuan": 3362,
      "##aring": 3363,
      "##ood": 3364,
      "##itor": 3365,
      "batas": 3366,
      "##land": 3367,
      "memulai": 3368,
      "menawarkan": 3369,
      "usah": 3370,
      "##abel": 3371,
      "hasilnya": 3372,
      "##olaan": 3373,
      "##atera": 3374,
      "lantai": 3375,
      "##ehe": 3376,
      "pelaku": 3377,
      "menurunkan": 3378,
      "red": 3379,
      "kiri": 3380,
      "##ankan": 3381,
      "temant": 3382,
      "batang": 3383,
      "##andi": 3384,
      "roh": 3385,
      "saran": 3386,
      "pam": 3387,
      "oh": 3388,
      "software": 3389,
      "pandangan": 3390,
      "kekurangan": 3391,
      "teks": 3392,
      "##kar": 3393,
      "##ner": 3394,
      "##aliknya": 3395,
      "sepak": 3396,
      "wa": 3397,
      "##28": 3398,
      "kelebihan": 3399,
      "meja": 3400,
      "keterangan": 3401,
      "##ukuran": 3402,
      "##fa": 3403,
      "##ema": 3404,
      "berper": 3405,
      "infeksi": 3406,
      "virus": 3407,
      "hah": 3408,
      "persyaratan": 3409,
      "##ight": 3410,
      "##akkan": 3411,
      "demok": 3412,
      "##fikasi": 3413,
      "##anam": 3414,
      "kebud": 3415,
      "ringan": 3416,
      "##onda": 3417,
      "##intas": 3418,
      "##tutup": 3419,
      "##lus": 3420,
      "##okus": 3421,
      "ambil": 3422,
      "tahan": 3423,
      "melawan": 3424,
      "##mp": 3425,
      "menyelesaikan": 3426,
      "##stem": 3427,
      "##imaan": 3428,
      "das": 3429,
      "##esanan": 3430,
      "##uat": 3431,
      "kir": 3432,
      "##wis": 3433,
      "##orkan": 3434,
      "mitra": 3435,
      "kamera": 3436,
      "##ular": 3437,
      "##atangan": 3438,
      "ponsel": 3439,
      "bug": 3440,
      "fa": 3441,
      "##pir": 3442,
      "jo": 3443,
      "##truksi": 3444,
      "##omba": 3445,
      "tulang": 3446,
      "##empatkan": 3447,
      "status": 3448,
      "45": 3449,
      "singkat": 3450,
      "lang": 3451,
      "permukaan": 3452,
      "mirip": 3453,
      "##yum": 3454,
      "60": 3455,
      "bakar": 3456,
      "korea": 3457,
      "sas": 3458,
      "sebaliknya": 3459,
      "detail": 3460,
      "situasi": 3461,
      "kopi": 3462,
      "tni": 3463,
      "##her": 3464,
      "distrib": 3465,
      "putri": 3466,
      "peralatan": 3467,
      "pengelolaan": 3468,
      "abad": 3469,
      "##inter": 3470,
      "telur": 3471,
      "permasalahan": 3472,
      "bod": 3473,
      "##adem": 3474,
      "##ebat": 3475,
      "##uasai": 3476,
      "gereja": 3477,
      "tp": 3478,
      "dos": 3479,
      "laz": 3480,
      "bangk": 3481,
      "##guna": 3482,
      "menghilangkan": 3483,
      "##osok": 3484,
      "lip": 3485,
      "kekuasaan": 3486,
      "##omatis": 3487,
      "##ancis": 3488,
      "rangka": 3489,
      "##awar": 3490,
      "##iliar": 3491,
      "kebudayaan": 3492,
      "##itasi": 3493,
      "##nah": 3494,
      "nil": 3495,
      "gal": 3496,
      "##olis": 3497,
      "##kom": 3498,
      "ditulis": 3499,
      "generasi": 3500,
      "aliran": 3501,
      "kabar": 3502,
      "##jaga": 3503,
      "2000": 3504,
      "##eed": 3505,
      "##okasi": 3506,
      "##26": 3507,
      "nantinya": 3508,
      "##tarik": 3509,
      "lam": 3510,
      "pengiriman": 3511,
      "##opy": 3512,
      "san": 3513,
      "rasanya": 3514,
      "makna": 3515,
      "##ull": 3516,
      "awalnya": 3517,
      "bbm": 3518,
      "korup": 3519,
      "abu": 3520,
      "smartphone": 3521,
      "dingin": 3522,
      "##intaan": 3523,
      "melayani": 3524,
      "##onik": 3525,
      "aneh": 3526,
      "kertas": 3527,
      "##ajian": 3528,
      "##ahter": 3529,
      "ditetapkan": 3530,
      "##enaran": 3531,
      "##uasa": 3532,
      "berbentuk": 3533,
      "jabatan": 3534,
      "##ungkapkan": 3535,
      "##dr": 3536,
      "menutup": 3537,
      "##kin": 3538,
      "pang": 3539,
      "terbatas": 3540,
      "penerimaan": 3541,
      "dihad": 3542,
      "keunggulan": 3543,
      "kursi": 3544,
      "mp": 3545,
      "system": 3546,
      "##view": 3547,
      "adapun": 3548,
      "akunt": 3549,
      "saham": 3550,
      "mengerti": 3551,
      "##son": 3552,
      "pabrik": 3553,
      "terdekat": 3554,
      "inn": 3555,
      "##enya": 3556,
      "##acara": 3557,
      "tertarik": 3558,
      "##awesi": 3559,
      "optim": 3560,
      "##ue": 3561,
      "laptop": 3562,
      "##ental": 3563,
      "##itarnya": 3564,
      "bandar": 3565,
      "sungguh": 3566,
      "##kal": 3567,
      "pekan": 3568,
      "bing": 3569,
      "##usat": 3570,
      "##iterbitkan": 3571,
      "gor": 3572,
      "rapat": 3573,
      "membayar": 3574,
      "promosi": 3575,
      "##itakan": 3576,
      "jangka": 3577,
      "##inkan": 3578,
      "dalamnya": 3579,
      "melainkan": 3580,
      "##date": 3581,
      "pendekatan": 3582,
      "ajaran": 3583,
      "##asana": 3584,
      "beragam": 3585,
      "##ologis": 3586,
      "kain": 3587,
      "gagal": 3588,
      "##ays": 3589,
      "kerajaan": 3590,
      "target": 3591,
      "cabang": 3592,
      "kereta": 3593,
      "##dari": 3594,
      "salam": 3595,
      "##emas": 3596,
      "kadang": 3597,
      "tiba": 3598,
      "teh": 3599,
      "##antara": 3600,
      "kemarin": 3601,
      "##omend": 3602,
      "manis": 3603,
      "##intai": 3604,
      "liburan": 3605,
      "pengan": 3606,
      "dek": 3607,
      "##indungi": 3608,
      "##isipasi": 3609,
      "rom": 3610,
      "##cak": 3611,
      "ujar": 3612,
      "##00000": 3613,
      "memanfaatkan": 3614,
      "bed": 3615,
      "kompetensi": 3616,
      "##peng": 3617,
      "altern": 3618,
      "##har": 3619,
      "kesulit": 3620,
      "caranya": 3621,
      "##ahankan": 3622,
      "##onya": 3623,
      "pemuda": 3624,
      "tarif": 3625,
      "##ahaman": 3626,
      "menyenangkan": 3627,
      "##enterian": 3628,
      "suhu": 3629,
      "##ambung": 3630,
      "##29": 3631,
      "pc": 3632,
      "##alog": 3633,
      "##ancar": 3634,
      "fit": 3635,
      "ass": 3636,
      "gula": 3637,
      "seputar": 3638,
      "lemak": 3639,
      "##tifikat": 3640,
      "##over": 3641,
      "banyaknya": 3642,
      "kepem": 3643,
      "##agangan": 3644,
      "sadar": 3645,
      "menyampaikan": 3646,
      "tri": 3647,
      "otomatis": 3648,
      "maju": 3649,
      "saudara": 3650,
      "membahas": 3651,
      "liga": 3652,
      "lub": 3653,
      "windows": 3654,
      "rusak": 3655,
      "dikirim": 3656,
      "##ikulum": 3657,
      "hy": 3658,
      "val": 3659,
      "##uktikan": 3660,
      "bekasi": 3661,
      "##iasaan": 3662,
      "##uransi": 3663,
      "sektor": 3664,
      "layar": 3665,
      "rupiah": 3666,
      "##jak": 3667,
      "aksi": 3668,
      "tep": 3669,
      "##indahan": 3670,
      "meraih": 3671,
      "iz": 3672,
      "##po": 3673,
      "fi": 3674,
      "##olusi": 3675,
      "##se": 3676,
      "##engaruh": 3677,
      "tumbuhan": 3678,
      "##jur": 3679,
      "##ungkap": 3680,
      "jog": 3681,
      "cender": 3682,
      "##orit": 3683,
      "susah": 3684,
      "serangan": 3685,
      "##ling": 3686,
      "##la": 3687,
      "kementerian": 3688,
      "tib": 3689,
      "honda": 3690,
      "cairan": 3691,
      "bangun": 3692,
      "terbukti": 3693,
      "##ich": 3694,
      "halus": 3695,
      "perdagangan": 3696,
      "##eral": 3697,
      "tand": 3698,
      "##umuman": 3699,
      "##ary": 3700,
      "bukanlah": 3701,
      "##ambang": 3702,
      "##dan": 3703,
      "##ech": 3704,
      "memperhatikan": 3705,
      "suasana": 3706,
      "kapasitas": 3707,
      "amat": 3708,
      "##70": 3709,
      "##hluk": 3710,
      "engk": 3711,
      "ww": 3712,
      "bakteri": 3713,
      "##aim": 3714,
      "##anto": 3715,
      "ulama": 3716,
      "my": 3717,
      "tomb": 3718,
      "uu": 3719,
      "aut": 3720,
      "saluran": 3721,
      "##ance": 3722,
      "kesulitan": 3723,
      "##ikal": 3724,
      "##pert": 3725,
      "##ahi": 3726,
      "##buhkan": 3727,
      "##anggil": 3728,
      "cahaya": 3729,
      "##ris": 3730,
      "##day": 3731,
      "##ive": 3732,
      "petugas": 3733,
      "##akuan": 3734,
      "dinding": 3735,
      "smk": 3736,
      "##obati": 3737,
      "memutuskan": 3738,
      "but": 3739,
      "administrasi": 3740,
      "az": 3741,
      "imam": 3742,
      "jaya": 3743,
      "kurikulum": 3744,
      "cenderung": 3745,
      "##ajuan": 3746,
      "checkout": 3747,
      "pendapatan": 3748,
      "berbasis": 3749,
      "hadiah": 3750,
      "kewajib": 3751,
      "nak": 3752,
      "mendorong": 3753,
      "berguna": 3754,
      "##emuk": 3755,
      "not": 3756,
      "dini": 3757,
      "##elang": 3758,
      "mencer": 3759,
      "pernyataan": 3760,
      "prot": 3761,
      "##esuaikan": 3762,
      "ane": 3763,
      "terbuat": 3764,
      "kenyataan": 3765,
      "lampu": 3766,
      "kud": 3767,
      "##awi": 3768,
      "##uruhan": 3769,
      "dokumen": 3770,
      "ialah": 3771,
      "##ogen": 3772,
      "hadits": 3773,
      "##so": 3774,
      "##akata": 3775,
      "##33": 3776,
      "##akaian": 3777,
      "negatif": 3778,
      "sekitarnya": 3779,
      "mantan": 3780,
      "ilmi": 3781,
      "##elar": 3782,
      "kenal": 3783,
      "kebenaran": 3784,
      "seharihari": 3785,
      "stasi": 3786,
      "mm": 3787,
      "ketah": 3788,
      "##ening": 3789,
      "vag": 3790,
      "##bah": 3791,
      "##encanaan": 3792,
      "tb": 3793,
      "artis": 3794,
      "lant": 3795,
      "jerman": 3796,
      "berani": 3797,
      "jari": 3798,
      "##ataan": 3799,
      "196": 3800,
      "prediksi": 3801,
      "##ron": 3802,
      "##umber": 3803,
      "prem": 3804,
      "bot": 3805,
      "vitamin": 3806,
      "via": 3807,
      "bengk": 3808,
      "##osit": 3809,
      "##enuh": 3810,
      "read": 3811,
      "##isiko": 3812,
      "menyebutkan": 3813,
      "##adu": 3814,
      "##ematika": 3815,
      "##xy": 3816,
      "##akses": 3817,
      "anj": 3818,
      "real": 3819,
      "##coid": 3820,
      "terbentuk": 3821,
      "##lain": 3822,
      "##ran": 3823,
      "##str": 3824,
      "pis": 3825,
      "##ontr": 3826,
      "miliar": 3827,
      "##otong": 3828,
      "ibadah": 3829,
      "##48": 3830,
      "raj": 3831,
      "referensi": 3832,
      "konsumsi": 3833,
      "agung": 3834,
      "ditentukan": 3835,
      "makhluk": 3836,
      "tambah": 3837,
      "##idi": 3838,
      "imp": 3839,
      "kue": 3840,
      "terkena": 3841,
      "cak": 3842,
      "peg": 3843,
      "##be": 3844,
      "tamp": 3845,
      "berakhir": 3846,
      "sertifikat": 3847,
      "prestasi": 3848,
      "ra": 3849,
      "rasulullah": 3850,
      "mut": 3851,
      "hubungi": 3852,
      "09": 3853,
      "tolong": 3854,
      "kebiasaan": 3855,
      "os": 3856,
      "##ial": 3857,
      "##ervasi": 3858,
      "pari": 3859,
      "##etan": 3860,
      "du": 3861,
      "dikar": 3862,
      "dilengkapi": 3863,
      "31": 3864,
      "kontak": 3865,
      "belanja": 3866,
      "perencanaan": 3867,
      "penyelengg": 3868,
      "ilmiah": 3869,
      "perintah": 3870,
      "##tic": 3871,
      "temanteman": 3872,
      "angin": 3873,
      "luka": 3874,
      "kumpulan": 3875,
      "sampah": 3876,
      "payudara": 3877,
      "bertahan": 3878,
      "##ografi": 3879,
      "##awatir": 3880,
      "tern": 3881,
      "menengah": 3882,
      "rangk": 3883,
      "mendatang": 3884,
      "menemp": 3885,
      "juara": 3886,
      "dibangun": 3887,
      "diantara": 3888,
      "##yek": 3889,
      "kepercaya": 3890,
      "##word": 3891,
      "komisi": 3892,
      "pejabat": 3893,
      "mempelajari": 3894,
      "ulas": 3895,
      "rutin": 3896,
      "##eet": 3897,
      "batik": 3898,
      "##anjian": 3899,
      "seleksi": 3900,
      "##sinya": 3901,
      "golongan": 3902,
      "tag": 3903,
      "stasiun": 3904,
      "aq": 3905,
      "horm": 3906,
      "alternatif": 3907,
      "##ombang": 3908,
      "##wisata": 3909,
      "checkin": 3910,
      "free": 3911,
      "##araf": 3912,
      "rev": 3913,
      "bertambah": 3914,
      "##gen": 3915,
      "ars": 3916,
      "2006": 3917,
      "pemikiran": 3918,
      "##angkau": 3919,
      "jag": 3920,
      "korupsi": 3921,
      "##ekar": 3922,
      "##yal": 3923,
      "kristen": 3924,
      "pembah": 3925,
      "dipr": 3926,
      "pemesanan": 3927,
      "sekedar": 3928,
      "##anji": 3929,
      "menampilkan": 3930,
      "sign": 3931,
      "swt": 3932,
      "motivasi": 3933,
      "serius": 3934,
      "rs": 3935,
      "##enggarakan": 3936,
      "##urang": 3937,
      "kelapa": 3938,
      "power": 3939,
      "www": 3940,
      "peman": 3941,
      "##oa": 3942,
      "selasa": 3943,
      "segi": 3944,
      "pemahaman": 3945,
      "pasukan": 3946,
      "##argaan": 3947,
      "mac": 3948,
      "city": 3949,
      "##din": 3950,
      "2017": 3951,
      "mengajar": 3952,
      "kamis": 3953,
      "##nu": 3954,
      "keseluruhan": 3955,
      "besi": 3956,
      "pemas": 3957,
      "evaluasi": 3958,
      "80": 3959,
      "petani": 3960,
      "permintaan": 3961,
      "##onis": 3962,
      "enam": 3963,
      "ris": 3964,
      "kac": 3965,
      "rec": 3966,
      "rabu": 3967,
      "pip": 3968,
      "reaksi": 3969,
      "##indak": 3970,
      "puasa": 3971,
      "melew": 3972,
      "pemil": 3973,
      "##inisi": 3974,
      "pembelian": 3975,
      "dewan": 3976,
      "tol": 3977,
      "##udukan": 3978,
      "##illah": 3979,
      "menyebut": 3980,
      "##asnya": 3981,
      "mengakibatkan": 3982,
      "beserta": 3983,
      "##amilan": 3984,
      "asuransi": 3985,
      "##ts": 3986,
      "bertanggung": 3987,
      "klo": 3988,
      "##arm": 3989,
      "otot": 3990,
      "##ajarkan": 3991,
      "sobat": 3992,
      "end": 3993,
      "terkadang": 3994,
      "##ediaan": 3995,
      "kontrak": 3996,
      "##untuk": 3997,
      "properti": 3998,
      "##umi": 3999,
      "##atiba": 4000,
      "menekan": 4001,
      "##evisi": 4002,
      "##ahanan": 4003,
      "dimas": 4004,
      "dki": 4005,
      "satuan": 4006,
      "bicara": 4007,
      "##unjungan": 4008,
      "pimpinan": 4009,
      "engkau": 4010,
      "ne": 4011,
      "##ence": 4012,
      "shalat": 4013,
      "fakta": 4014,
      "##atasan": 4015,
      "##emar": 4016,
      "digital": 4017,
      "bingung": 4018,
      "pingg": 4019,
      "##engkapan": 4020,
      "##astik": 4021,
      "telusuri": 4022,
      "penghargaan": 4023,
      "penu": 4024,
      "##idaknya": 4025,
      "##ats": 4026,
      "##38": 4027,
      "##oli": 4028,
      "##titusi": 4029,
      "##56": 4030,
      "lawan": 4031,
      "##elan": 4032,
      "##apura": 4033,
      "tunggu": 4034,
      "nur": 4035,
      "sams": 4036,
      "kepercayaan": 4037,
      "##oker": 4038,
      "tema": 4039,
      "bonus": 4040,
      "pengen": 4041,
      "suci": 4042,
      "iya": 4043,
      "##ujudkan": 4044,
      "##afat": 4045,
      "setengah": 4046,
      "mom": 4047,
      "##ational": 4048,
      "sumatera": 4049,
      "makalah": 4050,
      "port": 4051,
      "memastikan": 4052,
      "deb": 4053,
      "kn": 4054,
      "##sek": 4055,
      "##tinggi": 4056,
      "##36": 4057,
      "trav": 4058,
      "tibatiba": 4059,
      "##udang": 4060,
      "bh": 4061,
      "semacam": 4062,
      "lucu": 4063,
      "##edur": 4064,
      "jas": 4065,
      "##umah": 4066,
      "lemah": 4067,
      "ganti": 4068,
      "inginkan": 4069,
      "pekerja": 4070,
      "kelamin": 4071,
      "hendak": 4072,
      "diskon": 4073,
      "matematika": 4074,
      "mengisi": 4075,
      "keren": 4076,
      "dibagi": 4077,
      "tangerang": 4078,
      "khawatir": 4079,
      "tuh": 4080,
      "don": 4081,
      "##itter": 4082,
      "asi": 4083,
      "##oman": 4084,
      "perjanjian": 4085,
      "disampaikan": 4086,
      "##alahkan": 4087,
      "cok": 4088,
      "##umpulkan": 4089,
      "poin": 4090,
      "dihasilkan": 4091,
      "global": 4092,
      "kolam": 4093,
      "##imakasih": 4094,
      "2005": 4095,
      "relatif": 4096,
      "anaknya": 4097,
      "bumn": 4098,
      "mengadakan": 4099,
      "iii": 4100,
      "##osir": 4101,
      "layak": 4102,
      "dur": 4103,
      "penjual": 4104,
      "##itungan": 4105,
      "murid": 4106,
      "fokus": 4107,
      "pembentukan": 4108,
      "2004": 4109,
      "##irik": 4110,
      "setempat": 4111,
      "##isnis": 4112,
      "##waktu": 4113,
      "transport": 4114,
      "hel": 4115,
      "##kw": 4116,
      "##etu": 4117,
      "gro": 4118,
      "plus": 4119,
      "adat": 4120,
      "kewajiban": 4121,
      "gitu": 4122,
      "penurun": 4123,
      "unt": 4124,
      "pengend": 4125,
      "syariah": 4126,
      "muka": 4127,
      "harganya": 4128,
      "##ambarkan": 4129,
      "##asta": 4130,
      "sapi": 4131,
      "##he": 4132,
      "##mm": 4133,
      "tenang": 4134,
      "##epak": 4135,
      "jil": 4136,
      "##indungan": 4137,
      "akadem": 4138,
      "##zi": 4139,
      "perso": 4140,
      "kreatif": 4141,
      "mant": 4142,
      "##sihkan": 4143,
      "av": 4144,
      "##34": 4145,
      "##ambar": 4146,
      "militer": 4147,
      "kadar": 4148,
      "##endiri": 4149,
      "search": 4150,
      "lag": 4151,
      "ros": 4152,
      "efisi": 4153,
      "##kus": 4154,
      "ident": 4155,
      "keterampilan": 4156,
      "doa": 4157,
      "##75": 4158,
      "berusia": 4159,
      "cas": 4160,
      "jul": 4161,
      "memperbaiki": 4162,
      "pastikan": 4163,
      "kotor": 4164,
      "kalimantan": 4165,
      "mekan": 4166,
      "seksual": 4167,
      "mimpi": 4168,
      "sudut": 4169,
      "bac": 4170,
      "kup": 4171,
      "memasuki": 4172,
      "emosi": 4173,
      "klien": 4174,
      "menghindari": 4175,
      "##omun": 4176,
      "##mar": 4177,
      "meneg": 4178,
      "##ony": 4179,
      "persoalan": 4180,
      "koleksi": 4181,
      "fin": 4182,
      "senj": 4183,
      "klub": 4184,
      "simpanan": 4185,
      "tabel": 4186,
      "##ajat": 4187,
      "##entikan": 4188,
      "penghasilan": 4189,
      "kunjungan": 4190,
      "##alang": 4191,
      "##ato": 4192,
      "##arikan": 4193,
      "puncak": 4194,
      "##asiat": 4195,
      "##aktif": 4196,
      "##cel": 4197,
      "pidana": 4198,
      "berbahaya": 4199,
      "lainlain": 4200,
      "dipilih": 4201,
      "play": 4202,
      "pastinya": 4203,
      "##ultan": 4204,
      "##umpang": 4205,
      "kaw": 4206,
      "uji": 4207,
      "serupa": 4208,
      "##uhkan": 4209,
      "##otein": 4210,
      "##antikan": 4211,
      "detik": 4212,
      "ru": 4213,
      "austr": 4214,
      "##ampang": 4215,
      "rahasia": 4216,
      "##amkan": 4217,
      "##cana": 4218,
      "izin": 4219,
      "##angkut": 4220,
      "tombol": 4221,
      "ditambah": 4222,
      "##app": 4223,
      "ketahui": 4224,
      "##agang": 4225,
      "forum": 4226,
      "beban": 4227,
      "##ubung": 4228,
      "##sm": 4229,
      "00": 4230,
      "arus": 4231,
      "with": 4232,
      "##ultas": 4233,
      "dasarnya": 4234,
      "##lin": 4235,
      "setidaknya": 4236,
      "kampung": 4237,
      "fav": 4238,
      "tungg": 4239,
      "dgn": 4240,
      "transfer": 4241,
      "##uaran": 4242,
      "test": 4243,
      "##tis": 4244,
      "pemand": 4245,
      "##90": 4246,
      "##ory": 4247,
      "mengal": 4248,
      "segar": 4249,
      "cu": 4250,
      "tun": 4251,
      "bandara": 4252,
      "##arn": 4253,
      "dikembangkan": 4254,
      "gimana": 4255,
      "bibir": 4256,
      "mbak": 4257,
      "melah": 4258,
      "pengusaha": 4259,
      "latar": 4260,
      "##kp": 4261,
      "maha": 4262,
      "gelar": 4263,
      "##ii": 4264,
      "adik": 4265,
      "service": 4266,
      "bertujuan": 4267,
      "katakata": 4268,
      "##spot": 4269,
      "menolak": 4270,
      "perbaikan": 4271,
      "##udahan": 4272,
      "kg": 4273,
      "india": 4274,
      "...": 4275,
      "##egan": 4276,
      "mengunjungi": 4277,
      "##angkutan": 4278,
      "sabtu": 4279,
      "cre": 4280,
      "kampus": 4281,
      "##ihatan": 4282,
      "bugil": 4283,
      "##ww": 4284,
      "##ins": 4285,
      "bend": 4286,
      "36": 4287,
      "##78": 4288,
      "##ulusan": 4289,
      "dikarenakan": 4290,
      "kehamilan": 4291,
      "ec": 4292,
      "pulsa": 4293,
      "##go": 4294,
      "keberadaan": 4295,
      "pinj": 4296,
      "##idan": 4297,
      "pertimb": 4298,
      "beda": 4299,
      "kil": 4300,
      "perlindungan": 4301,
      "utk": 4302,
      "entah": 4303,
      "lepas": 4304,
      "melanjutkan": 4305,
      "memainkan": 4306,
      "risiko": 4307,
      "lulus": 4308,
      "##usen": 4309,
      "dprd": 4310,
      "##ml": 4311,
      "jend": 4312,
      "ret": 4313,
      "keg": 4314,
      "##ikmat": 4315,
      "##oks": 4316,
      "##jah": 4317,
      "sipil": 4318,
      "cit": 4319,
      "luk": 4320,
      "##aksana": 4321,
      "harta": 4322,
      "membunuh": 4323,
      "##upuk": 4324,
      "emp": 4325,
      "putra": 4326,
      "kuning": 4327,
      "perumahan": 4328,
      "rad": 4329,
      "alias": 4330,
      "massa": 4331,
      "##irm": 4332,
      "sepertinya": 4333,
      "plastik": 4334,
      "menguasai": 4335,
      "perjuangan": 4336,
      "pembaca": 4337,
      "div": 4338,
      "key": 4339,
      "gaji": 4340,
      "##utaan": 4341,
      "vis": 4342,
      "grup": 4343,
      "fakultas": 4344,
      "rt": 4345,
      "diab": 4346,
      "##irian": 4347,
      "##berry": 4348,
      "##ke": 4349,
      "pangg": 4350,
      "penurunan": 4351,
      "lebar": 4352,
      "piala": 4353,
      "diny": 4354,
      "##etes": 4355,
      "menetapkan": 4356,
      "menerapkan": 4357,
      "70": 4358,
      "prim": 4359,
      "col": 4360,
      "##ayang": 4361,
      "dosen": 4362,
      "##ovasi": 4363,
      "hebat": 4364,
      "urusan": 4365,
      "disert": 4366,
      "##omunikasi": 4367,
      "prosedur": 4368,
      "plan": 4369,
      "ketur": 4370,
      "mengobati": 4371,
      "review": 4372,
      "klas": 4373,
      "##allah": 4374,
      "televisi": 4375,
      "##antampilkan": 4376,
      "spesies": 4377,
      "##umur": 4378,
      "##ancang": 4379,
      "sengaja": 4380,
      "bad": 4381,
      "fen": 4382,
      "menyimpan": 4383,
      "sid": 4384,
      "cina": 4385,
      "##ubl": 4386,
      "##akup": 4387,
      "hind": 4388,
      "##ingkan": 4389,
      "lun": 4390,
      "koper": 4391,
      "##press": 4392,
      "iv": 4393,
      "pns": 4394,
      "nan": 4395,
      "petunjuk": 4396,
      "level": 4397,
      "update": 4398,
      "dibawa": 4399,
      "##ucapkan": 4400,
      "##obi": 4401,
      "pag": 4402,
      "dam": 4403,
      "protein": 4404,
      "joh": 4405,
      "ulasantampilkan": 4406,
      "terang": 4407,
      "padang": 4408,
      "##pirasi": 4409,
      "penampilan": 4410,
      "miliki": 4411,
      "solo": 4412,
      "persero": 4413,
      "membuatnya": 4414,
      "melahirkan": 4415,
      "puas": 4416,
      "##pem": 4417,
      "kenaikan": 4418,
      "jurusan": 4419,
      "bimb": 4420,
      "##urs": 4421,
      "pond": 4422,
      "##rop": 4423,
      "##utor": 4424,
      "news": 4425,
      "perguruan": 4426,
      "##ean": 4427,
      "##olan": 4428,
      "##elis": 4429,
      "intel": 4430,
      "manag": 4431,
      "diikuti": 4432,
      "##itah": 4433,
      "halnya": 4434,
      "##lahan": 4435,
      "sinar": 4436,
      "lubang": 4437,
      "sop": 4438,
      "kabel": 4439,
      "pengumuman": 4440,
      "format": 4441,
      "can": 4442,
      "##amah": 4443,
      "bri": 4444,
      "##eum": 4445,
      "bor": 4446,
      "inform": 4447,
      "pasir": 4448,
      "silakan": 4449,
      "##esis": 4450,
      "##iarkan": 4451,
      "tuan": 4452,
      "##organ": 4453,
      "##udahkan": 4454,
      "##rid": 4455,
      "##aa": 4456,
      "mempertahankan": 4457,
      "##zah": 4458,
      "konflik": 4459,
      "menyadari": 4460,
      "samsung": 4461,
      "menyerang": 4462,
      "akuntansi": 4463,
      "hib": 4464,
      "terlibat": 4465,
      "resiko": 4466,
      "hard": 4467,
      "##pres": 4468,
      "pembahasan": 4469,
      "laga": 4470,
      "##oko": 4471,
      "graf": 4472,
      "more": 4473,
      "##99": 4474,
      "ij": 4475,
      "##az": 4476,
      "##angani": 4477,
      "samb": 4478,
      "teknis": 4479,
      "menganggap": 4480,
      "senjata": 4481,
      "pemilu": 4482,
      "##epaskan": 4483,
      "##identifikasi": 4484,
      "cac": 4485,
      "pengadilan": 4486,
      "##orasi": 4487,
      "travel": 4488,
      "melewati": 4489,
      "minimalis": 4490,
      "lapisan": 4491,
      "##adaran": 4492,
      "profil": 4493,
      "##alanya": 4494,
      "##een": 4495,
      "##siapkan": 4496,
      "transportasi": 4497,
      "rob": 4498,
      "mengungkapkan": 4499,
      "##kuat": 4500,
      "ty": 4501,
      "hangat": 4502,
      "masakan": 4503,
      "giz": 4504,
      "alquran": 4505,
      "##inci": 4506,
      "fat": 4507,
      "##alin": 4508,
      "##lang": 4509,
      "misi": 4510,
      "merk": 4511,
      "era": 4512,
      "melindungi": 4513,
      "##tuju": 4514,
      "disebutkan": 4515,
      "mutu": 4516,
      "kerjasama": 4517,
      "dj": 4518,
      "trik": 4519,
      "menyus": 4520,
      "ml": 4521,
      "tujuh": 4522,
      "##cl": 4523,
      "toy": 4524,
      "promo": 4525,
      "##emui": 4526,
      "##impulan": 4527,
      "##ume": 4528,
      "berperan": 4529,
      "menjalani": 4530,
      "karb": 4531,
      "sch": 4532,
      "panduan": 4533,
      "##illa": 4534,
      "lomba": 4535,
      "kaos": 4536,
      "hany": 4537,
      "pri": 4538,
      "ton": 4539,
      "melakukannya": 4540,
      "##isahkan": 4541,
      "##indo": 4542,
      "contohnya": 4543,
      "tenggara": 4544,
      "china": 4545,
      "##kota": 4546,
      "##entuh": 4547,
      "land": 4548,
      "gab": 4549,
      "dri": 4550,
      "sore": 4551,
      "tertinggi": 4552,
      "34": 4553,
      "gram": 4554,
      "menilai": 4555,
      "##hasilan": 4556,
      "##kirakan": 4557,
      "nyeri": 4558,
      "grosir": 4559,
      "##aporkan": 4560,
      "perhatikan": 4561,
      "##sul": 4562,
      "dal": 4563,
      "##erai": 4564,
      "##tip": 4565,
      "##itek": 4566,
      "bro": 4567,
      "##buang": 4568,
      "##omod": 4569,
      "##inar": 4570,
      "rekan": 4571,
      "gug": 4572,
      "diatur": 4573,
      "kemajuan": 4574,
      "radio": 4575,
      "praktek": 4576,
      "drama": 4577,
      "temukan": 4578,
      "perek": 4579,
      "lazada": 4580,
      "strategis": 4581,
      "pemasaran": 4582,
      "##umkan": 4583,
      "max": 4584,
      "back": 4585,
      "##eo": 4586,
      "hr": 4587,
      "kelah": 4588,
      "lembut": 4589,
      "##37": 4590,
      "sewa": 4591,
      "ahmad": 4592,
      "penyimp": 4593,
      "dibuka": 4594,
      "oke": 4595,
      "##nam": 4596,
      "ketidak": 4597,
      "praktis": 4598,
      "gua": 4599,
      "##otik": 4600,
      "konv": 4601,
      "nark": 4602,
      "kesadaran": 4603,
      "2003": 4604,
      "##itia": 4605,
      "##engarkan": 4606,
      "nilain": 4607,
      "berkel": 4608,
      "##arankan": 4609,
      "##aransi": 4610,
      "lintas": 4611,
      "swasta": 4612,
      "sand": 4613,
      "##jen": 4614,
      "##ifi": 4615,
      "##ashapus": 4616,
      "persiapan": 4617,
      "anc": 4618,
      "elektronik": 4619,
      "kub": 4620,
      "##ekaan": 4621,
      "90": 4622,
      "pram": 4623,
      "##umpul": 4624,
      "peduli": 4625,
      "pb": 4626,
      "pendukung": 4627,
      "memudahkan": 4628,
      "keker": 4629,
      "##aras": 4630,
      "ekstr": 4631,
      "sulawesi": 4632,
      "hidupnya": 4633,
      "eh": 4634,
      "fo": 4635,
      "##anyi": 4636,
      "penerapan": 4637,
      "tir": 4638,
      "hol": 4639,
      "jemb": 4640,
      "langit": 4641,
      "##va": 4642,
      "##inat": 4643,
      "##46": 4644,
      "##bel": 4645,
      "dibaca": 4646,
      "peneliti": 4647,
      "berpengaruh": 4648,
      "##onor": 4649,
      "lampung": 4650,
      "sn": 4651,
      "melibatkan": 4652,
      "nilainilai": 4653,
      "full": 4654,
      "biru": 4655,
      "ketingg": 4656,
      "diperhatikan": 4657,
      "dinyatakan": 4658,
      "##osisi": 4659,
      "##saya": 4660,
      "hip": 4661,
      "##awancara": 4662,
      "ragu": 4663,
      "td": 4664,
      "plat": 4665,
      "##55": 4666,
      "cir": 4667,
      "##www": 4668,
      "##akaran": 4669,
      "##ecil": 4670,
      "32": 4671,
      "##oft": 4672,
      "kang": 4673,
      "buatan": 4674,
      "##2013": 4675,
      "sastra": 4676,
      "ramad": 4677,
      "urut": 4678,
      "haji": 4679,
      "bencana": 4680,
      "##ingkali": 4681,
      "definisi": 4682,
      "blok": 4683,
      "twitter": 4684,
      "katakan": 4685,
      "terapi": 4686,
      "jun": 4687,
      "##sc": 4688,
      "##anjung": 4689,
      "##olahan": 4690,
      "simb": 4691,
      "jaminan": 4692,
      "##usatunya": 4693,
      "depok": 4694,
      "##asila": 4695,
      "##abah": 4696,
      "ren": 4697,
      "bersangkutan": 4698,
      "tubuhnya": 4699,
      "marah": 4700,
      "##olat": 4701,
      "##orl": 4702,
      "ic": 4703,
      "##resi": 4704,
      "membuktikan": 4705,
      "##ustom": 4706,
      "##aing": 4707,
      "##atau": 4708,
      "gizi": 4709,
      "paham": 4710,
      "group": 4711,
      "##ove": 4712,
      "lg": 4713,
      "##orial": 4714,
      "##itual": 4715,
      "##upan": 4716,
      "keturunan": 4717,
      "sib": 4718,
      "papua": 4719,
      "##ulauan": 4720,
      "aneka": 4721,
      "yun": 4722,
      "dosa": 4723,
      "seringkali": 4724,
      "bersam": 4725,
      "direktur": 4726,
      "mengus": 4727,
      "kaca": 4728,
      "berangkat": 4729,
      "satusatunya": 4730,
      "share": 4731,
      "1000": 4732,
      "##inis": 4733,
      "let": 4734,
      "##alisme": 4735,
      "penerbangan": 4736,
      "##de": 4737,
      "##iss": 4738,
      "mr": 4739,
      "diet": 4740,
      "iman": 4741,
      "angkatan": 4742,
      "##uary": 4743,
      "ari": 4744,
      "ci": 4745,
      "majalah": 4746,
      "internal": 4747,
      "##das": 4748,
      "##pan": 4749,
      "sri": 4750,
      "material": 4751,
      "park": 4752,
      "mencakup": 4753,
      "seber": 4754,
      "order": 4755,
      "##nik": 4756,
      "muk": 4757,
      "##39": 4758,
      "berbuat": 4759,
      "favorit": 4760,
      "mengej": 4761,
      "parah": 4762,
      "app": 4763,
      "##angkal": 4764,
      "##arahan": 4765,
      "sepenuh": 4766,
      "kesej": 4767,
      "##awal": 4768,
      "isra": 4769,
      "skor": 4770,
      "bahagia": 4771,
      "bawa": 4772,
      "##57": 4773,
      "anim": 4774,
      "##ys": 4775,
      "tantangan": 4776,
      "sasaran": 4777,
      "##ahl": 4778,
      "##kripsi": 4779,
      "##les": 4780,
      "tersendiri": 4781,
      "ramah": 4782,
      "##31": 4783,
      "mental": 4784,
      "##kas": 4785,
      "celana": 4786,
      "pass": 4787,
      "point": 4788,
      "server": 4789,
      "disediakan": 4790,
      "##inga": 4791,
      "wat": 4792,
      "pedagang": 4793,
      "rangkaian": 4794,
      "departemen": 4795,
      "jender": 4796,
      "pangan": 4797,
      "tut": 4798,
      "berlebihan": 4799,
      "bung": 4800,
      "alih": 4801,
      "mengajak": 4802,
      "sekret": 4803,
      "kesimpulan": 4804,
      "hom": 4805,
      "##blog": 4806,
      "##aysia": 4807,
      "telkom": 4808,
      "yam": 4809,
      "hemat": 4810,
      "##iver": 4811,
      "job": 4812,
      "minat": 4813,
      "koperasi": 4814,
      "roda": 4815,
      "bulu": 4816,
      "1945": 4817,
      "peringkat": 4818,
      "diar": 4819,
      "cow": 4820,
      "##hamdul": 4821,
      "kepadanya": 4822,
      "##atihati": 4823,
      "baris": 4824,
      "nusantara": 4825,
      "mengganggu": 4826,
      "tutup": 4827,
      "jamur": 4828,
      "tertulis": 4829,
      "##barui": 4830,
      "kucing": 4831,
      "panitia": 4832,
      "##tah": 4833,
      "keberhasilan": 4834,
      "150": 4835,
      "kebers": 4836,
      "alum": 4837,
      "##ler": 4838,
      "##ingatkan": 4839,
      "ayo": 4840,
      "binatang": 4841,
      "##owi": 4842,
      "lancar": 4843,
      "wid": 4844,
      "bertindak": 4845,
      "miskin": 4846,
      "menyukai": 4847,
      "##vari": 4848,
      "pancasila": 4849,
      "hanyalah": 4850,
      "##assar": 4851,
      "fenom": 4852,
      "##49": 4853,
      "##luan": 4854,
      "##ings": 4855,
      "##ubungkan": 4856,
      "02": 4857,
      "##isar": 4858,
      "diterapkan": 4859,
      "stabil": 4860,
      "##oth": 4861,
      "tat": 4862,
      "book": 4863,
      "##able": 4864,
      "inti": 4865,
      "mol": 4866,
      "##sial": 4867,
      "jati": 4868,
      "##yan": 4869,
      "jurn": 4870,
      "jenderal": 4871,
      "##ajikan": 4872,
      "##ikirkan": 4873,
      "##elihara": 4874,
      "heh": 4875,
      "limb": 4876,
      "##uaskan": 4877,
      "##omi": 4878,
      "mesti": 4879,
      "##log": 4880,
      "jaman": 4881,
      "##ju": 4882,
      "memperk": 4883,
      "gelombang": 4884,
      "nu": 4885,
      "##egi": 4886,
      "hakim": 4887,
      "we": 4888,
      "##encanakan": 4889,
      "semester": 4890,
      "malaysia": 4891,
      "menahan": 4892,
      "##aranegara": 4893,
      "akal": 4894,
      "jutaan": 4895,
      "tk": 4896,
      "istim": 4897,
      "##aker": 4898,
      "mengkonsumsi": 4899,
      "keperluan": 4900,
      "kedalam": 4901,
      "vs": 4902,
      "gerak": 4903,
      "kompleks": 4904,
      "##rut": 4905,
      "copy": 4906,
      "loker": 4907,
      "kus": 4908,
      "##itmen": 4909,
      "gm": 4910,
      "kaf": 4911,
      "##untungkan": 4912,
      "kehad": 4913,
      "pemakaian": 4914,
      "##oss": 4915,
      "##88": 4916,
      "mewah": 4917,
      "didirikan": 4918,
      "ratusan": 4919,
      "komb": 4920,
      "##andai": 4921,
      "##urahan": 4922,
      "##lowongan": 4923,
      "perhitungan": 4924,
      "##utang": 4925,
      "##47": 4926,
      "dinam": 4927,
      "##enuhi": 4928,
      "indonesi": 4929,
      "suam": 4930,
      "##ahatan": 4931,
      "garam": 4932,
      "##osting": 4933,
      "dapur": 4934,
      "##enalkan": 4935,
      "ginj": 4936,
      "##entrasi": 4937,
      "diskusi": 4938,
      "negaranegara": 4939,
      "menderita": 4940,
      "500": 4941,
      "lumayan": 4942,
      "ramadhan": 4943,
      "koord": 4944,
      "betul": 4945,
      "aktifitas": 4946,
      "tunggal": 4947,
      "dikeluarkan": 4948,
      "apaapa": 4949,
      "kebaikan": 4950,
      "australia": 4951,
      "kelahiran": 4952,
      "##diterbitkan": 4953,
      "##ikator": 4954,
      "ujarnya": 4955,
      "gambaran": 4956,
      "pint": 4957,
      "##kn": 4958,
      "##ven": 4959,
      "##safat": 4960,
      "liat": 4961,
      "pemandangan": 4962,
      "teratur": 4963,
      "##wakilan": 4964,
      "upacara": 4965,
      "toyota": 4966,
      "karen": 4967,
      "rekening": 4968,
      "ungg": 4969,
      "##kop": 4970,
      "##adai": 4971,
      "sent": 4972,
      "menyi": 4973,
      "cd": 4974,
      "##wang": 4975,
      "disertai": 4976,
      "##acu": 4977,
      "##afs": 4978,
      "bub": 4979,
      "##atik": 4980,
      "keempat": 4981,
      "demokrasi": 4982,
      "##anyol": 4983,
      "deposit": 4984,
      "##amatkan": 4985,
      "kosong": 4986,
      "##otan": 4987,
      "bangga": 4988,
      "keindahan": 4989,
      "berbel": 4990,
      "penutup": 4991,
      "##ez": 4992,
      "##ct": 4993,
      "mengund": 4994,
      "75": 4995,
      "aud": 4996,
      "motif": 4997,
      "cita": 4998,
      "spir": 4999,
      "pinjaman": 5000,
      "instr": 5001,
      "merusak": 5002,
      "mengend": 5003,
      "diadakan": 5004,
      "berw": 5005,
      "##sal": 5006,
      "##sin": 5007,
      "##epsi": 5008,
      "sari": 5009,
      "##irahat": 5010,
      "##enger": 5011,
      "ginjal": 5012,
      "dijelaskan": 5013,
      "##ebasan": 5014,
      "blogger": 5015,
      "biji": 5016,
      "sangg": 5017,
      "mengangkat": 5018,
      "mini": 5019,
      "blackberry": 5020,
      "##ugian": 5021,
      "mart": 5022,
      "tante": 5023,
      "akr": 5024,
      "obyek": 5025,
      "disana": 5026,
      "##ame": 5027,
      "cont": 5028,
      "ditawarkan": 5029,
      "beri": 5030,
      "##abiskan": 5031,
      "diminta": 5032,
      "berkunjung": 5033,
      "nutr": 5034,
      "pindah": 5035,
      "perlengkapan": 5036,
      "kemen": 5037,
      "##by": 5038,
      "##ical": 5039,
      "respon": 5040,
      "##ews": 5041,
      "produsen": 5042,
      "##embalikan": 5043,
      "kart": 5044,
      "abd": 5045,
      "##iteria": 5046,
      "tom": 5047,
      "diajukan": 5048,
      "medis": 5049,
      "##aktor": 5050,
      "lazadacoid": 5051,
      "##etakan": 5052,
      "tindak": 5053,
      "jogja": 5054,
      "##apt": 5055,
      "tangk": 5056,
      "pesta": 5057,
      "pariwisata": 5058,
      "kategor": 5059,
      "flash": 5060,
      "##etakkan": 5061,
      "##lem": 5062,
      "##ernya": 5063,
      "museum": 5064,
      "bibit": 5065,
      "sosok": 5066,
      "##gm": 5067,
      "##32": 5068,
      "gemp": 5069,
      "kurs": 5070,
      "##ribadian": 5071,
      "kod": 5072,
      "seiring": 5073,
      "kekayaan": 5074,
      "sisa": 5075,
      "custom": 5076,
      "harian": 5077,
      "jerawat": 5078,
      "dada": 5079,
      "didukung": 5080,
      "inves": 5081,
      "memegang": 5082,
      "55": 5083,
      "len": 5084,
      "tentara": 5085,
      "mengerjakan": 5086,
      "edit": 5087,
      "baku": 5088,
      "karakteristik": 5089,
      "##ado": 5090,
      "jujur": 5091,
      "istimewa": 5092,
      "taj": 5093,
      "botol": 5094,
      "##gantikan": 5095,
      "diker": 5096,
      "speed": 5097,
      "pertimbangan": 5098,
      "##itr": 5099,
      "penet": 5100,
      "krim": 5101,
      "peranan": 5102,
      "budi": 5103,
      "ner": 5104,
      "italia": 5105,
      "##hy": 5106,
      "ribuan": 5107,
      "betapa": 5108,
      "terbang": 5109,
      "kerugian": 5110,
      "##rol": 5111,
      "##erahan": 5112,
      "jembatan": 5113,
      "membersihkan": 5114,
      "sebut": 5115,
      "banten": 5116,
      "gampang": 5117,
      "campuran": 5118,
      "pentingnya": 5119,
      "hapus": 5120,
      "##yakinan": 5121,
      "##io": 5122,
      "##ambahan": 5123,
      "##pt": 5124,
      "las": 5125,
      "induk": 5126,
      "tegas": 5127,
      "##nes": 5128,
      "postingan": 5129,
      "perwakilan": 5130,
      "seksi": 5131,
      "ucapan": 5132,
      "untung": 5133,
      "dif": 5134,
      "center": 5135,
      "##ahteraan": 5136,
      "moral": 5137,
      "banjir": 5138,
      "##etulan": 5139,
      "filsafat": 5140,
      "##tin": 5141,
      "pengurus": 5142,
      "rac": 5143,
      "##awanan": 5144,
      "lidah": 5145,
      "diinginkan": 5146,
      "##gag": 5147,
      "##omodasi": 5148,
      "kag": 5149,
      "pelatih": 5150,
      "##ikkan": 5151,
      "masukan": 5152,
      "##ahasa": 5153,
      "games": 5154,
      "sesudah": 5155,
      "gelap": 5156,
      "kira": 5157,
      "kepemimpinan": 5158,
      "seru": 5159,
      "##bur": 5160,
      "yuk": 5161,
      "han": 5162,
      "lambat": 5163,
      "##ashion": 5164,
      "kpk": 5165,
      "trading": 5166,
      "bau": 5167,
      "##uasan": 5168,
      "pengolahan": 5169,
      "jah": 5170,
      "2002": 5171,
      "antaranya": 5172,
      "##ekuensi": 5173,
      "mengakui": 5174,
      "##ria": 5175,
      "fis": 5176,
      "bimbingan": 5177,
      "kb": 5178,
      "##els": 5179,
      "menak": 5180,
      "spanyol": 5181,
      "aset": 5182,
      "##amina": 5183,
      "emang": 5184,
      "##antum": 5185,
      "visi": 5186,
      "sekel": 5187,
      "##ten": 5188,
      "terjangkau": 5189,
      "kesejahteraan": 5190,
      "##pd": 5191,
      "bok": 5192,
      "saksi": 5193,
      "##erdekaan": 5194,
      "mengirimkan": 5195,
      "terimakasih": 5196,
      "tbk": 5197,
      "07": 5198,
      "soci": 5199,
      "##likasikan": 5200,
      "akar": 5201,
      "pengawasan": 5202,
      "##embuhkan": 5203,
      "char": 5204,
      "vagina": 5205,
      "membagi": 5206,
      "##inda": 5207,
      "##igh": 5208,
      "kolom": 5209,
      "berbelanja": 5210,
      "skripsi": 5211,
      "memperbarui": 5212,
      "kakak": 5213,
      "seolah": 5214,
      "##oke": 5215,
      "sejenis": 5216,
      "##gl": 5217,
      "##ise": 5218,
      "##cepat": 5219,
      "menyusun": 5220,
      "praktik": 5221,
      "parkir": 5222,
      "##orld": 5223,
      "berpend": 5224,
      "alhamdul": 5225,
      "mulia": 5226,
      "menguntungkan": 5227,
      "kong": 5228,
      "mendes": 5229,
      "dibentuk": 5230,
      "sekian": 5231,
      "cetak": 5232,
      "kecel": 5233,
      "jak": 5234,
      "05": 5235,
      "kejahatan": 5236,
      "jokowi": 5237,
      "##uddin": 5238,
      "kit": 5239,
      "##icu": 5240,
      "naskah": 5241,
      "cuci": 5242,
      "has": 5243,
      "##000000": 5244,
      "leh": 5245,
      "dimanfaatkan": 5246,
      "##bing": 5247,
      "rus": 5248,
      "##eat": 5249,
      "kemerdekaan": 5250,
      "##ike": 5251,
      "lif": 5252,
      "dak": 5253,
      "wajar": 5254,
      "##imbangan": 5255,
      "masukkan": 5256,
      "karna": 5257,
      "##dy": 5258,
      "goreng": 5259,
      "basah": 5260,
      "memasukkan": 5261,
      "star": 5262,
      "israel": 5263,
      "mewujudkan": 5264,
      "sepenuhnya": 5265,
      "lulusan": 5266,
      "wawancara": 5267,
      "dijalan": 5268,
      "limbah": 5269,
      "ms": 5270,
      "##operasi": 5271,
      "38": 5272,
      "kepribadian": 5273,
      "senya": 5274,
      "bahaya": 5275,
      "comm": 5276,
      "memenangkan": 5277,
      "singapura": 5278,
      "pacar": 5279,
      "##ianya": 5280,
      "stadi": 5281,
      "sesama": 5282,
      "makassar": 5283,
      "##emukakan": 5284,
      "##2012": 5285,
      "##ulah": 5286,
      "##del": 5287,
      "instansi": 5288,
      "berkat": 5289,
      "pembeli": 5290,
      "memakan": 5291,
      "##mo": 5292,
      "##alih": 5293,
      "merawat": 5294,
      "turut": 5295,
      "anjing": 5296,
      "##tunya": 5297,
      "menyiapkan": 5298,
      "nen": 5299,
      "identitas": 5300,
      "pupuk": 5301,
      "##ultasi": 5302,
      "##inaan": 5303,
      "##enting": 5304,
      "memperl": 5305,
      "##orium": 5306,
      "memesan": 5307,
      "pelajar": 5308,
      "day": 5309,
      "##ica": 5310,
      "##ulas": 5311,
      "ampuh": 5312,
      "kawan": 5313,
      "sejauh": 5314,
      "volume": 5315,
      "##awas": 5316,
      "##ustakaan": 5317,
      "sport": 5318,
      "##meng": 5319,
      "kecelakaan": 5320,
      "dipas": 5321,
      "rusia": 5322,
      "hab": 5323,
      "##agn": 5324,
      "logam": 5325,
      "pemk": 5326,
      "renang": 5327,
      "##pertimb": 5328,
      "topik": 5329,
      "ekor": 5330,
      "##hu": 5331,
      "ruk": 5332,
      "diduga": 5333,
      "disamping": 5334,
      "inj": 5335,
      "##gunaan": 5336,
      "serat": 5337,
      "menghubungi": 5338,
      "besarnya": 5339,
      "lho": 5340,
      "##idaya": 5341,
      "##epan": 5342,
      "keselamatan": 5343,
      "##antren": 5344,
      "heran": 5345,
      "mencintai": 5346,
      "menurutnya": 5347,
      "madu": 5348,
      "mengab": 5349,
      "bil": 5350,
      "kristus": 5351,
      "##ign": 5352,
      "distributor": 5353,
      "ub": 5354,
      "ibnu": 5355,
      "word": 5356,
      "puisi": 5357,
      "liter": 5358,
      "baiknya": 5359,
      "sayangnya": 5360,
      "##angsang": 5361,
      "prob": 5362,
      "##tan": 5363,
      "tor": 5364,
      "signif": 5365,
      "memasang": 5366,
      "menggambarkan": 5367,
      "##ingatan": 5368,
      "menginginkan": 5369,
      "kriteria": 5370,
      "dian": 5371,
      "reb": 5372,
      "penyus": 5373,
      "bawang": 5374,
      "pemenang": 5375,
      "penumpang": 5376,
      "multi": 5377,
      "keny": 5378,
      "this": 5379,
      "membedakan": 5380,
      "kena": 5381,
      "kis": 5382,
      "##ks": 5383,
      "lunak": 5384,
      "mengucapkan": 5385,
      "audi": 5386,
      "##masalah": 5387,
      "operasional": 5388,
      "surga": 5389,
      "##apas": 5390,
      "kebetulan": 5391,
      "##ou": 5392,
      "bukit": 5393,
      "sekalipun": 5394,
      "##arjo": 5395,
      "ungkap": 5396,
      "ye": 5397,
      "##ahul": 5398,
      "suz": 5399,
      "diw": 5400,
      "300": 5401,
      "jilbab": 5402,
      "simbol": 5403,
      "berhak": 5404,
      "cipta": 5405,
      "##indones": 5406,
      "##anye": 5407,
      "kompetisi": 5408,
      "mens": 5409,
      "##argai": 5410,
      "rekomend": 5411,
      "kajian": 5412,
      "ama": 5413,
      "sibuk": 5414,
      "pic": 5415,
      "setia": 5416,
      "fam": 5417,
      "tarik": 5418,
      "##hotel": 5419,
      "tal": 5420,
      "##jadi": 5421,
      "cerdas": 5422,
      "sex": 5423,
      "diser": 5424,
      "menginap": 5425,
      "##43": 5426,
      "laku": 5427,
      "##amen": 5428,
      "diperkirakan": 5429,
      "dec": 5430,
      "##elahan": 5431,
      "pengambil": 5432,
      "tutorial": 5433,
      "tidaklah": 5434,
      "bg": 5435,
      "##inum": 5436,
      "##madi": 5437,
      "pon": 5438,
      "##macam": 5439,
      "penyelenggaraan": 5440,
      "##acom": 5441,
      "cil": 5442,
      "##iki": 5443,
      "##ose": 5444,
      "interaksi": 5445,
      "skala": 5446,
      "##barang": 5447,
      "konstruksi": 5448,
      "karang": 5449,
      "##esta": 5450,
      "isu": 5451,
      "fashion": 5452,
      "penangan": 5453,
      "konteks": 5454,
      "waktunya": 5455,
      "dinilai": 5456,
      "kecantikan": 5457,
      "sholat": 5458,
      "##bahan": 5459,
      "##arto": 5460,
      "tanjung": 5461,
      "bersamasama": 5462,
      "sor": 5463,
      "##ampur": 5464,
      "##ujian": 5465,
      "bol": 5466,
      "tepatnya": 5467,
      "fenomena": 5468,
      "##onomian": 5469,
      "menghabiskan": 5470,
      "##egr": 5471,
      "keyakinan": 5472,
      "##ering": 5473,
      "yamaha": 5474,
      "lol": 5475,
      "33": 5476,
      "1999": 5477,
      "##bola": 5478,
      "##08": 5479,
      "akibatnya": 5480,
      "kerap": 5481,
      "kenc": 5482,
      "nutrisi": 5483,
      "diabetes": 5484,
      "akurat": 5485,
      "alqur": 5486,
      "polri": 5487,
      "sangatlah": 5488,
      "resp": 5489,
      "dh": 5490,
      "##uncurkan": 5491,
      "musuh": 5492,
      "dipercaya": 5493,
      "mempersiapkan": 5494,
      "##itanya": 5495,
      "menjamin": 5496,
      "pondok": 5497,
      "hamb": 5498,
      "06": 5499,
      "mengajukan": 5500,
      "purw": 5501,
      "rap": 5502,
      "perform": 5503,
      "wali": 5504,
      "memek": 5505,
      "kesatuan": 5506,
      "##pertimbangkan": 5507,
      "gur": 5508,
      "ts": 5509,
      "perkara": 5510,
      "##icarakan": 5511,
      "dol": 5512,
      "##bukan": 5513,
      "variabel": 5514,
      "pesantren": 5515,
      "cs": 5516,
      "##ior": 5517,
      "soalnya": 5518,
      "##lu": 5519,
      "padat": 5520,
      "##cd": 5521,
      "diterb": 5522,
      "signifikan": 5523,
      "micros": 5524,
      "tiketcom": 5525,
      "trus": 5526,
      "khasiat": 5527,
      "danau": 5528,
      "##ukses": 5529,
      "bersamaan": 5530,
      "##tik": 5531,
      "tersangka": 5532,
      "jej": 5533,
      "rokok": 5534,
      "malu": 5535,
      "gem": 5536,
      "gold": 5537,
      "kelemahan": 5538,
      "international": 5539,
      "nar": 5540,
      "gala": 5541,
      "pengaturan": 5542,
      "perlahan": 5543,
      "narkoba": 5544,
      "adv": 5545,
      "peringatan": 5546,
      "##br": 5547,
      "mendaftar": 5548,
      "berkurang": 5549,
      "##olisian": 5550,
      "matang": 5551,
      "##jawab": 5552,
      "mengelola": 5553,
      "posting": 5554,
      "##irah": 5555,
      "##arak": 5556,
      "memproduksi": 5557,
      "sap": 5558,
      "kunjungi": 5559,
      "##isinya": 5560,
      "##ijaya": 5561,
      "bs": 5562,
      "##lak": 5563,
      "mendek": 5564,
      "tertutup": 5565,
      "karenanya": 5566,
      "ibunya": 5567,
      "##way": 5568,
      "kala": 5569,
      "boc": 5570,
      "puluh": 5571,
      "syah": 5572,
      "##kel": 5573,
      "##spotcom": 5574,
      "tipis": 5575,
      "ikuti": 5576,
      "dicapai": 5577,
      "nok": 5578,
      "##adangan": 5579,
      "undangan": 5580,
      "kelihatan": 5581,
      "buang": 5582,
      "handphone": 5583,
      "perekonomian": 5584,
      "bob": 5585,
      "##mur": 5586,
      "palsu": 5587,
      "lamp": 5588,
      "##imbing": 5589,
      "puluhan": 5590,
      "mengam": 5591,
      "gir": 5592,
      "##100": 5593,
      "dimainkan": 5594,
      "dengar": 5595,
      "##ei": 5596,
      "mengumpulkan": 5597,
      "##abuhan": 5598,
      "##agram": 5599,
      "acc": 5600,
      "novel": 5601,
      "cem": 5602,
      "manual": 5603,
      "tuntut": 5604,
      "##work": 5605,
      "alkitab": 5606,
      "sembuh": 5607,
      "##aria": 5608,
      "##eling": 5609,
      "pengendalian": 5610,
      "pertahanan": 5611,
      "##hh": 5612,
      "mud": 5613,
      "##irmasi": 5614,
      "bertah": 5615,
      "kombinasi": 5616,
      "##cc": 5617,
      "tergolong": 5618,
      "master": 5619,
      "tablet": 5620,
      "kepolisian": 5621,
      "koneksi": 5622,
      "##ancurkan": 5623,
      "##ative": 5624,
      "tour": 5625,
      "lelaki": 5626,
      "nafsu": 5627,
      "##utip": 5628,
      "setuju": 5629,
      "cur": 5630,
      "mama": 5631,
      "person": 5632,
      "yaa": 5633,
      "long": 5634,
      "##awali": 5635,
      "##nd": 5636,
      "memandang": 5637,
      "final": 5638,
      "##faatan": 5639,
      "##59": 5640,
      "pras": 5641,
      "hahah": 5642,
      "##enyum": 5643,
      "##pasang": 5644,
      "jin": 5645,
      "kebun": 5646,
      "##orex": 5647,
      "yahudi": 5648,
      "##endam": 5649,
      "##indahkan": 5650,
      "putus": 5651,
      "rata": 5652,
      "menuntut": 5653,
      "##unjukkan": 5654,
      "mun": 5655,
      "##iliun": 5656,
      "##ektif": 5657,
      "kara": 5658,
      "indikator": 5659,
      "##jikan": 5660,
      "##anggar": 5661,
      "formasi": 5662,
      "dewi": 5663,
      "operator": 5664,
      "##odoh": 5665,
      "harinya": 5666,
      "arsitek": 5667,
      "grand": 5668,
      "##ulir": 5669,
      "menjelang": 5670,
      "world": 5671,
      "disesuaikan": 5672,
      "brows": 5673,
      "head": 5674,
      "ancaman": 5675,
      "berjudul": 5676,
      "kekerasan": 5677,
      "babak": 5678,
      "kesan": 5679,
      "##jana": 5680,
      "##58": 5681,
      "sabar": 5682,
      "##nc": 5683,
      "##otaan": 5684,
      "##44": 5685,
      "seo": 5686,
      "formal": 5687,
      "##ajah": 5688,
      "termin": 5689,
      "lembar": 5690,
      "baterai": 5691,
      "natur": 5692,
      "ten": 5693,
      "##rak": 5694,
      "bit": 5695,
      "##ambu": 5696,
      "##ebut": 5697,
      "wir": 5698,
      "comment": 5699,
      "##kk": 5700,
      "kacang": 5701,
      "##irinya": 5702,
      "##ley": 5703,
      "##pol": 5704,
      "pihaknya": 5705,
      "perpustakaan": 5706,
      "##ty": 5707,
      "pandang": 5708,
      "berak": 5709,
      "sain": 5710,
      "sinyal": 5711,
      "tingg": 5712,
      "cowok": 5713,
      "yay": 5714,
      "berharga": 5715,
      "mineral": 5716,
      "##olehkan": 5717,
      "over": 5718,
      "##agama": 5719,
      "senyawa": 5720,
      "##ontrol": 5721,
      "memuaskan": 5722,
      "##rika": 5723,
      "van": 5724,
      "##plin": 5725,
      "##entangan": 5726,
      "menghitung": 5727,
      "penasaran": 5728,
      "pintar": 5729,
      "##atorium": 5730,
      "hukuman": 5731,
      "sewaktu": 5732,
      "brand": 5733,
      "dewa": 5734,
      "##ometer": 5735,
      "##iru": 5736,
      "##zim": 5737,
      "kw": 5738,
      "terseb": 5739,
      "diterbitkan": 5740,
      "delapan": 5741,
      "alhamdulillah": 5742,
      "diangkat": 5743,
      "diaku": 5744,
      "##zat": 5745,
      "atm": 5746,
      "coklat": 5747,
      "nikmat": 5748,
      "##umumkan": 5749,
      "kpu": 5750,
      "orig": 5751,
      "tali": 5752,
      "ud": 5753,
      "adil": 5754,
      "kepulauan": 5755,
      "##trans": 5756,
      "niat": 5757,
      "banjar": 5758,
      "bayar": 5759,
      "kehadiran": 5760,
      "##indung": 5761,
      "manajer": 5762,
      "hai": 5763,
      "fase": 5764,
      "pep": 5765,
      "##wanya": 5766,
      "gempa": 5767,
      "riau": 5768,
      "garansi": 5769,
      "pedoman": 5770,
      "kuliner": 5771,
      "ulasanno": 5772,
      "##eld": 5773,
      "##kr": 5774,
      "sr": 5775,
      "wasir": 5776,
      "mendengarkan": 5777,
      "optimal": 5778,
      "derajat": 5779,
      "dev": 5780,
      "didapatkan": 5781,
      "organik": 5782,
      "mengalir": 5783,
      "kandang": 5784,
      "cair": 5785,
      "##erus": 5786,
      "wart": 5787,
      "kayak": 5788,
      "##ancangan": 5789,
      "sad": 5790,
      "pengadaan": 5791,
      "kutil": 5792,
      "##ancing": 5793,
      "berdua": 5794,
      "##ikap": 5795,
      "disiplin": 5796,
      "2001": 5797,
      "berpr": 5798,
      "mendirikan": 5799,
      "gemb": 5800,
      "pelanggaran": 5801,
      "box": 5802,
      "panggilan": 5803,
      "dialami": 5804,
      "instal": 5805,
      "tangannya": 5806,
      "##ilitas": 5807,
      "pemula": 5808,
      "tahapan": 5809,
      "##lasi": 5810,
      "are": 5811,
      "##ibusi": 5812,
      "##anggih": 5813,
      "hormon": 5814,
      "mengganti": 5815,
      "card": 5816,
      "lin": 5817,
      "priv": 5818,
      "ditutup": 5819,
      "##tn": 5820,
      "rahim": 5821,
      "akomodasi": 5822,
      "beredar": 5823,
      "papan": 5824,
      "pelabuhan": 5825,
      "##entr": 5826,
      "kum": 5827,
      "37": 5828,
      "terpisah": 5829,
      "tew": 5830,
      "diselenggarakan": 5831,
      "berukuran": 5832,
      "menempatkan": 5833,
      "siklus": 5834,
      "##truktur": 5835,
      "ideal": 5836,
      "domino": 5837,
      "jamb": 5838,
      "besok": 5839,
      "hum": 5840,
      "planet": 5841,
      "sidang": 5842,
      "kelurahan": 5843,
      "tari": 5844,
      "lirik": 5845,
      "foll": 5846,
      "konten": 5847,
      "##ugikan": 5848,
      "line": 5849,
      "tukang": 5850,
      "##umpai": 5851,
      "sper": 5852,
      "potongan": 5853,
      "ayahnya": 5854,
      "gatal": 5855,
      "##ibur": 5856,
      "##lihatkan": 5857,
      "elemen": 5858,
      "berbed": 5859,
      "##board": 5860,
      "hiburan": 5861,
      "tebal": 5862,
      "beasiswa": 5863,
      "galaxy": 5864,
      "pembicara": 5865,
      "cream": 5866,
      "ongk": 5867,
      "##ff": 5868,
      "menangis": 5869,
      "##iraan": 5870,
      "kedudukan": 5871,
      "mobile": 5872,
      "yus": 5873,
      "kambing": 5874,
      "triliun": 5875,
      "##42": 5876,
      "labor": 5877,
      "##gantian": 5878,
      "palembang": 5879,
      "berpeng": 5880,
      "imb": 5881,
      "premium": 5882,
      "penanganan": 5883,
      "##langkah": 5884,
      "rid": 5885,
      "mengec": 5886,
      "##ohonan": 5887,
      "nonton": 5888,
      "##jual": 5889,
      "##onan": 5890,
      "kuno": 5891,
      "eksp": 5892,
      "mewak": 5893,
      "##oner": 5894,
      "##alif": 5895,
      "pensi": 5896,
      "##km": 5897,
      "mesir": 5898,
      "marketing": 5899,
      "best": 5900,
      "event": 5901,
      "biarkan": 5902,
      "##okter": 5903,
      "##onj": 5904,
      "##sip": 5905,
      "##erg": 5906,
      "murni": 5907,
      "cip": 5908,
      "ternak": 5909,
      "03": 5910,
      "merd": 5911,
      "dimensi": 5912,
      "##ake": 5913,
      "penyimpanan": 5914,
      "telinga": 5915,
      "urutan": 5916,
      "tersenyum": 5917,
      "jurnal": 5918,
      "atlet": 5919,
      "pengajaran": 5920,
      "mekanisme": 5921,
      "orangtua": 5922,
      "aksesoris": 5923,
      "##air": 5924,
      "busana": 5925,
      "kontrol": 5926,
      "39": 5927,
      "kepuasan": 5928,
      "##alifikasi": 5929,
      "##ebak": 5930,
      "##enteng": 5931,
      "##yakini": 5932,
      "printer": 5933,
      "120": 5934,
      "perbankan": 5935,
      "nenek": 5936,
      "mang": 5937,
      "yayasan": 5938,
      "penulisan": 5939,
      "fisika": 5940,
      "tercatat": 5941,
      "kerajinan": 5942,
      "terdengar": 5943,
      "dipimpin": 5944,
      "##ukah": 5945,
      "efisien": 5946,
      "warn": 5947,
      "atap": 5948,
      "budidaya": 5949,
      "##baru": 5950,
      "mala": 5951,
      "usus": 5952,
      "##ies": 5953,
      "simak": 5954,
      "##yanya": 5955,
      "##ave": 5956,
      "kenyamanan": 5957,
      "##zz": 5958,
      "suzuki": 5959,
      "pasaran": 5960,
      "ala": 5961,
      "peroleh": 5962,
      "ditampilkan": 5963,
      "membel": 5964,
      "konsentrasi": 5965,
      "##2015": 5966,
      "ajang": 5967,
      "masak": 5968,
      "mengant": 5969,
      "##wat": 5970,
      "lurus": 5971,
      "dipert": 5972,
      "penya": 5973,
      "je": 5974,
      "penip": 5975,
      "inovasi": 5976,
      "kudus": 5977,
      "ditempatkan": 5978,
      "mencetak": 5979,
      "##bd": 5980,
      "##lis": 5981,
      "##aper": 5982,
      "ketat": 5983,
      "##entot": 5984,
      "sampe": 5985,
      "menonton": 5986,
      "pembagian": 5987,
      "menceritakan": 5988,
      "##akira": 5989,
      "sedih": 5990,
      "termurah": 5991,
      "##esa": 5992,
      "memec": 5993,
      "publ": 5994,
      "##ky": 5995,
      "ky": 5996,
      "kemudahan": 5997,
      "##cm": 5998,
      "ikatan": 5999,
      "petern": 6000,
      "fes": 6001,
      "##ciri": 6002,
      "##dik": 6003,
      "##olik": 6004,
      "pungg": 6005,
      "##impulkan": 6006,
      "wifi": 6007,
      "##wayat": 6008,
      "jus": 6009,
      "berdoa": 6010,
      "komitmen": 6011,
      "pesanan": 6012,
      "menangkap": 6013,
      "##uth": 6014,
      "halal": 6015,
      "menegaskan": 6016,
      "##ekali": 6017,
      "senanti": 6018,
      "##ght": 6019,
      "qs": 6020,
      "sultan": 6021,
      "##linya": 6022,
      "pembinaan": 6023,
      "memimpin": 6024,
      "sekalian": 6025,
      "##pu": 6026,
      "pemasangan": 6027,
      "fer": 6028,
      "pengambilan": 6029,
      "##tad": 6030,
      "mengingatkan": 6031,
      "forex": 6032,
      "sertifikasi": 6033,
      "##etika": 6034,
      "##mem": 6035,
      "pengin": 6036,
      "##ompet": 6037,
      "kadangk": 6038,
      "dibayar": 6039,
      "jendela": 6040,
      "##madiyah": 6041,
      "password": 6042,
      "sepuluh": 6043,
      "##ilm": 6044,
      "1998": 6045,
      "cent": 6046,
      "tersebar": 6047,
      "senantiasa": 6048,
      "tdk": 6049,
      "terjun": 6050,
      "cob": 6051,
      "nga": 6052,
      "aug": 6053,
      "whats": 6054,
      "work": 6055,
      "##ahlian": 6056,
      "perancis": 6057,
      "pembuat": 6058,
      "soekar": 6059,
      "pemanfaatan": 6060,
      "mengajarkan": 6061,
      "menemb": 6062,
      "riset": 6063,
      "roy": 6064,
      "##aftarkan": 6065,
      "rupa": 6066,
      "##ze": 6067,
      "perse": 6068,
      "honor": 6069,
      "surya": 6070,
      "mewakili": 6071,
      "##abeda": 6072,
      "terpilih": 6073,
      "lim": 6074,
      "tahunan": 6075,
      "tuntutan": 6076,
      "arg": 6077,
      "meres": 6078,
      "alm": 6079,
      "pembuluh": 6080,
      "usai": 6081,
      "##lemen": 6082,
      "memikirkan": 6083,
      "psikologi": 6084,
      "get": 6085,
      "##alas": 6086,
      "type": 6087,
      "sampaikan": 6088,
      "pengeluaran": 6089,
      "danatau": 6090,
      "prancis": 6091,
      "klasik": 6092,
      "##aruan": 6093,
      "##ebunan": 6094,
      "microsoft": 6095,
      "##egahan": 6096,
      "leher": 6097,
      "##sikan": 6098,
      "##ingkah": 6099,
      "dipastikan": 6100,
      "istana": 6101,
      "dipengaruhi": 6102,
      "mainkan": 6103,
      "##kalim": 6104,
      "04": 6105,
      "##ene": 6106,
      "roti": 6107,
      "keadilan": 6108,
      "perbandingan": 6109,
      "cuaca": 6110,
      "##als": 6111,
      "##org": 6112,
      "dirasakan": 6113,
      "01": 6114,
      "pij": 6115,
      "##untung": 6116,
      "lantas": 6117,
      "tutur": 6118,
      "48": 6119,
      "konvensi": 6120,
      "##read": 6121,
      "kebebasan": 6122,
      "keahlian": 6123,
      "digelar": 6124,
      "##imen": 6125,
      "diakui": 6126,
      "law": 6127,
      "mengar": 6128,
      "menyembuhkan": 6129,
      "yunani": 6130,
      "bersaing": 6131,
      "spec": 6132,
      "nokia": 6133,
      "penyedia": 6134,
      "boy": 6135,
      "krisis": 6136,
      "pilk": 6137,
      "ori": 6138,
      "sekretaris": 6139,
      "##sy": 6140,
      "temen": 6141,
      "citra": 6142,
      "samasama": 6143,
      "##ily": 6144,
      "karet": 6145,
      "diluar": 6146,
      "merubah": 6147,
      "memori": 6148,
      "canggih": 6149,
      "profes": 6150,
      "diciptakan": 6151,
      "rumus": 6152,
      "65": 6153,
      "menangani": 6154,
      "##faktor": 6155,
      "kebah": 6156,
      "penyusunan": 6157,
      "bener": 6158,
      "sunda": 6159,
      "resort": 6160,
      "##pi": 6161,
      "jg": 6162,
      "pakan": 6163,
      "bunyi": 6164,
      "httpwww": 6165,
      "tambahkan": 6166,
      "bervari": 6167,
      "karir": 6168,
      "populasi": 6169,
      "harap": 6170,
      "##sem": 6171,
      "dikonsumsi": 6172,
      "##epakatan": 6173,
      "house": 6174,
      "impl": 6175,
      "unggul": 6176,
      "##jem": 6177,
      "maya": 6178,
      "##irman": 6179,
      "##eimbangan": 6180,
      "mam": 6181,
      "variasi": 6182,
      "united": 6183,
      "kesi": 6184,
      "lari": 6185,
      "etika": 6186,
      "##lydel": 6187,
      "tampaknya": 6188,
      "penjara": 6189,
      "pisang": 6190,
      "terdaftar": 6191,
      "##sigen": 6192,
      "tewas": 6193,
      "firman": 6194,
      "load": 6195,
      "##yangkan": 6196,
      "makanya": 6197,
      "medi": 6198,
      "time": 6199,
      "jelly": 6200,
      "keluarganya": 6201,
      "46": 6202,
      "computer": 6203,
      "##gagalan": 6204,
      "dipahami": 6205,
      "melepaskan": 6206,
      "asy": 6207,
      "lamaran": 6208,
      "sanggup": 6209,
      "perund": 6210,
      "bilangan": 6211,
      "250": 6212,
      "selaku": 6213,
      "didasarkan": 6214,
      "##empurn": 6215,
      "##osiasi": 6216,
      "##unjukan": 6217,
      "gat": 6218,
      "##aram": 6219,
      "candi": 6220,
      "##ifik": 6221,
      "buruh": 6222,
      "ditemp": 6223,
      "##dalam": 6224,
      "kirakira": 6225,
      "gudang": 6226,
      "acco": 6227,
      "disek": 6228,
      "kalinya": 6229,
      "pasalnya": 6230,
      "investor": 6231,
      "terlepas": 6232,
      "sdm": 6233,
      "ramai": 6234,
      "oc": 6235,
      "telanjang": 6236,
      "kasar": 6237,
      "berbedabeda": 6238,
      "pust": 6239,
      "##my": 6240,
      "ditandai": 6241,
      "disusun": 6242,
      "munculnya": 6243,
      "keluhan": 6244,
      "##esh": 6245,
      "perkebunan": 6246,
      "nasib": 6247,
      "dimasukkan": 6248,
      "##arai": 6249,
      "hahaha": 6250,
      "setahun": 6251,
      "##aingan": 6252,
      "berpendapat": 6253,
      "saf": 6254,
      "menyemb": 6255,
      "##las": 6256,
      "##ihi": 6257,
      "sayuran": 6258,
      "##agen": 6259,
      "bulat": 6260,
      "##produk": 6261,
      "##ding": 6262,
      "gus": 6263,
      "page": 6264,
      "hendaknya": 6265,
      "interior": 6266,
      "##kandung": 6267,
      "menyangkut": 6268,
      "disimpan": 6269,
      "##ss": 6270,
      "riwayat": 6271,
      "mengenakan": 6272,
      "user": 6273,
      "diakses": 6274,
      "larutan": 6275,
      "domain": 6276,
      "posted": 6277,
      "eksek": 6278,
      "##wujud": 6279,
      "##77": 6280,
      "##ambangan": 6281,
      "menel": 6282,
      "persaingan": 6283,
      "afrika": 6284,
      "##tujui": 6285,
      "fu": 6286,
      "cv": 6287,
      "##embuhan": 6288,
      "jeruk": 6289,
      "mont": 6290,
      "dicari": 6291,
      "rumahnya": 6292,
      "##ito": 6293,
      "analisa": 6294,
      "suaminya": 6295,
      "menyerahkan": 6296,
      "kaskus": 6297,
      "quote": 6298,
      "##iayaan": 6299,
      "gila": 6300,
      "##ebon": 6301,
      "contr": 6302,
      "mg": 6303,
      "##unkan": 6304,
      "oksigen": 6305,
      "kesepakatan": 6306,
      "one": 6307,
      "##intahkan": 6308,
      "##alib": 6309,
      "##ontal": 6310,
      "##yc": 6311,
      "nger": 6312,
      "##iaga": 6313,
      "##ile": 6314,
      "menyajikan": 6315,
      "penetapan": 6316,
      "##aib": 6317,
      "wartawan": 6318,
      "lebaran": 6319,
      "kegagalan": 6320,
      "dilanjutkan": 6321,
      "##osal": 6322,
      "mempercepat": 6323,
      "##link": 6324,
      "penerima": 6325,
      "semen": 6326,
      "##atanya": 6327,
      "seberapa": 6328,
      "sebentar": 6329,
      "mena": 6330,
      "##sen": 6331,
      "maksudnya": 6332,
      "wadah": 6333,
      "##xi": 6334,
      "youtu": 6335,
      "kuasa": 6336,
      "tex": 6337,
      "punggung": 6338,
      "potong": 6339,
      "##ahnya": 6340,
      "istrinya": 6341,
      "##jakarta": 6342,
      "kampanye": 6343,
      "kursus": 6344,
      "##angkatan": 6345,
      "misal": 6346,
      "menerus": 6347,
      "##buk": 6348,
      "##osh": 6349,
      "pembukaan": 6350,
      "langkahlangkah": 6351,
      "wr": 6352,
      "kuk": 6353,
      "peneg": 6354,
      "##ture": 6355,
      "##pasar": 6356,
      "wed": 6357,
      "disajikan": 6358,
      "##ko": 6359,
      "laboratorium": 6360,
      "jadikan": 6361,
      "keju": 6362,
      "##sis": 6363,
      "berkas": 6364,
      "sty": 6365,
      "bahanbahan": 6366,
      "dilarang": 6367,
      "memasak": 6368,
      "john": 6369,
      "janji": 6370,
      "##jaan": 6371,
      "abdul": 6372,
      "menyebar": 6373,
      "##oyang": 6374,
      "seminar": 6375,
      "janin": 6376,
      "erat": 6377,
      "##owo": 6378,
      "rekomendasi": 6379,
      "perdana": 6380,
      "berumur": 6381,
      "diganti": 6382,
      "social": 6383,
      "madrid": 6384,
      "##mudah": 6385,
      "patut": 6386,
      "gelas": 6387,
      "trend": 6388,
      "penggemar": 6389,
      "lomb": 6390,
      "pencipta": 6391,
      "##rep": 6392,
      "##apakah": 6393,
      "penyeles": 6394,
      "kemasan": 6395,
      "telp": 6396,
      "green": 6397,
      "##pas": 6398,
      "cuc": 6399,
      "menyak": 6400,
      "berulang": 6401,
      "mund": 6402,
      "##andingkan": 6403,
      "diperk": 6404,
      "##odi": 6405,
      "ekonom": 6406,
      "dul": 6407,
      "mall": 6408,
      "##ternal": 6409,
      "design": 6410,
      "padi": 6411,
      "pantas": 6412,
      "distribusi": 6413,
      "pertamina": 6414,
      "##ayangan": 6415,
      "##adak": 6416,
      "ketinggian": 6417,
      "##erm": 6418,
      "bertugas": 6419,
      "##odo": 6420,
      "lengan": 6421,
      "seragam": 6422,
      "##ool": 6423,
      "menghapus": 6424,
      "##omotif": 6425,
      "hadis": 6426,
      "nampak": 6427,
      "##anjutan": 6428,
      "tam": 6429,
      "pengelola": 6430,
      "##pot": 6431,
      "memelihara": 6432,
      "batam": 6433,
      "##iakan": 6434,
      "bap": 6435,
      "bumbu": 6436,
      "##lok": 6437,
      "gagasan": 6438,
      "gamat": 6439,
      "##iaan": 6440,
      "jakar": 6441,
      "##ohol": 6442,
      "##66": 6443,
      "bij": 6444,
      "berkomunikasi": 6445,
      "dial": 6446,
      "kt": 6447,
      "##gb": 6448,
      "padanya": 6449,
      "kebersihan": 6450,
      "insya": 6451,
      "seminggu": 6452,
      "##andatangan": 6453,
      "##uss": 6454,
      "bunda": 6455,
      "jahat": 6456,
      "penonton": 6457,
      "pramuka": 6458,
      "train": 6459,
      "hatinya": 6460,
      "perkaw": 6461,
      "obs": 6462,
      "loh": 6463,
      "tepung": 6464,
      "99": 6465,
      "kapol": 6466,
      "mendekati": 6467,
      "bagaiman": 6468,
      "ratu": 6469,
      "uns": 6470,
      "pom": 6471,
      "jack": 6472,
      "hil": 6473,
      "pengamatan": 6474,
      "kedokter": 6475,
      "kritik": 6476,
      "##inder": 6477,
      "pilkada": 6478,
      "est": 6479,
      "kuda": 6480,
      "pengukuran": 6481,
      "ragam": 6482,
      "original": 6483,
      "cik": 6484,
      "##imbang": 6485,
      "eg": 6486,
      "dikenakan": 6487,
      "body": 6488,
      "akademik": 6489,
      "quran": 6490,
      "tajam": 6491,
      "iphone": 6492,
      "##rasah": 6493,
      "mengalahkan": 6494,
      "ganda": 6495,
      "barangbarang": 6496,
      "##etujui": 6497,
      "item": 6498,
      "sarapan": 6499,
      "##hasil": 6500,
      "##igur": 6501,
      "##ux": 6502,
      "setan": 6503,
      "fung": 6504,
      "shop": 6505,
      "engg": 6506,
      "pendidik": 6507,
      "eur": 6508,
      "##pel": 6509,
      "misteri": 6510,
      "kemalu": 6511,
      "qur": 6512,
      "##ape": 6513,
      "siapapun": 6514,
      "##bn": 6515,
      "malaikat": 6516,
      "fe": 6517,
      "casino": 6518,
      "##nia": 6519,
      "propinsi": 6520,
      "##upaya": 6521,
      "terpaksa": 6522,
      "ste": 6523,
      "map": 6524,
      "gil": 6525,
      "##bud": 6526,
      "pencegahan": 6527,
      "##ensif": 6528,
      "bentuknya": 6529,
      "menyentuh": 6530,
      "dipenuhi": 6531,
      "keman": 6532,
      "##elai": 6533,
      "darat": 6534,
      "pln": 6535,
      "##gerakan": 6536,
      "university": 6537,
      "dg": 6538,
      "gul": 6539,
      "warung": 6540,
      "pasca": 6541,
      "fol": 6542,
      "ketik": 6543,
      "wujud": 6544,
      "jumlahnya": 6545,
      "mengakses": 6546,
      "memeriksa": 6547,
      "##ated": 6548,
      "hindari": 6549,
      "standard": 6550,
      "nel": 6551,
      "terminal": 6552,
      "impor": 6553,
      "berken": 6554,
      "##jenis": 6555,
      "duga": 6556,
      "##kl": 6557,
      "hidung": 6558,
      "##esaran": 6559,
      "konsultasi": 6560,
      "##antau": 6561,
      "tetangga": 6562,
      "penambahan": 6563,
      "gh": 6564,
      "dikerjakan": 6565,
      "dibahas": 6566,
      "demam": 6567,
      "##atangkan": 6568,
      "hub": 6569,
      "kedatangan": 6570,
      "sebutan": 6571,
      "sejati": 6572,
      "ngentot": 6573,
      "cle": 6574,
      "##info": 6575,
      "##ihak": 6576,
      "visual": 6577,
      "kadangkadang": 6578,
      "mask": 6579,
      "dituj": 6580,
      "reservasi": 6581,
      "jav": 6582,
      "##eni": 6583,
      "jatim": 6584,
      "##tempat": 6585,
      "kualifikasi": 6586,
      "make": 6587,
      "##ailand": 6588,
      "##lp": 6589,
      "sut": 6590,
      "##ajur": 6591,
      "ketemu": 6592,
      "team": 6593,
      "baja": 6594,
      "tujuannya": 6595,
      "##idasi": 6596,
      "##obaan": 6597,
      "kritis": 6598,
      "pangeran": 6599,
      "mengembalikan": 6600,
      "org": 6601,
      "##usa": 6602,
      "dibilang": 6603,
      "##ancur": 6604,
      "##under": 6605,
      "jd": 6606,
      "##2014": 6607,
      "istirahat": 6608,
      "kotoran": 6609,
      "##jam": 6610,
      "diak": 6611,
      "lolos": 6612,
      "mayoritas": 6613,
      "isinya": 6614,
      "##enjang": 6615,
      "menyesuaikan": 6616,
      "##foto": 6617,
      "mig": 6618,
      "pew": 6619,
      "bersab": 6620,
      "menghargai": 6621,
      "##isir": 6622,
      "##mk": 6623,
      "##ecom": 6624,
      "##ulangan": 6625,
      "hatihati": 6626,
      "diisi": 6627,
      "hehe": 6628,
      "##eliharaan": 6629,
      "##rb": 6630,
      "cirebon": 6631,
      "kesukses": 6632,
      "bpk": 6633,
      "##ire": 6634,
      "membiarkan": 6635,
      "##ere": 6636,
      "engine": 6637,
      "##ikota": 6638,
      "apartemen": 6639,
      "melebih": 6640,
      "##ocom": 6641,
      "bervariasi": 6642,
      "cup": 6643,
      "##52": 6644,
      "##ativ": 6645,
      "diproduksi": 6646,
      "##eteksi": 6647,
      "kecerd": 6648,
      "spr": 6649,
      "tool": 6650,
      "##waan": 6651,
      "##ungkapan": 6652,
      "drs": 6653,
      "##ery": 6654,
      "##98": 6655,
      "bursa": 6656,
      "bid": 6657,
      "menanam": 6658,
      "mencatat": 6659,
      "dipesan": 6660,
      "##kt": 6661,
      "##amaian": 6662,
      "##53": 6663,
      "##indonesia": 6664,
      "supp": 6665,
      "lambung": 6666,
      "##alisis": 6667,
      "spesifik": 6668,
      "ditujukan": 6669,
      "56": 6670,
      "kedokteran": 6671,
      "datab": 6672,
      "thailand": 6673,
      "##incian": 6674,
      "##fr": 6675,
      "##ungkus": 6676,
      "##contoh": 6677,
      "jawabannya": 6678,
      "makasih": 6679,
      "pengganti": 6680,
      "memuat": 6681,
      "dirancang": 6682,
      "##akapan": 6683,
      "perkawinan": 6684,
      "berga": 6685,
      "bersedia": 6686,
      "melaporkan": 6687,
      "menghentikan": 6688,
      "terpenting": 6689,
      "##presi": 6690,
      "##pes": 6691,
      "bekerj": 6692,
      "persis": 6693,
      "menyambut": 6694,
      "ded": 6695,
      "tai": 6696,
      "##asari": 6697,
      "far": 6698,
      "kebakaran": 6699,
      "##kh": 6700,
      "##tel": 6701,
      "utamanya": 6702,
      "##rati": 6703,
      "ciriciri": 6704,
      "##keb": 6705,
      "from": 6706,
      "dimaksudkan": 6707,
      "keag": 6708,
      "menyelamatkan": 6709,
      "king": 6710,
      "##gar": 6711,
      "mengu": 6712,
      "insti": 6713,
      "memperlihatkan": 6714,
      "##emia": 6715,
      "##lon": 6716,
      "naman": 6717,
      "sosialisasi": 6718,
      "tanam": 6719,
      "saraf": 6720,
      "##prov": 6721,
      "ngga": 6722,
      "##vey": 6723,
      "laba": 6724,
      "pengec": 6725,
      "muhammadiyah": 6726,
      "perawat": 6727,
      "vii": 6728,
      "##anjikan": 6729,
      "##lish": 6730,
      "run": 6731,
      "##tek": 6732,
      "logo": 6733,
      "gadget": 6734,
      "saatnya": 6735,
      "##antis": 6736,
      "melanggar": 6737,
      "##ites": 6738,
      "##emikian": 6739,
      "bersikap": 6740,
      "arm": 6741,
      "diubah": 6742,
      "kecewa": 6743,
      "kelak": 6744,
      "##abut": 6745,
      "merugikan": 6746,
      "ja": 6747,
      "##ipan": 6748,
      "pemeliharaan": 6749,
      "##bert": 6750,
      "customer": 6751,
      "bahas": 6752,
      "##ann": 6753,
      "##2011": 6754,
      "##hak": 6755,
      "##kalimantan": 6756,
      "emb": 6757,
      "sifatnya": 6758,
      "##amer": 6759,
      "##injau": 6760,
      "bre": 6761,
      "lis": 6762,
      "1997": 6763,
      "live": 6764,
      "dipergunakan": 6765,
      "tingkah": 6766,
      "rapi": 6767,
      "beruntung": 6768,
      "##lawan": 6769,
      "##41": 6770,
      "gede": 6771,
      "intr": 6772,
      "reformasi": 6773,
      "agan": 6774,
      "##off": 6775,
      "ucap": 6776,
      "pakar": 6777,
      "bangs": 6778,
      "memanggil": 6779,
      "tabung": 6780,
      "##ror": 6781,
      "mikro": 6782,
      "##ekul": 6783,
      "putaran": 6784,
      "##uhur": 6785,
      "persamaan": 6786,
      "##omendasikan": 6787,
      "hist": 6788,
      "memperkuat": 6789,
      "##ernaan": 6790,
      "wawasan": 6791,
      "##apaian": 6792,
      "##eluk": 6793,
      "letak": 6794,
      "keseimbangan": 6795,
      "menolong": 6796,
      "divisi": 6797,
      "##ella": 6798,
      "##airan": 6799,
      "##oyo": 6800,
      "dengannya": 6801,
      "menyes": 6802,
      "membah": 6803,
      "##adaban": 6804,
      "bn": 6805,
      "semula": 6806,
      "les": 6807,
      "##anks": 6808,
      "hasan": 6809,
      "majelis": 6810,
      "transm": 6811,
      "setting": 6812,
      "panen": 6813,
      "cc": 6814,
      "seakan": 6815,
      "inspirasi": 6816,
      "nt": 6817,
      "##pal": 6818,
      "##engahan": 6819,
      "kehend": 6820,
      "sukar": 6821,
      "##tib": 6822,
      "##sil": 6823,
      "semesta": 6824,
      "verifikasi": 6825,
      "keterb": 6826,
      "##esin": 6827,
      "ekspor": 6828,
      "mot": 6829,
      "menggantikan": 6830,
      "atom": 6831,
      "dinamakan": 6832,
      "##gu": 6833,
      "baj": 6834,
      "menyaksikan": 6835,
      "suar": 6836,
      "damai": 6837,
      "begini": 6838,
      "##ids": 6839,
      "selsel": 6840,
      "frekuensi": 6841,
      "kecerdasan": 6842,
      "edisi": 6843,
      "menghancurkan": 6844,
      "angkat": 6845,
      "##onsor": 6846,
      "penemuan": 6847,
      "tump": 6848,
      "ipa": 6849,
      "keperawatan": 6850,
      "hay": 6851,
      "mode": 6852,
      "liar": 6853,
      "berbahasa": 6854,
      "personal": 6855,
      "##banyak": 6856,
      "adam": 6857,
      "##tidak": 6858,
      "dor": 6859,
      "susunan": 6860,
      "##gh": 6861,
      "nd": 6862,
      "pek": 6863,
      "dipasang": 6864,
      "##ille": 6865,
      "tit": 6866,
      "terbit": 6867,
      "##scom": 6868,
      "##ikh": 6869,
      "##balashapus": 6870,
      "dipandang": 6871,
      "##ject": 6872,
      "##atalan": 6873,
      "bermacam": 6874,
      "##olongan": 6875,
      "##ebalan": 6876,
      "uud": 6877,
      "enggak": 6878,
      "implement": 6879,
      "sint": 6880,
      "konsisten": 6881,
      "permohonan": 6882,
      "##besar": 6883,
      "##iam": 6884,
      "##ye": 6885,
      "beach": 6886,
      "surut": 6887,
      "##isl": 6888,
      "pemegang": 6889,
      "ambe": 6890,
      "gitar": 6891,
      "belakangan": 6892,
      "nasabah": 6893,
      "penginapan": 6894,
      "pipa": 6895,
      "##kami": 6896,
      "lombok": 6897,
      "iklim": 6898,
      "##iskinan": 6899,
      "##oom": 6900,
      "##itahu": 6901,
      "santai": 6902,
      "ditambahkan": 6903,
      "##kamar": 6904,
      "memadai": 6905,
      "cinc": 6906,
      "bacaan": 6907,
      "##esterol": 6908,
      "dihadapi": 6909,
      "didalamnya": 6910,
      "dijalankan": 6911,
      "benih": 6912,
      "jelasnya": 6913,
      "pencernaan": 6914,
      "formulir": 6915,
      "nikah": 6916,
      "kesuksesan": 6917,
      "##hab": 6918,
      "dialog": 6919,
      "##band": 6920,
      "125": 6921,
      "dosis": 6922,
      "##anen": 6923,
      "mt": 6924,
      "haram": 6925,
      "menghubungkan": 6926,
      "yud": 6927,
      "bea": 6928,
      "##awasi": 6929,
      "list": 6930,
      "penguasa": 6931,
      "berdampak": 6932,
      "##esuaian": 6933,
      "##pend": 6934,
      "lan": 6935,
      "furn": 6936,
      "##lakukan": 6937,
      "database": 6938,
      "tegangan": 6939,
      "penyelesaian": 6940,
      "##our": 6941,
      "utang": 6942,
      "mab": 6943,
      "proposal": 6944,
      "##ongkok": 6945,
      "abg": 6946,
      "dirilis": 6947,
      "bgt": 6948,
      "melebihi": 6949,
      "telkomsel": 6950,
      "bambu": 6951,
      "##76": 6952,
      "##yukur": 6953,
      "impian": 6954,
      "##ancy": 6955,
      "produktif": 6956,
      "##ejo": 6957,
      "od": 6958,
      "hobi": 6959,
      "##orsi": 6960,
      "##otensi": 6961,
      "mengukur": 6962,
      "terkini": 6963,
      "menanyakan": 6964,
      "##eser": 6965,
      "berpengalaman": 6966,
      "##atap": 6967,
      "##lar": 6968,
      "mundur": 6969,
      "##ais": 6970,
      "kontol": 6971,
      "lelah": 6972,
      "##tival": 6973,
      "spesial": 6974,
      "view": 6975,
      "plas": 6976,
      "##2016": 6977,
      "club": 6978,
      "youtube": 6979,
      "menangg": 6980,
      "siapkan": 6981,
      "tunt": 6982,
      "dirimu": 6983,
      "cy": 6984,
      "farm": 6985,
      "ditemui": 6986,
      "##ohan": 6987,
      "ambeien": 6988,
      "berminat": 6989,
      "bergantung": 6990,
      "##ahit": 6991,
      "sepakbola": 6992,
      "pecinta": 6993,
      "bokep": 6994,
      "##obet": 6995,
      "##entuhan": 6996,
      "faktorfaktor": 6997,
      "matanya": 6998,
      "putr": 6999,
      "##istensi": 7000,
      "sunnah": 7001,
      "##usikan": 7002,
      "audio": 7003,
      "intinya": 7004,
      "gajah": 7005,
      "berjuang": 7006,
      "kencing": 7007,
      "##2010": 7008,
      "relev": 7009,
      "revolusi": 7010,
      "stres": 7011,
      "follow": 7012,
      "pensiun": 7013,
      "##tera": 7014,
      "kebahagia": 7015,
      "tandat": 7016,
      "kemiskinan": 7017,
      "##upun": 7018,
      "##iar": 7019,
      "belas": 7020,
      "pembatalan": 7021,
      "prioritas": 7022,
      "mainan": 7023,
      "##96": 7024,
      "##inst": 7025,
      "pesat": 7026,
      "##itahuan": 7027,
      "##ormati": 7028,
      "melatih": 7029,
      "dolar": 7030,
      "##erat": 7031,
      "ilmuwan": 7032,
      "##ure": 7033,
      "percobaan": 7034,
      "nada": 7035,
      "koordinasi": 7036,
      "##bawa": 7037,
      "terlambat": 7038,
      "haha": 7039,
      "##eliti": 7040,
      "laki": 7041,
      "tsb": 7042,
      "xi": 7043,
      "##kesmas": 7044,
      "##cher": 7045,
      "##que": 7046,
      "repot": 7047,
      "##ajang": 7048,
      "merokok": 7049,
      "raks": 7050,
      "bijak": 7051,
      "##versi": 7052,
      "##egal": 7053,
      "pertengahan": 7054,
      "modifikasi": 7055,
      "pahlawan": 7056,
      "biologi": 7057,
      "bakat": 7058,
      "rasakan": 7059,
      "##cam": 7060,
      "jama": 7061,
      "pergerakan": 7062,
      "add": 7063,
      "##ayu": 7064,
      "walikota": 7065,
      "aktiv": 7066,
      "##ewaan": 7067,
      "jem": 7068,
      "hd": 7069,
      "sperma": 7070,
      "merdeka": 7071,
      "fungsinya": 7072,
      "##och": 7073,
      "dibeli": 7074,
      "dijamin": 7075,
      "##agaman": 7076,
      "pengakuan": 7077,
      "exp": 7078,
      "sarjana": 7079,
      "alatalat": 7080,
      "perkiraan": 7081,
      "alex": 7082,
      "produc": 7083,
      "disarankan": 7084,
      "bukankah": 7085,
      "##enam": 7086,
      "##formasi": 7087,
      "##hiri": 7088,
      "pemberitahuan": 7089,
      "lump": 7090,
      "diartikan": 7091,
      "jaket": 7092,
      "makam": 7093,
      "bersyukur": 7094,
      "sampel": 7095,
      "rumput": 7096,
      "##osan": 7097,
      "##onim": 7098,
      "##ahah": 7099,
      "##umbang": 7100,
      "won": 7101,
      "garuda": 7102,
      "##indar": 7103,
      "rent": 7104,
      "sido": 7105,
      "##laim": 7106,
      "selera": 7107,
      "jenjang": 7108,
      "110": 7109,
      "##egrasi": 7110,
      "##umuskan": 7111,
      "42": 7112,
      "rib": 7113,
      "memaks": 7114,
      "##ombongan": 7115,
      "##rek": 7116,
      "##utnya": 7117,
      "festival": 7118,
      "direktor": 7119,
      "dapet": 7120,
      "bambang": 7121,
      "march": 7122,
      "pustaka": 7123,
      "##ashap": 7124,
      "monitor": 7125,
      "##ebar": 7126,
      "devel": 7127,
      "july": 7128,
      "pencapaian": 7129,
      "penyanyi": 7130,
      "terkandung": 7131,
      "sempit": 7132,
      "gb": 7133,
      "menunjukan": 7134,
      "sank": 7135,
      "sesi": 7136,
      "##cr": 7137,
      "##ratiz": 7138,
      "kebahagiaan": 7139,
      "hadapan": 7140,
      "##adari": 7141,
      "modem": 7142,
      "##epend": 7143,
      "##langratiz": 7144,
      "kian": 7145,
      "dides": 7146,
      "subs": 7147,
      "sby": 7148,
      "##roduksi": 7149,
      "85": 7150,
      "beton": 7151,
      "persetujuan": 7152,
      "timnas": 7153,
      "chat": 7154,
      "pecah": 7155,
      "peradaban": 7156,
      "hindu": 7157,
      "##oneg": 7158,
      "bom": 7159,
      "raga": 7160,
      "kolesterol": 7161,
      "institusi": 7162,
      "##ohong": 7163,
      "##yakan": 7164,
      "kewenangan": 7165,
      "sabun": 7166,
      "mendadak": 7167,
      "ijin": 7168,
      "kabupatenkota": 7169,
      "beroperasi": 7170,
      "villa": 7171,
      "amal": 7172,
      "neraka": 7173,
      "kendala": 7174,
      "##val": 7175,
      "tandatanda": 7176,
      "ditangkap": 7177,
      "batuk": 7178,
      "mendalam": 7179,
      "manager": 7180,
      "##unting": 7181,
      "##sih": 7182,
      "##abatan": 7183,
      "beranda": 7184,
      "sejahter": 7185,
      "##mani": 7186,
      "rupanya": 7187,
      "jantan": 7188,
      "primer": 7189,
      "##pet": 7190,
      "pelajari": 7191,
      "rasi": 7192,
      "win": 7193,
      "atur": 7194,
      "support": 7195,
      "mengacu": 7196,
      "##sor": 7197,
      "sembilan": 7198,
      "##ampi": 7199,
      "sayur": 7200,
      "##hawat": 7201,
      "menekankan": 7202,
      "water": 7203,
      "infras": 7204,
      "dest": 7205,
      "polres": 7206,
      "##place": 7207,
      "terbagi": 7208,
      "berencana": 7209,
      "turn": 7210,
      "##alinan": 7211,
      "##xx": 7212,
      "##79": 7213,
      "##ecahan": 7214,
      "##bisnis": 7215,
      "gk": 7216,
      "karangan": 7217,
      "##bit": 7218,
      "pidato": 7219,
      "##blogspotcom": 7220,
      "nusa": 7221,
      "intelek": 7222,
      "beragama": 7223,
      "instrumen": 7224,
      "berpart": 7225,
      "soekarno": 7226,
      "##inik": 7227,
      "august": 7228,
      "tempatnya": 7229,
      "raksasa": 7230,
      "butuhkan": 7231,
      "##onc": 7232,
      "progr": 7233,
      "dsb": 7234,
      "##tuhan": 7235,
      "##asy": 7236,
      "jagung": 7237,
      "##ajurit": 7238,
      "mulus": 7239,
      "mengendalikan": 7240,
      "##ikanan": 7241,
      "pembiayaan": 7242,
      "manch": 7243,
      "##omong": 7244,
      "##ormatan": 7245,
      "##luk": 7246,
      "landasan": 7247,
      "##jika": 7248,
      "bodoh": 7249,
      "good": 7250,
      "##olok": 7251,
      "##onf": 7252,
      "panggung": 7253,
      "berfikir": 7254,
      "pengawas": 7255,
      "##ikum": 7256,
      "otomotif": 7257,
      "##tat": 7258,
      "##fik": 7259,
      "shah": 7260,
      "kekasih": 7261,
      "eksternal": 7262,
      "ced": 7263,
      "dugaan": 7264,
      "pendahul": 7265,
      "booking": 7266,
      "caf": 7267,
      "surve": 7268,
      "bertentangan": 7269,
      "kerangka": 7270,
      "kutu": 7271,
      "dibedakan": 7272,
      "##gian": 7273,
      "##pad": 7274,
      "##peraturan": 7275,
      "##lum": 7276,
      "##editasi": 7277,
      "##siap": 7278,
      "##iday": 7279,
      "penipuan": 7280,
      "network": 7281,
      "##rom": 7282,
      "start": 7283,
      "lond": 7284,
      "gand": 7285,
      "sawit": 7286,
      "1990": 7287,
      "##lydelet": 7288,
      "your": 7289,
      "lipat": 7290,
      "##ics": 7291,
      "riz": 7292,
      "##ektor": 7293,
      "tub": 7294,
      "##andap": 7295,
      "##ox": 7296,
      "rincian": 7297,
      "jobs": 7298,
      "gabungan": 7299,
      "denpasar": 7300,
      "##ogo": 7301,
      "mula": 7302,
      "##wangi": 7303,
      "pengantin": 7304,
      "york": 7305,
      "##uasaan": 7306,
      "perikanan": 7307,
      "##pin": 7308,
      "citac": 7309,
      "login": 7310,
      "akrab": 7311,
      "rajin": 7312,
      "##ric": 7313,
      "##unungan": 7314,
      "mengundang": 7315,
      "obatobatan": 7316,
      "putusan": 7317,
      "kamip": 7318,
      "senyum": 7319,
      "##ection": 7320,
      "##uarga": 7321,
      "##jazah": 7322,
      "##rama": 7323,
      "##intang": 7324,
      "##bagian": 7325,
      "##turut": 7326,
      "##ath": 7327,
      "bercerita": 7328,
      "##ext": 7329,
      "##ein": 7330,
      "patung": 7331,
      "##timbang": 7332,
      "##agukan": 7333,
      "jambi": 7334,
      "pir": 7335,
      "hidangan": 7336,
      "berkar": 7337,
      "persatuan": 7338,
      "##roh": 7339,
      "hehehe": 7340,
      "melengkapi": 7341,
      "pelap": 7342,
      "konstitusi": 7343,
      "berpartisipasi": 7344,
      "honorer": 7345,
      "ih": 7346,
      "##ency": 7347,
      "##unjangan": 7348,
      "##ampaknya": 7349,
      "tiada": 7350,
      "##andainya": 7351,
      "aparat": 7352,
      "##uto": 7353,
      "lp": 7354,
      "diajarkan": 7355,
      "uni": 7356,
      "##ominasi": 7357,
      "membuang": 7358,
      "raf": 7359,
      "##angku": 7360,
      "##ney": 7361,
      "kantong": 7362,
      "44": 7363,
      "sejahtera": 7364,
      "##itatif": 7365,
      "kuh": 7366,
      "##ogn": 7367,
      "indo": 7368,
      "##igasi": 7369,
      "jelaskan": 7370,
      "dikutip": 7371,
      "##alem": 7372,
      "mempermudah": 7373,
      "utuh": 7374,
      "##ars": 7375,
      "##ekor": 7376,
      "nafas": 7377,
      "ditinggal": 7378,
      "##pns": 7379,
      "janganlah": 7380,
      "telek": 7381,
      "kekalahan": 7382,
      "pbb": 7383,
      "refl": 7384,
      "beriman": 7385,
      "instalasi": 7386,
      "##sion": 7387,
      "kuant": 7388,
      "amin": 7389,
      "keagamaan": 7390,
      "##utif": 7391,
      "##ujuk": 7392,
      "##audi": 7393,
      "statistik": 7394,
      "arsip": 7395,
      "tt": 7396,
      "komposisi": 7397,
      "ketak": 7398,
      "memperkenalkan": 7399,
      "##akna": 7400,
      "persalinan": 7401,
      "##aler": 7402,
      "wew": 7403,
      "bias": 7404,
      "##oter": 7405,
      "pn": 7406,
      "angkutan": 7407,
      "##ster": 7408,
      "uraian": 7409,
      "baikbaik": 7410,
      "melihatnya": 7411,
      "##back": 7412,
      "account": 7413,
      "menet": 7414,
      "reli": 7415,
      "pelaksana": 7416,
      "dad": 7417,
      "##imum": 7418,
      "flu": 7419,
      "dakwah": 7420,
      "aslinya": 7421,
      "yusuf": 7422,
      "arsitektur": 7423,
      "mantap": 7424,
      "##teroid": 7425,
      "open": 7426,
      "##vid": 7427,
      "right": 7428,
      "mengharapkan": 7429,
      "##enjar": 7430,
      "konvensional": 7431,
      "betina": 7432,
      "kemana": 7433,
      "menjauh": 7434,
      "terkesan": 7435,
      "##ewakan": 7436,
      "koran": 7437,
      "pengikut": 7438,
      "penyer": 7439,
      "##enak": 7440,
      "##iris": 7441,
      "tepi": 7442,
      "nik": 7443,
      "##54": 7444,
      "jepara": 7445,
      "marketplace": 7446,
      "transp": 7447,
      "##ahulu": 7448,
      "label": 7449,
      "penempatan": 7450,
      "astr": 7451,
      "menunjang": 7452,
      "##ector": 7453,
      "##amana": 7454,
      "prajurit": 7455,
      "phot": 7456,
      "butir": 7457,
      "menempel": 7458,
      "menghadirkan": 7459,
      "high": 7460,
      "keterl": 7461,
      "rancangan": 7462,
      "umar": 7463,
      "led": 7464,
      "ramuan": 7465,
      "##vd": 7466,
      "##ning": 7467,
      "senior": 7468,
      "keters": 7469,
      "bangkit": 7470,
      "##antang": 7471,
      "##etul": 7472,
      "sbobet": 7473,
      "memecahkan": 7474,
      "##opi": 7475,
      "dihitung": 7476,
      "sedemikian": 7477,
      "##usinya": 7478,
      "rela": 7479,
      "ditu": 7480,
      "##utasi": 7481,
      "##aptasi": 7482,
      "##sum": 7483,
      "instagram": 7484,
      "cam": 7485,
      "58": 7486,
      "popular": 7487,
      "tanggapan": 7488,
      "madrasah": 7489,
      "##lay": 7490,
      "pameran": 7491,
      "call": 7492,
      "layaknya": 7493,
      "pegunungan": 7494,
      "bra": 7495,
      "manado": 7496,
      "##usul": 7497,
      "sit": 7498,
      "##ister": 7499,
      "iklangratiz": 7500,
      "persepsi": 7501,
      "ustad": 7502,
      "##ition": 7503,
      "ditanya": 7504,
      "menghadap": 7505,
      "##uu": 7506,
      "manchester": 7507,
      "menjabat": 7508,
      "gard": 7509,
      "##unuhan": 7510,
      "rock": 7511,
      "menyerah": 7512,
      "##ider": 7513,
      "proc": 7514,
      "disukai": 7515,
      "sumb": 7516,
      "dibantu": 7517,
      "balas": 7518,
      "tertawa": 7519,
      "truk": 7520,
      "##onjol": 7521,
      "london": 7522,
      "indos": 7523,
      "karbon": 7524,
      "coll": 7525,
      "fb": 7526,
      "##isian": 7527,
      "##ush": 7528,
      "memf": 7529,
      "puskesmas": 7530,
      "400": 7531,
      "cerah": 7532,
      "menemui": 7533,
      "fungsional": 7534,
      "##embunyi": 7535,
      "##mod": 7536,
      "##win": 7537,
      "##ikmatan": 7538,
      "tambang": 7539,
      "mengand": 7540,
      "zakat": 7541,
      "alergi": 7542,
      "ibuk": 7543,
      "doll": 7544,
      "##omet": 7545,
      "wkw": 7546,
      "##atar": 7547,
      "berkumpul": 7548,
      "nav": 7549,
      "birok": 7550,
      "##oso": 7551,
      "##akn": 7552,
      "ung": 7553,
      "##ekatan": 7554,
      "##omosikan": 7555,
      "##hat": 7556,
      "##andan": 7557,
      "perih": 7558,
      "pembu": 7559,
      "##enian": 7560,
      "tech": 7561,
      "rekrut": 7562,
      "maria": 7563,
      "campur": 7564,
      "gant": 7565,
      "tabungan": 7566,
      "memancing": 7567,
      "seter": 7568,
      "haid": 7569,
      "independ": 7570,
      "rugi": 7571,
      "dianj": 7572,
      "setara": 7573,
      "dipelajari": 7574,
      "sendok": 7575,
      "bunuh": 7576,
      "batin": 7577,
      "infrastruktur": 7578,
      "##oses": 7579,
      "tembak": 7580,
      "mikr": 7581,
      "penyelenggara": 7582,
      "##udin": 7583,
      "barcel": 7584,
      "momen": 7585,
      "show": 7586,
      "pembantu": 7587,
      "##okoh": 7588,
      "sidoarjo": 7589,
      "menyusui": 7590,
      "memicu": 7591,
      "kelainan": 7592,
      "roma": 7593,
      "performa": 7594,
      "##mel": 7595,
      "produkproduk": 7596,
      "##agr": 7597,
      "down": 7598,
      "##buku": 7599,
      "teor": 7600,
      "pekanbaru": 7601,
      "kepend": 7602,
      "##okerto": 7603,
      "##ujung": 7604,
      "hiv": 7605,
      "malas": 7606,
      "##rian": 7607,
      "mutlak": 7608,
      "lal": 7609,
      "audit": 7610,
      "##uruk": 7611,
      "destinasi": 7612,
      "nis": 7613,
      "fans": 7614,
      "##inet": 7615,
      "##5000": 7616,
      "##02": 7617,
      "dianjurkan": 7618,
      "perak": 7619,
      "mbah": 7620,
      "love": 7621,
      "menyarankan": 7622,
      "inc": 7623,
      "##oi": 7624,
      "gerb": 7625,
      "##eki": 7626,
      "slot": 7627,
      "##iasa": 7628,
      "tunjangan": 7629,
      "efisiensi": 7630,
      "47": 7631,
      "##pn": 7632,
      "singk": 7633,
      "bendera": 7634,
      "dikelola": 7635,
      "##emuka": 7636,
      "lingkup": 7637,
      "dagang": 7638,
      "muti": 7639,
      "##ale": 7640,
      "bt": 7641,
      "##anjangan": 7642,
      "rok": 7643,
      "##oj": 7644,
      "##arannya": 7645,
      "pembunuhan": 7646,
      "##jub": 7647,
      "survei": 7648,
      "spa": 7649,
      "cash": 7650,
      "ran": 7651,
      "klaim": 7652,
      "kosm": 7653,
      "kelenjar": 7654,
      "##ativitas": 7655,
      "lemari": 7656,
      "baginya": 7657,
      "paris": 7658,
      "##aksaan": 7659,
      "##aham": 7660,
      "subur": 7661,
      "ular": 7662,
      "##andu": 7663,
      "##asat": 7664,
      "##inisikan": 7665,
      "##dengan": 7666,
      "sanksi": 7667,
      "pencari": 7668,
      "kenikmatan": 7669,
      "varian": 7670,
      "dikunjungi": 7671,
      "june": 7672,
      "##ous": 7673,
      "hidr": 7674,
      "office": 7675,
      "libur": 7676,
      "scr": 7677,
      "##yam": 7678,
      "maz": 7679,
      "ijazah": 7680,
      "harm": 7681,
      "##utamakan": 7682,
      "balai": 7683,
      "##allahu": 7684,
      "ditur": 7685,
      "mengeks": 7686,
      "diperb": 7687,
      "hambatan": 7688,
      "bermu": 7689,
      "##ott": 7690,
      "##onegoro": 7691,
      "##organisasi": 7692,
      "bayangkan": 7693,
      "implementasi": 7694,
      "terganggu": 7695,
      "kelima": 7696,
      "blu": 7697,
      "komod": 7698,
      "66": 7699,
      "administr": 7700,
      "ditempat": 7701,
      "dius": 7702,
      "mie": 7703,
      "nuk": 7704,
      "##empuran": 7705,
      "mematikan": 7706,
      "desk": 7707,
      "rohani": 7708,
      "merencanakan": 7709,
      "bosan": 7710,
      "seandainya": 7711,
      "cedera": 7712,
      "zona": 7713,
      "##daya": 7714,
      "tumor": 7715,
      "romantis": 7716,
      "browser": 7717,
      "##ilas": 7718,
      "tempo": 7719,
      "##gp": 7720,
      "gener": 7721,
      "88": 7722,
      "lambang": 7723,
      "##ole": 7724,
      "imun": 7725,
      "life": 7726,
      "rute": 7727,
      "##iker": 7728,
      "food": 7729,
      "##ehat": 7730,
      "##astis": 7731,
      "tunai": 7732,
      "kontribusi": 7733,
      "serba": 7734,
      "##reen": 7735,
      "syukur": 7736,
      "mengap": 7737,
      "lingkaran": 7738,
      "opsi": 7739,
      "stress": 7740,
      "barcelona": 7741,
      "sensor": 7742,
      "ritual": 7743,
      "cons": 7744,
      "mengger": 7745,
      "rasional": 7746,
      "##asarana": 7747,
      "stok": 7748,
      "pembaruan": 7749,
      "43": 7750,
      "trop": 7751,
      "cobalah": 7752,
      "injil": 7753,
      "ss": 7754,
      "##cari": 7755,
      "##dian": 7756,
      "##ancarkan": 7757,
      "##unyikan": 7758,
      "mengejar": 7759,
      "kakek": 7760,
      "apple": 7761,
      "wahyu": 7762,
      "fos": 7763,
      "##iture": 7764,
      "49": 7765,
      "baiklah": 7766,
      "dlm": 7767,
      "##aitkan": 7768,
      "racun": 7769,
      "lantaran": 7770,
      "mendatangkan": 7771,
      "katolik": 7772,
      "jaga": 7773,
      "tafs": 7774,
      "rumit": 7775,
      "##ampingi": 7776,
      "mendidik": 7777,
      "alkohol": 7778,
      "keba": 7779,
      "liver": 7780,
      "##dayaan": 7781,
      "berjumlah": 7782,
      "##lier": 7783,
      "perkataan": 7784,
      "terbar": 7785,
      "install": 7786,
      "sob": 7787,
      "##agus": 7788,
      "akhl": 7789,
      "##alth": 7790,
      "agr": 7791,
      "dz": 7792,
      "pembicaraan": 7793,
      "indeks": 7794,
      "bebek": 7795,
      "animasi": 7796,
      "##jt": 7797,
      "mengarah": 7798,
      "turki": 7799,
      "asap": 7800,
      "##we": 7801,
      "acuan": 7802,
      "##ilin": 7803,
      "ucapkan": 7804,
      "nag": 7805,
      "molekul": 7806,
      "penyembuhan": 7807,
      "##bat": 7808,
      "simpan": 7809,
      "klinik": 7810,
      "##istis": 7811,
      "##emput": 7812,
      "result": 7813,
      "penentuan": 7814,
      "menggunakannya": 7815,
      "magnet": 7816,
      "##elat": 7817,
      "larangan": 7818,
      "kk": 7819,
      "ds": 7820,
      "hem": 7821,
      "los": 7822,
      "##acancy": 7823,
      "##kulasi": 7824,
      "57": 7825,
      "hamba": 7826,
      "##jangan": 7827,
      "membandingkan": 7828,
      "kelem": 7829,
      "chr": 7830,
      "##pers": 7831,
      "##atra": 7832,
      "##ucapan": 7833,
      "anal": 7834,
      "kuota": 7835,
      "penjaga": 7836,
      "##ectr": 7837,
      "terjaga": 7838,
      "jakart": 7839,
      "##utihan": 7840,
      "##idae": 7841,
      "terwujud": 7842,
      "menutupi": 7843,
      "##ejarah": 7844,
      "##tahun": 7845,
      "##ety": 7846,
      "urat": 7847,
      "jalanan": 7848,
      "pagar": 7849,
      "kemaluan": 7850,
      "##urt": 7851,
      "##kand": 7852,
      "problem": 7853,
      "spiritual": 7854,
      "##mah": 7855,
      "perairan": 7856,
      "stadion": 7857,
      "logika": 7858,
      "santri": 7859,
      "balita": 7860,
      "konseling": 7861,
      "saj": 7862,
      "##lamasi": 7863,
      "alf": 7864,
      "pertempuran": 7865,
      "##ektar": 7866,
      "##alisasikan": 7867,
      "input": 7868,
      "fri": 7869,
      "##06": 7870,
      "##eti": 7871,
      "##ument": 7872,
      "41": 7873,
      "diagn": 7874,
      "1996": 7875,
      "##orangan": 7876,
      "menonjol": 7877,
      "berkom": 7878,
      "##yanto": 7879,
      "iq": 7880,
      "membesar": 7881,
      "duit": 7882,
      "perlakuan": 7883,
      "indosat": 7884,
      "##num": 7885,
      "keyboard": 7886,
      "sayap": 7887,
      "mengurus": 7888,
      "keangg": 7889,
      "##05": 7890,
      "kurangnya": 7891,
      "ukur": 7892,
      "hancur": 7893,
      "konfirmasi": 7894,
      "##antumkan": 7895,
      "ketersediaan": 7896,
      "##inja": 7897,
      "##esaan": 7898,
      "##rahim": 7899,
      "upah": 7900,
      "bm": 7901,
      "hias": 7902,
      "agenda": 7903,
      "cincin": 7904,
      "kerjanya": 7905,
      "under": 7906,
      "##eskan": 7907,
      "hubungannya": 7908,
      "berkisar": 7909,
      "menjel": 7910,
      "intim": 7911,
      "berlatih": 7912,
      "##ound": 7913,
      "jitu": 7914,
      "menyerap": 7915,
      "enter": 7916,
      "kembang": 7917,
      "menghambat": 7918,
      "terbiasa": 7919,
      "reproduksi": 7920,
      "metab": 7921,
      "rpp": 7922,
      "rind": 7923,
      "dm": 7924,
      "hu": 7925,
      "##mail": 7926,
      "dilah": 7927,
      "gig": 7928,
      "##isap": 7929,
      "care": 7930,
      "##untu": 7931,
      "kader": 7932,
      "dalil": 7933,
      "1995": 7934,
      "kip": 7935,
      "##istan": 7936,
      "pelih": 7937,
      "angkasa": 7938,
      "hakikat": 7939,
      "##andatangani": 7940,
      "##efinisikan": 7941,
      "wajahnya": 7942,
      "subjek": 7943,
      "ongkos": 7944,
      "epis": 7945,
      "mangg": 7946,
      "hut": 7947,
      "batub": 7948,
      "sekadar": 7949,
      "kaget": 7950,
      "##03": 7951,
      "pemkab": 7952,
      "bk": 7953,
      "dollar": 7954,
      "##adat": 7955,
      "kesenian": 7956,
      "dimin": 7957,
      "bata": 7958,
      "single": 7959,
      "##egas": 7960,
      "mutiara": 7961,
      "##awang": 7962,
      "skill": 7963,
      "nat": 7964,
      "##akwa": 7965,
      "chip": 7966,
      "##ange": 7967,
      "##ology": 7968,
      "yan": 7969,
      "kah": 7970,
      "##gma": 7971,
      "##ongkar": 7972,
      "##late": 7973,
      "##js": 7974,
      "##iness": 7975,
      "tren": 7976,
      "##ese": 7977,
      "grafis": 7978,
      "pran": 7979,
      "ketimbang": 7980,
      "lengkapnya": 7981,
      "##ukis": 7982,
      "seimbang": 7983,
      "jen": 7984,
      "##ford": 7985,
      "control": 7986,
      "dibidang": 7987,
      "##urunsur": 7988,
      "##arning": 7989,
      "##ehan": 7990,
      "tuanya": 7991,
      "##disk": 7992,
      "kencang": 7993,
      "ubah": 7994,
      "##coin": 7995,
      "babi": 7996,
      "bios": 7997,
      "pdf": 7998,
      "stock": 7999,
      "mc": 8000,
      "##ilikinya": 8001,
      "sebabnya": 8002,
      "bukannya": 8003,
      "terpadu": 8004,
      "maluku": 8005,
      "cacat": 8006,
      "dilaporkan": 8007,
      "##elsea": 8008,
      "##right": 8009,
      "import": 8010,
      "##ense": 8011,
      "diund": 8012,
      "golkar": 8013,
      "##anaman": 8014,
      "##hit": 8015,
      "kediri": 8016,
      "lukisan": 8017,
      "kreasi": 8018,
      "cic": 8019,
      "keram": 8020,
      "1800": 8021,
      "membeb": 8022,
      "rekaman": 8023,
      "##edul": 8024,
      "berupaya": 8025,
      "##opsi": 8026,
      "toh": 8027,
      "rombongan": 8028,
      "norma": 8029,
      "kompas": 8030,
      "pura": 8031,
      "##esik": 8032,
      "##onia": 8033,
      "pandai": 8034,
      "##izinkan": 8035,
      "menum": 8036,
      "##oskan": 8037,
      "sains": 8038,
      "perahu": 8039,
      "minimum": 8040,
      "padaku": 8041,
      "training": 8042,
      "##umentasi": 8043,
      "##bagi": 8044,
      "ungkapan": 8045,
      "prima": 8046,
      "##rus": 8047,
      "##usiaan": 8048,
      "##harga": 8049,
      "ray": 8050,
      "melarang": 8051,
      "store": 8052,
      "spe": 8053,
      "jajaran": 8054,
      "sdh": 8055,
      "music": 8056,
      "psikologis": 8057,
      "patah": 8058,
      "##alurkan": 8059,
      "jangk": 8060,
      "arif": 8061,
      "##mak": 8062,
      "management": 8063,
      "kenyataannya": 8064,
      "lanjutan": 8065,
      "##zer": 8066,
      "stroke": 8067,
      "hor": 8068,
      "west": 8069,
      "cadangan": 8070,
      "##ging": 8071,
      "diserahkan": 8072,
      "vagin": 8073,
      "bareng": 8074,
      "##ias": 8075,
      "asma": 8076,
      "fant": 8077,
      "##angsing": 8078,
      "menyakit": 8079,
      "unsurunsur": 8080,
      "gini": 8081,
      "muj": 8082,
      "fotof": 8083,
      "cib": 8084,
      "sawah": 8085,
      "chelsea": 8086,
      "terhubung": 8087,
      "##upai": 8088,
      "kafir": 8089,
      "##51": 8090,
      "lensa": 8091,
      "mengonsumsi": 8092,
      "menggelar": 8093,
      "bukub": 8094,
      "seterusnya": 8095,
      "peternakan": 8096,
      "meg": 8097,
      "munt": 8098,
      "intelektual": 8099,
      "ips": 8100,
      "hijab": 8101,
      "##interaksi": 8102,
      "join": 8103,
      "unggulan": 8104,
      "tercapai": 8105,
      "ktp": 8106,
      "78": 8107,
      "hack": 8108,
      "fitri": 8109,
      "##eam": 8110,
      "rekrutmen": 8111,
      "menginst": 8112,
      "pks": 8113,
      "kasino": 8114,
      "##68": 8115,
      "dilahirkan": 8116,
      "sony": 8117,
      "enzim": 8118,
      "tingkatan": 8119,
      "modul": 8120,
      "tingginya": 8121,
      "furniture": 8122,
      "##imalkan": 8123,
      "rahmat": 8124,
      "aktor": 8125,
      "##pak": 8126,
      "##eph": 8127,
      "keluaran": 8128,
      "umpan": 8129,
      "boneka": 8130,
      "january": 8131,
      "panel": 8132,
      "hutang": 8133,
      "memaksa": 8134,
      "sharing": 8135,
      "##jemahkan": 8136,
      "platform": 8137,
      "##500": 8138,
      "diajak": 8139,
      "pertunjukan": 8140,
      "jasmani": 8141,
      "mh": 8142,
      "sump": 8143,
      "potensial": 8144,
      "sekelompok": 8145,
      "64": 8146,
      "##kep": 8147,
      "february": 8148,
      "dimakan": 8149,
      "natal": 8150,
      "joko": 8151,
      "##ingnya": 8152,
      "maksimum": 8153,
      "##ihad": 8154,
      "mengandalkan": 8155,
      "reply": 8156,
      "##2018": 8157,
      "penangg": 8158,
      "sund": 8159,
      "tersisa": 8160,
      "dirumah": 8161,
      "pertambangan": 8162,
      "moh": 8163,
      "##uy": 8164,
      "##01": 8165,
      "elektron": 8166,
      "semata": 8167,
      "batasan": 8168,
      "##gabungkan": 8169,
      "mengumumkan": 8170,
      "##enta": 8171,
      "tgl": 8172,
      "mencuri": 8173,
      "##iny": 8174,
      "##ihatsu": 8175,
      "anggap": 8176,
      "##ilingi": 8177,
      "bengkel": 8178,
      "thanks": 8179,
      "##ensinya": 8180,
      "asyik": 8181,
      "batuan": 8182,
      "##mus": 8183,
      "bermakna": 8184,
      "sunan": 8185,
      "koloni": 8186,
      "##ift": 8187,
      "sentuhan": 8188,
      "instan": 8189,
      "mengolah": 8190,
      "dipanggil": 8191,
      "lt": 8192,
      "##etulnya": 8193,
      "##jolan": 8194,
      "pengantar": 8195,
      "bni": 8196,
      "usb": 8197,
      "alasannya": 8198,
      "##san": 8199,
      "##inah": 8200,
      "pijat": 8201,
      "##angundangan": 8202,
      "pendahuluan": 8203,
      "##bet": 8204,
      "##papan": 8205,
      "polda": 8206,
      "menyatu": 8207,
      "mengarahkan": 8208,
      "dituntut": 8209,
      "kandung": 8210,
      "##ier": 8211,
      "##can": 8212,
      "ngeb": 8213,
      "##ept": 8214,
      "##07": 8215,
      "##ele": 8216,
      "terkemuka": 8217,
      "basis": 8218,
      "metro": 8219,
      "pertar": 8220,
      "mk": 8221,
      "##shop": 8222,
      "belah": 8223,
      "factor": 8224,
      "##ations": 8225,
      "##uansa": 8226,
      "berlanjut": 8227,
      "kategorip": 8228,
      "##irannya": 8229,
      "nyar": 8230,
      "ketakutan": 8231,
      "hikm": 8232,
      "nor": 8233,
      "##abilitas": 8234,
      "##tug": 8235,
      "##enderungan": 8236,
      "terkej": 8237,
      "partisipasi": 8238,
      "menuliskan": 8239,
      "diap": 8240,
      "grafik": 8241,
      "mendekat": 8242,
      "diturunkan": 8243,
      "sind": 8244,
      "perayaan": 8245,
      "##was": 8246,
      "terbakar": 8247,
      "registrasi": 8248,
      "##emaran": 8249,
      "##iler": 8250,
      "##uasi": 8251,
      "ayu": 8252,
      "sejalan": 8253,
      "hipot": 8254,
      "bekerjasama": 8255,
      "##aul": 8256,
      "##rp": 8257,
      "keanggotaan": 8258,
      "ideologi": 8259,
      "hir": 8260,
      "##ico": 8261,
      "mengup": 8262,
      "output": 8263,
      "menempati": 8264,
      "rencan": 8265,
      "ngomong": 8266,
      "marg": 8267,
      "bensin": 8268,
      "mengemukakan": 8269,
      "kilometer": 8270,
      "prasarana": 8271,
      "vital": 8272,
      "relevan": 8273,
      "electr": 8274,
      "pengemb": 8275,
      "membahayakan": 8276,
      "pusing": 8277,
      "mba": 8278,
      "##aruskan": 8279,
      "krn": 8280,
      "##spir": 8281,
      "flor": 8282,
      "tiang": 8283,
      "masalahnya": 8284,
      "beran": 8285,
      "meningkatnya": 8286,
      "pred": 8287,
      "##aq": 8288,
      "pered": 8289,
      "keputihan": 8290,
      "pengucapan": 8291,
      "ibukota": 8292,
      "##bank": 8293,
      "wordpress": 8294,
      "##ingkatkan": 8295,
      "pemberdayaan": 8296,
      "adegan": 8297,
      "semi": 8298,
      "##ru": 8299,
      "ai": 8300,
      "rong": 8301,
      "jelek": 8302,
      "bidan": 8303,
      "10000": 8304,
      "##pektif": 8305,
      "##reasi": 8306,
      "##enarkan": 8307,
      "rasio": 8308,
      "dibuktikan": 8309,
      "cand": 8310,
      "jalanjalan": 8311,
      "##bp": 8312,
      "heb": 8313,
      "staff": 8314,
      "pemakai": 8315,
      "##ilikan": 8316,
      "pinggir": 8317,
      "baby": 8318,
      "berganti": 8319,
      "bca": 8320,
      "kreativitas": 8321,
      "suites": 8322,
      "##oney": 8323,
      "bitcoin": 8324,
      "daihatsu": 8325,
      "song": 8326,
      "##ril": 8327,
      "##angkit": 8328,
      "lapak": 8329,
      "##ekah": 8330,
      "##ogan": 8331,
      "merata": 8332,
      "porno": 8333,
      "##otanya": 8334,
      "lemp": 8335,
      "##pg": 8336,
      "citacita": 8337,
      "muslimin": 8338,
      "rab": 8339,
      "penerbit": 8340,
      "sendirian": 8341,
      "kamus": 8342,
      "berinteraksi": 8343,
      "kasi": 8344,
      "selamanya": 8345,
      "##isikan": 8346,
      "##aro": 8347,
      "tempattempat": 8348,
      "baks": 8349,
      "pengujian": 8350,
      "##etron": 8351,
      "mengamati": 8352,
      "loading": 8353,
      "sebetulnya": 8354,
      "##123": 8355,
      "##tusan": 8356,
      "##urant": 8357,
      "##tive": 8358,
      "penyebaran": 8359,
      "seribu": 8360,
      "mengontrol": 8361,
      "secepat": 8362,
      "kemas": 8363,
      "fed": 8364,
      "wac": 8365,
      "skr": 8366,
      "##ilmu": 8367,
      "##aton": 8368,
      "sebulan": 8369,
      "prev": 8370,
      "milan": 8371,
      "ditunjukkan": 8372,
      "abang": 8373,
      "beres": 8374,
      "nelayan": 8375,
      "latin": 8376,
      "##iy": 8377,
      "lembaran": 8378,
      "##try": 8379,
      "tiongkok": 8380,
      "##jan": 8381,
      "pelan": 8382,
      "##abarkan": 8383,
      "beralih": 8384,
      "feb": 8385,
      "penangk": 8386,
      "##inggalan": 8387,
      "jodoh": 8388,
      "1994": 8389,
      "muatan": 8390,
      "##ustrasi": 8391,
      "pompa": 8392,
      "##omas": 8393,
      "kehendak": 8394,
      "demikianlah": 8395,
      "ditanam": 8396,
      "seekor": 8397,
      "##uduki": 8398,
      "deng": 8399,
      "68": 8400,
      "##04": 8401,
      "menular": 8402,
      "##tak": 8403,
      "berdarah": 8404,
      "penyebabnya": 8405,
      "##ution": 8406,
      "menghemat": 8407,
      "xl": 8408,
      "memotong": 8409,
      "survey": 8410,
      "melekat": 8411,
      "dikemukakan": 8412,
      "institut": 8413,
      "##aput": 8414,
      "##bang": 8415,
      "##aph": 8416,
      "resta": 8417,
      "bukubuku": 8418,
      "permanen": 8419,
      "december": 8420,
      "tongk": 8421,
      "pub": 8422,
      "hmm": 8423,
      "mengad": 8424,
      "abadi": 8425,
      "hun": 8426,
      "##uw": 8427,
      "ditolak": 8428,
      "rantai": 8429,
      "##wood": 8430,
      "dibeb": 8431,
      "warisan": 8432,
      "david": 8433,
      "buta": 8434,
      "menyuruh": 8435,
      "##ever": 8436,
      "penguasaan": 8437,
      "##ohid": 8438,
      "##inasikan": 8439,
      "##sungguh": 8440,
      "apel": 8441,
      "hong": 8442,
      "merangsang": 8443,
      "##hers": 8444,
      "kait": 8445,
      "ceritanya": 8446,
      "teror": 8447,
      "##amata": 8448,
      "ekstrak": 8449,
      "keterbatasan": 8450,
      "lisan": 8451,
      "waspada": 8452,
      "mataram": 8453,
      "dihadiri": 8454,
      "##ms": 8455,
      "pangk": 8456,
      "pg": 8457,
      "pembal": 8458,
      "dinamis": 8459,
      "tugasnya": 8460,
      "##angkitkan": 8461,
      "##yakinkan": 8462,
      "##sak": 8463,
      "##199": 8464,
      "##chi": 8465,
      "##ional": 8466,
      "##lusif": 8467,
      "kecenderungan": 8468,
      "##hadapan": 8469,
      "59": 8470,
      "lb": 8471,
      "siaran": 8472,
      "asuhan": 8473,
      "pelamar": 8474,
      "manfaatnya": 8475,
      "temper": 8476,
      "##venir": 8477,
      "presentasi": 8478,
      "##kem": 8479,
      "loc": 8480,
      "ketid": 8481,
      "##lm": 8482,
      "naga": 8483,
      "terjamin": 8484,
      "mentah": 8485,
      "##akunya": 8486,
      "pengk": 8487,
      "##ayangkan": 8488,
      "lalat": 8489,
      "robot": 8490,
      "darurat": 8491,
      "rub": 8492,
      "perjudian": 8493,
      "intens": 8494,
      "adonan": 8495,
      "ramalan": 8496,
      "1992": 8497,
      "##ancam": 8498,
      "0900": 8499,
      "alumni": 8500,
      "gembira": 8501,
      "budd": 8502,
      "print": 8503,
      "##mudahan": 8504,
      "ring": 8505,
      "##akannya": 8506,
      "kepemilikan": 8507,
      "batak": 8508,
      "parup": 8509,
      "##egaraan": 8510,
      "emosional": 8511,
      "natural": 8512,
      "diingat": 8513,
      "##obrol": 8514,
      "ekonomis": 8515,
      "dipl": 8516,
      "wewenang": 8517,
      "##hlas": 8518,
      "ruko": 8519,
      "filip": 8520,
      "##ibu": 8521,
      "fotofoto": 8522,
      "aroma": 8523,
      "udang": 8524,
      "saudi": 8525,
      "##inggung": 8526,
      "##wil": 8527,
      "##ilasi": 8528,
      "samud": 8529,
      "timbulnya": 8530,
      "hektar": 8531,
      "menghal": 8532,
      "##endang": 8533,
      "##dis": 8534,
      "nanya": 8535,
      "##acak": 8536,
      "menatap": 8537,
      "##unjang": 8538,
      "krist": 8539,
      "bagikan": 8540,
      "periksa": 8541,
      "berpotensi": 8542,
      "public": 8543,
      "sinetron": 8544,
      "##ago": 8545,
      "adi": 8546,
      "##agar": 8547,
      "membicarakan": 8548,
      "birokrasi": 8549,
      "diawali": 8550,
      "bernilai": 8551,
      "##itt": 8552,
      "dijumpai": 8553,
      "##terima": 8554,
      "serial": 8555,
      "xia": 8556,
      "lamanya": 8557,
      "ven": 8558,
      "eksk": 8559,
      "##alikali": 8560,
      "##unculan": 8561,
      "sofa": 8562,
      "iran": 8563,
      "##isahan": 8564,
      "seluas": 8565,
      "##come": 8566,
      "self": 8567,
      "kemanusiaan": 8568,
      "pengem": 8569,
      "soeh": 8570,
      "##kalau": 8571,
      "##tact": 8572,
      "##awati": 8573,
      "sepi": 8574,
      "tul": 8575,
      "bermasalah": 8576,
      "diolah": 8577,
      "terdahulu": 8578,
      "dusun": 8579,
      "klasi": 8580,
      "##osof": 8581,
      "doc": 8582,
      "##for": 8583,
      "portug": 8584,
      "##andakan": 8585,
      "##agon": 8586,
      "road": 8587,
      "##mark": 8588,
      "ejak": 8589,
      "##ilat": 8590,
      "english": 8591,
      "lelang": 8592,
      "terbilang": 8593,
      "mega": 8594,
      "##ontak": 8595,
      "dominan": 8596,
      "sumur": 8597,
      "bandingkan": 8598,
      "alur": 8599,
      "kegunaan": 8600,
      "berawal": 8601,
      "bengkulu": 8602,
      "mn": 8603,
      "kepadamu": 8604,
      "rh": 8605,
      "mampir": 8606,
      "caracara": 8607,
      "##esel": 8608,
      "##evaluasi": 8609,
      "akhirat": 8610,
      "ace": 8611,
      "sales": 8612,
      "komer": 8613,
      "sok": 8614,
      "##fungsi": 8615,
      "idul": 8616,
      "jaj": 8617,
      "langka": 8618,
      "##emani": 8619,
      "##rumah": 8620,
      "big": 8621,
      "##ping": 8622,
      "anggur": 8623,
      "diselesaikan": 8624,
      "solid": 8625,
      "##entase": 8626,
      "##aduan": 8627,
      "sipilis": 8628,
      "param": 8629,
      "melepas": 8630,
      "1500": 8631,
      "mendownload": 8632,
      "##sumber": 8633,
      "##pool": 8634,
      "pengu": 8635,
      "##angganan": 8636,
      "##rim": 8637,
      "studio": 8638,
      "tembok": 8639,
      "nab": 8640,
      "menghormati": 8641,
      "##ega": 8642,
      "madura": 8643,
      "##makan": 8644,
      "tafsir": 8645,
      "terjemahan": 8646,
      "##niat": 8647,
      "diukur": 8648,
      "sdn": 8649,
      "##ampai": 8650,
      "rw": 8651,
      "pangkal": 8652,
      "mempers": 8653,
      "melupakan": 8654,
      "##orth": 8655,
      "dicer": 8656,
      "##tiap": 8657,
      "##dir": 8658,
      "##empurnaan": 8659,
      "dealer": 8660,
      "##tengah": 8661,
      "ditempuh": 8662,
      "tn": 8663,
      "##lima": 8664,
      "tawar": 8665,
      "that": 8666,
      "##afal": 8667,
      "error": 8668,
      "memunc": 8669,
      "menjalin": 8670,
      "asupan": 8671,
      "##ohidrat": 8672,
      "observasi": 8673,
      "reserv": 8674,
      "##alaikum": 8675,
      "pokoknya": 8676,
      "##ukiman": 8677,
      "cerpen": 8678,
      "##abaran": 8679,
      "lezat": 8680,
      "##amankan": 8681,
      "##alamu": 8682,
      "zoom": 8683,
      "seolaholah": 8684,
      "ever": 8685,
      "eksekutif": 8686,
      "ana": 8687,
      "##2009": 8688,
      "##amuk": 8689,
      "individual": 8690,
      "##old": 8691,
      "fan": 8692,
      "berkelanjutan": 8693,
      "##ajibkan": 8694,
      "##gasi": 8695,
      "##panjang": 8696,
      "sediakan": 8697,
      "rinci": 8698,
      "##sium": 8699,
      "diriku": 8700,
      "filter": 8701,
      "membac": 8702,
      "##otivasi": 8703,
      "andi": 8704,
      "alas": 8705,
      "cover": 8706,
      "hitung": 8707,
      "##landia": 8708,
      "##idat": 8709,
      "##ander": 8710,
      "hawa": 8711,
      "gon": 8712,
      "simple": 8713,
      "konser": 8714,
      "##olo": 8715,
      "dikuasai": 8716,
      "dub": 8717,
      "penanaman": 8718,
      "##kripsikan": 8719,
      "jabar": 8720,
      "##iting": 8721,
      "namanama": 8722,
      "menyerupai": 8723,
      "pengisian": 8724,
      "cuman": 8725,
      "restaurant": 8726,
      "dpt": 8727,
      "##ories": 8728,
      "temannya": 8729,
      "##met": 8730,
      "jalannya": 8731,
      "##yaw": 8732,
      "cint": 8733,
      "terendah": 8734,
      "angel": 8735,
      "menjanjikan": 8736,
      "isa": 8737,
      "usahakan": 8738,
      "energ": 8739,
      "samar": 8740,
      "##prinsip": 8741,
      "asas": 8742,
      "haruslah": 8743,
      "valid": 8744,
      "##muat": 8745,
      "regional": 8746,
      "berhadapan": 8747,
      "diperiksa": 8748,
      "sepakat": 8749,
      "pack": 8750,
      "mengag": 8751,
      "infonya": 8752,
      "melayu": 8753,
      "stop": 8754,
      "pelet": 8755,
      "wik": 8756,
      "bersabda": 8757,
      "54": 8758,
      "alokasi": 8759,
      "drive": 8760,
      "senilai": 8761,
      "kapsul": 8762,
      "miss": 8763,
      "bann": 8764,
      "low": 8765,
      "andalan": 8766,
      "##siapa": 8767,
      "##utu": 8768,
      "sug": 8769,
      "berputar": 8770,
      "award": 8771,
      "ejakulasi": 8772,
      "##67": 8773,
      "taw": 8774,
      "##agan": 8775,
      "ann": 8776,
      "##ampau": 8777,
      "abis": 8778,
      "opini": 8779,
      "persegi": 8780,
      "##cs": 8781,
      "##olisme": 8782,
      "##bon": 8783,
      "shall": 8784,
      "anus": 8785,
      "terkejut": 8786,
      "bersem": 8787,
      "paruparu": 8788,
      "depannya": 8789,
      "god": 8790,
      "school": 8791,
      "##ando": 8792,
      "hama": 8793,
      "driver": 8794,
      "memerintahkan": 8795,
      "meyakinkan": 8796,
      "##ebus": 8797,
      "pengumpulan": 8798,
      "must": 8799,
      "episode": 8800,
      "karawang": 8801,
      "balikpapan": 8802,
      "bagianbagian": 8803,
      "ibrahim": 8804,
      "java": 8805,
      "mual": 8806,
      "konon": 8807,
      "##bs": 8808,
      "host": 8809,
      "prab": 8810,
      "##kita": 8811,
      "berlalu": 8812,
      "mond": 8813,
      "pemecahan": 8814,
      "##yaho": 8815,
      "tap": 8816,
      "commun": 8817,
      "raden": 8818,
      "tenda": 8819,
      "kalender": 8820,
      "press": 8821,
      "nikmati": 8822,
      "porsi": 8823,
      "menab": 8824,
      "klasifikasi": 8825,
      "atasan": 8826,
      "bersumber": 8827,
      "tercantum": 8828,
      "##usuk": 8829,
      "others": 8830,
      "##09": 8831,
      "liber": 8832,
      "cond": 8833,
      "respond": 8834,
      "##des": 8835,
      "konferensi": 8836,
      "##infeksi": 8837,
      "ahok": 8838,
      "##antap": 8839,
      "rental": 8840,
      "##ahh": 8841,
      "debu": 8842,
      "fiq": 8843,
      "membela": 8844,
      "komik": 8845,
      "membant": 8846,
      "menunjuk": 8847,
      "berlari": 8848,
      "produktivitas": 8849,
      "##yai": 8850,
      "demokrat": 8851,
      "dikasih": 8852,
      "gerbang": 8853,
      "##kg": 8854,
      "cafe": 8855,
      "##abar": 8856,
      "52": 8857,
      "vert": 8858,
      "offic": 8859,
      "cend": 8860,
      "spesialis": 8861,
      "menggel": 8862,
      "##perusahaan": 8863,
      "##otek": 8864,
      "pendirian": 8865,
      "membatasi": 8866,
      "orgas": 8867,
      "style": 8868,
      "jadilah": 8869,
      "berkons": 8870,
      "karbohidrat": 8871,
      "masuknya": 8872,
      "berpindah": 8873,
      "dibiarkan": 8874,
      "##adaannya": 8875,
      "islami": 8876,
      "##arung": 8877,
      "mencium": 8878,
      "human": 8879,
      "cut": 8880,
      "jualan": 8881,
      "##jian": 8882,
      "##pemb": 8883,
      "bertahap": 8884,
      "ditangani": 8885,
      "tanyakan": 8886,
      "formula": 8887,
      "##peny": 8888,
      "##iasan": 8889,
      "##enuhan": 8890,
      "hukumnya": 8891,
      "memeluk": 8892,
      "##elam": 8893,
      "mengancam": 8894,
      "direncanakan": 8895,
      "##kol": 8896,
      "partikel": 8897,
      "pra": 8898,
      "kamipasang": 8899,
      "##spirasi": 8900,
      "iri": 8901,
      "ajukan": 8902,
      "berniat": 8903,
      "coun": 8904,
      "##act": 8905,
      "kedelai": 8906,
      "##play": 8907,
      "sirkulasi": 8908,
      "##ating": 8909,
      "resid": 8910,
      "eff": 8911,
      "sebutkan": 8912,
      "sekunder": 8913,
      "##mal": 8914,
      "rud": 8915,
      "banyu": 8916,
      "##nologi": 8917,
      "bakso": 8918,
      "lest": 8919,
      "kalori": 8920,
      "satelit": 8921,
      "##egiatan": 8922,
      "kategorialat": 8923,
      "kepalanya": 8924,
      "nk": 8925,
      "diyakini": 8926,
      "linkperaturan": 8927,
      "##angkali": 8928,
      "##ansir": 8929,
      "##eline": 8930,
      "ditarik": 8931,
      "ketinggalan": 8932,
      "diman": 8933,
      "kental": 8934,
      "sifatsifat": 8935,
      "gamis": 8936,
      "macammacam": 8937,
      "palest": 8938,
      "bukunya": 8939,
      "soeharto": 8940,
      "text": 8941,
      "surakarta": 8942,
      "terikat": 8943,
      "percakapan": 8944,
      "keset": 8945,
      "##itahukan": 8946,
      "sq": 8947,
      "##atalkan": 8948,
      "berbahan": 8949,
      "tanggabisnis": 8950,
      "##entak": 8951,
      "mudahmudahan": 8952,
      "fleksi": 8953,
      "lee": 8954,
      "ato": 8955,
      "kenari": 8956,
      "hen": 8957,
      "##anjakan": 8958,
      "##operasikan": 8959,
      "diperbolehkan": 8960,
      "tegak": 8961,
      "polit": 8962,
      "terlengkap": 8963,
      "kayaknya": 8964,
      "##sional": 8965,
      "tinggalkan": 8966,
      "##itaan": 8967,
      "pesiar": 8968,
      "biod": 8969,
      "##oan": 8970,
      "pacaran": 8971,
      "sensasi": 8972,
      "tikus": 8973,
      "pendiri": 8974,
      "##osistem": 8975,
      "tidaknya": 8976,
      "ster": 8977,
      "##yn": 8978,
      "##agara": 8979,
      "sensitif": 8980,
      "player": 8981,
      "pisau": 8982,
      "jamaah": 8983,
      "berenang": 8984,
      "telapak": 8985,
      "iblis": 8986,
      "mark": 8987,
      "asumsi": 8988,
      "teliti": 8989,
      "tuntas": 8990,
      "padamu": 8991,
      "thn": 8992,
      "##ulin": 8993,
      "menembus": 8994,
      "traf": 8995,
      "filosof": 8996,
      "musa": 8997,
      "##audara": 8998,
      "salahnya": 8999,
      "wacana": 9000,
      "##gambar": 9001,
      "##aduk": 9002,
      "fc": 9003,
      "jt": 9004,
      "legisl": 9005,
      "lebah": 9006,
      "##estik": 9007,
      "##jubkan": 9008,
      "sponsor": 9009,
      "bersalah": 9010,
      "laju": 9011,
      "diminati": 9012,
      "##perimen": 9013,
      "berlokasi": 9014,
      "bayangan": 9015,
      "cep": 9016,
      "sendirinya": 9017,
      "elegan": 9018,
      "pertolongan": 9019,
      "kid": 9020,
      "kogn": 9021,
      "manapun": 9022,
      "##astian": 9023,
      "gresik": 9024,
      "##andar": 9025,
      "menumbuhkan": 9026,
      "lumpur": 9027,
      "##teriak": 9028,
      "assist": 9029,
      "peb": 9030,
      "##buahan": 9031,
      "memohon": 9032,
      "##ayasa": 9033,
      "deskripsi": 9034,
      "hart": 9035,
      "sopan": 9036,
      "##89": 9037,
      "viv": 9038,
      "seluruhnya": 9039,
      "organisme": 9040,
      "##edak": 9041,
      "stadium": 9042,
      "konsultan": 9043,
      "keringat": 9044,
[...]
