[PAD]
[UNK]
[CLS]
[SEP]
[MASK]
##an
d
##er
m
##en
s
p
##ar
b
k
##at
##ang
##in
t
##ak
##al
##ah
##as
##un
##am
##em
di
##ya
##el
##ad
##eng
y
##kan
##tu
yang
se
##ap
##is
l
##ik
h
dan
j
ke
##il
men
##on
##it
in
ber
##us
##ga
##or
##es
ter
##ing
r
##nya
##ur
##akan
mem
c
per
##ut
##id
##ari
##ul
##um
n
##ada
##uk
##ek
##ir
##ol
##ih
##engan
##ung
##eb
un
dengan
meng
##tuk
##ag
g
##et
##ara
##and
##ti
##au
i
untuk
##asi
ini
##alam
##ai
##im
##ba
pen
dari
##ud
w
##om
##ia
##alah
##ab
##ot
##si
##aj
f
2
##up
1
dalam
pr
tid
##bu
##ama
at
##ok
tidak
ad
##ian
##aw
##ain
##anya
##per
pada
pem
##aya
##adi
##aku
mer
##apat
##ed
##eh
##amp
and
itu
##ay
##angan
mas
##ant
##atan
##os
##uh
anda
peng
mel
bis
##ep
akan
##eg
##ita
##ent
adalah
##ta
kar
sel
atau
##ber
##aan
##orang
ju
##od
sem
20
bisa
##baga
bah
##apa
##atu
menj
har
dapat
##wa
##ter
ada
##ac
##oleh
##end
##ali
##ena
kam
##og
##ata
sek
juga
##yak
##amb
##tr
##bagai
##udah
##ana
##ua
##ati
##agi
##ika
##ebih
kem
##asa
al
##ub
##aran
tah
##ip
ind
##seb
ban
##elah
saya
ser
karena
##lah
oleh
meny
##ikan
lebih
##angg
##ob
kita
##alu
##sebut
##angk
an
##isi
##ong
##emp
##uan
ak
v
##api
##itu
orang
##ukan
menjadi
##aat
##ib
##inya
ker
kep
201
kel
sebagai
##00
##akukan
lain
##op
seb
bar
mak
##ahan
##eka
##gun
a
bel
##ja
tersebut
ba
kon
sudah
memb
mend
tahun
##gi
ag
##alan
##ilik
mereka
dis
hal
ap
banyak
##perti
##aja
##ones
##ingk
##angat
##cara
##iri
##oh
pas
dil
satu
3
##ew
indones
ya
kal
##ungan
kes
pend
##asil
##itas
##uj
as
seperti
##emb
##asan
pel
##af
indonesia
##ri
man
ar
aku
saat
##buat
##anj
harus
##ow
sangat
menc
kom
bahwa
##iliki
##ihat
dik
##ist
pert
##ind
sed
kami
##gunakan
##ingga
##aman
tr
##int
##uar
##orm
##unya
su
##esar
set
##usah
beb
ses
seh
##uran
jika
secara
pemb
##ic
baik
memiliki
hanya
“
##ec
berk
ket
bi
dit
telah
##yar
tent
cara
##empat
si
bers
ben
tet
##ungk
##ala
##ota
tan
dia
##angs
semua
ing
tak
dim
maka
##entu
samp
e
is
mengh
neg
saja
##arkan
bu
##erapa
terb
##upakan
para
kec
##apan
membuat
apa
beberapa
##ini
##angkan
so
##ikut
inf
##aks
dip
bagi
bag
st
berb
nam
4
rum
member
##buh
harga
hari
merupakan
##anan
##ingg
res
##imp
o
##ikasi
terl
wak
tentang
##onal
5
masih
terj
besar
mau
lagi
ant
ku
19
salah
tu
##oduk
sej
mul
dib
##uka
##idup
##arang
anak
##usia
##akar
##ilih
baru
atas
um
keb
##ulan
##hir
##tor
ia
rumah
namun
setelah
yaitu
##ine
##pun
kh
kepada
ked
##ku
##ingkat
min
pers
sp
gr
##akat
melakukan
##ont
##ungkin
##unj
peny
tapi
send
sep
jadi
##tif
memper
menggunakan
##if
dilakukan
##art
##buah
##had
##mas
##ingan
da
##engk
sehingga
waktu
200
pes
u
on
##na
sebuah
sampai
kerja
##ima
##otel
produk
##ahkan
–
sama
serta
0
##mu
seti
th
##ov
##pr
kamu
##olah
##epat
tim
ek
sesu
air
tempat
##tuh
##uhan
kr
dir
re
makan
des
ch
mus
ga
##baik
##apkan
terd
##angun
mes
bukan
##pa
bert
sen
##anc
sendiri
pal
##yarakat
##arah
bl
perl
jaw
##ting
##elum
kons
##oc
berd
pol
##annya
pern
setiap
masyarakat
##ra
##unia
hotel
pak
mendapat
##eri
ob
sebelum
ingin
hasil
##ila
did
diper
pul
##ongan
##ensi
or
##ungg
##ui
##gan
pun
sur
kas
##ormasi
war
kl
agar
##erah
##atakan
sm
##ual
berh
kur
mod
komp
pemer
##eker
bagian
##le
##angsung
pros
dunia
##ajar
seorang
terjadi
pos
kalau
rp
ul
sh
##edia
##akarta
##line
6
suatu
##era
seg
terk
##hadap
tel
inter
berm
##ans
##ampil
ut
terhadap
##imana
lainnya
##tus
am
##est
##iv
##etah
kota
ac
berbagai
lalu
##ch
##tar
ti
kali
##enis
##olog
ng
##tur
tetapi
##awan
ketika
##elas
##udian
##uru
antara
##idikan
##iran
mungkin
kab
tek
##ilai
memberikan
dem
z
keluar
perm
##urut
##iswa
ken
belum
##atang
kata
dua
online
negara
##ej
manusia
##ukup
alam
hidup
kemb
sum
berl
mulai
##aikan
ay
##of
##ekat
jakarta
##esi
7
##ogr
kemudian
informasi
sekali
##inggi
keh
##alis
##istem
##ulu
##alui
##usahaan
##ulis
##ambil
##umlah
##butuh
##omp
memp
tem
proses
##anjut
pendidikan
##usaha
ab
##ulit
tanpa
##arnya
##inta
mar
melalui
mat
paling
nama
berikut
pemerint
##nis
pl
tinggi
##alnya
daerah
##ani
##und
melihat
il
cukup
akhir
##lam
jam
langsung
buk
##ori
memang
##eda
hingga
##ij
perlu
pertama
sistem
dep
##inan
10
yg
perusahaan
##20
bahasa
diri
pernah
sekarang
##unt
##unc
##ig
selain
umum
mengen
art
kembali
berp
##re
##oto
im
##ajaran
##ilah
jenis
allah
##st
##enc
##antu
8
ters
fil
la
kat
##ina
##uas
##akah
mah
selama
##uc
mendapatkan
##usus
angg
digunakan
##uruh
mudah
##ni
##oba
sesuai
##faat
##akin
memba
mur
##ode
dij
perk
ny
jalan
##ons
##engah
##ump
##utan
##eksi
br
##angka
##ologi
masuk
masalah
##com
menurut
##asional
tangg
##aian
selalu
baw
##inggal
band
sy
bahkan
##itar
situ
baga
##asanya
##ukum
em
bulan
##atif
tubuh
wis
##imb
##tikan
sedang
tetap
##ide
str
##aru
##anda
bahan
##awat
##atis
intern
benar
put
kegi
terbaik
jangan
aw
kegiatan
mis
##ny
me
##li
met
##obil
##000
##ers
##any
kecil
##ca
khusus
##tim
##oy
##anjang
sekolah
lap
##owongan
##asar
wan
sal
##di
islam
##ort
##elit
##ola
beg
##aki
9
##aftar
tekn
pemerintah
##ogram
kedua
ik
##jalan
##atkan
##ontoh
sering
hukum
dih
##sa
sup
##gas
masa
maupun
luar
##ami
no
mobil
##ampu
pet
##aknya
tahu
##aksan
##uang
bentuk
q
kor
##ember
penting
tuj
te
##usi
##yakit
##ubungan
up
##upa
pt
##atas
bagaimana
##ail
cer
2013
dekat
x
wanita
gun
##tiv
obat
penc
##erb
par
belajar
##engar
##aksi
##udi
lay
en
##ev
##emukan
apakah
lok
##auh
menyeb
tok
keseh
bersama
terus
kek
gamb
sekitar
##gr
ri
penj
kan
##atur
##itik
kau
makanan
##lo
##ihan
uj
pilih
guru
##ait
##enal
barang
kesehatan
##ond
##urun
din
buat
seluruh
15
diber
cepat
##etahui
tert
begitu
penyakit
semakin
meningkat
##ustr
siswa
12
ot
##ikat
pan
lama
program
##uda
uang
pad
ef
jumlah
lowongan
##aten
##onom
##iaya
bisnis
contoh
##caya
trans
sk
tip
the
##yat
berada
##engg
data
##emen
dr
pus
perb
##irim
kap
##arik
##ungsi
##ainan
lem
mengg
##ungi
ma
##alaman
##ilan
lingk
eks
jawab
##agian
suk
##uhi
bay
kond
##usan
##engkap
##likasi
biasanya
##idang
pembel
terp
##masuk
##lan
##asarkan
##av
mener
bal
sil
us
##ses
##ug
sak
##uli
##man
fak
adanya
tujuan
##bab
mal
membantu
ilmu
kurang
##ekerja
##embangan
##ukkan
##unyai
usaha
bila
sosi
##acam
ibu
el
##ikian
jawa
##ubah
##ro
foto
kamar
##otor
##apai
##ki
alat
mempunyai
##fat
##ns
##mi
disebut
##ef
##adan
mampu
##ard
termasuk
##omb
situs
blog
##utus
mengenai
##angkat
pe
datang
##upaten
##ikir
sejak
sumber
dic
bur
bawah
murah
organ
mencari
##uangan
nya
##ma
daftar
tanggal
##angi
ger
11
terbaru
##ompok
of
bank
##angunan
jar
pih
punya
tangan
bat
kej
##ikit
##ambah
jelas
penelit
ah
##me
sebelumnya
waj
kabupaten
terdapat
##one
##abkan
keluarga
web
mengatakan
##entuk
2014
##istr
demikian
##isasi
wil
##alami
barat
penggun
##anti
bud
ok
mana
gambar
##ess
##ampilkan
ib
nom
##ea
kol
sedikit
##apun
biaya
mata
##akhir
had
tanah
biasa
wal
##erta
##ayah
uk
tengah
lihat
ins
nilai
##etak
mengan
##ash
kepala
##ban
tingkat
lingkungan
##ekerj
##insi
##ilang
kondisi
ka
##12
##ord
prof
##alitas
##lik
##min
kelas
pasti
akhirnya
dok
berbeda
##antai
##edi
kehidup
negeri
##war
##ern
dasar
##ohon
gam
pengh
diba
tentu
##unga
##uter
permainan
rasa
kulit
sedangkan
malam
berdasarkan
depan
##adaan
##eli
kebutuh
wisata
tiga
anggota
to
##10
buku
jauh
bekerja
##ikel
##ulkan
18
tepat
##ger
##angga
na
##own
##uduk
##entara
pihak
##tul
gratis
##ajak
keter
memilih
##ibat
dulu
##ack
bum
tuhan
sakit
kehidupan
bidang
kebutuhan
utama
##uta
sosial
merasa
##agu
##ikm
dimana
##teri
##ite
mo
er
##unan
hati
badan
##tup
rep
##gris
##araan
##ukul
##butuhkan
timur
##akai
inggris
2015
efek
##anfaat
sat
sementara
##tian
##amin
gu
nasional
nomor
##to
##ly
##ampuan
menarik
menunj
meningkatkan
##onomi
penelitian
##iden
##entukan
dah
agama
##ampak
##anding
2012
perh
bagus
##ili
buah
pemain
mengalami
##osi
kelompok
##ore
media
hubungan
mesin
##uman
bak
karya
hak
beli
warna
##wan
##ikuti
##ci
op
bermain
14
13
memas
misalnya
##aris
pin
##antung
##eks
fr
sebagian
##asaan
kasih
aplikasi
##ate
##aca
##aga
awal
pekerj
##nyata
##aranya
##arti
##eorang
tum
wilayah
desa
kemampuan
##umen
seben
pula
##ph
ulasan
sol
199
##angkah
##ubahan
komun
##ook
say
##lim
##uni
pekerjaan
part
ternyata
sesuatu
model
keber
rek
##amu
tinggal
##uri
seseorang
kant
tar
pria
ram
dew
cp
li
##aksanakan
terlalu
surat
##angsa
lah
sebaga
sub
beras
##load
##amat
pok
berat
segera
##abat
motor
tertentu
##aud
##ult
jual
berarti
##embang
##ula
16
mencapai
kad
darah
##ukung
dig
pukul
##yah
##aju
jasa
pusat
##men
##isik
##buhan
mengetahui
panjang
25
sebenarnya
##oga
##ink
perubahan
semp
teknologi
masing
artikel
be
bek
##toran
cal
pasar
tab
##ver
lakukan
sebab
tugas
oper
‘
##abila
judi
ped
ekonomi
mand
gen
rak
menemukan
tik
pember
internet
ko
sah
terlihat
##0000
munc
film
berj
##anyaan
cat
##imal
aja
##enang
keku
gel
##th
warga
orangorang
##uanya
##ira
pand
##asiswa
pembelajaran
pres
##tum
##ity
siap
diter
17
yak
##amatan
##fer
##aturan
##inggu
##11
gak
##buatan
##tuj
muncul
sd
kont
soal
apabila
trad
sar
##lukan
##ingin
batu
##utama
daya
kalian
iklan
suka
##asilkan
##ampilan
##iz
kay
selatan
##pl
##ast
##akt
pilihan
ruang
segala
##ambut
id
berhasil
##atikan
bola
##ampir
komputer
##ust
##wah
pot
maks
cpns
peserta
jep
restoran
tulis
gol
##ry
##asikan
##anjutnya
2016
fungsi
##ill
kuat
##isan
##13
pertanyaan
siapa
acara
belak
for
sw
memberi
##etahuan
##co
kualitas
ur
##ker
lengkap
##edit
30
tidur
pelay
##alahan
kini
go
##enda
sin
##tua
anakan
##ha
le
##ainkan
kantor
##eran
##ator
bandung
##udara
sab
terg
kasus
##urkan
terutama
##uti
rel
##ura
yakni
sini
##antan
manfaat
sejarah
tamb
amer
diberikan
##ender
##15
tua
de
kend
akibat
##ulai
##ens
fl
##ownload
posisi
und
lokasi
toko
##urn
stand
pengetahuan
ukuran
##atian
ham
disini
##erita
teman
ikan
materi
info
menyebabkan
lat
sam
bantu
menu
##umsi
##oran
bayi
sus
sik
##arga
layanan
vide
##jek
mengambil
juta
cerita
##tp
macam
jl
kontr
##empatan
##asih
selanjutnya
bangsa
mu
menerima
pener
##estasi
menunjukkan
##rasi
##uari
ver
##endah
##isme
##iter
##unggu
boleh
##askan
perkembangan
##eck
km
es
agus
##ivers
2011
##masing
kand
int
##ase
terakhir
ex
cinta
semoga
pemba
##ateg
ps
faktor
perjalan
##awasan
luas
memen
dibuat
politik
bern
det
24
##ungguh
kalo
putih
##ediakan
##baya
masingmasing
##alkan
##anggap
ii
##abi
##irkan
berjalan
##da
##empuan
suara
metode
it
dirinya
aman
mad
sehat
##impin
##arian
manaj
bet
pat
terc
organisasi
new
##ipt
##enaga
##ayaan
##aha
berasal
bang
ist
##kah
med
##su
##ikiran
menyel
jan
lanjut
desain
##asia
klik
ph
##ation
video
muda
univers
minggu
##mad
##uma
anakanak
pop
##itif
##all
»
mahasiswa
rat
##tivitas
perempuan
hit
sang
##asakan
amerika
perjalanan
pelayanan
form
##ungkan
berupa
budaya
##inasi
jer
##ipun
tiket
keadaan
100
mengel
##entar
walau
##ublik
##erh
wajah
##ket
##ben
pembangunan
##ht
##30
langkah
log
##atasi
##antik
tind
terkait
08
do
muslim
laut
mengk
aktif
terdiri
terima
##isah
##esan
tips
dikenal
seri
jepang
nah
##sel
##19
alami
jaringan
bin
##ocok
##..
##unjung
##dung
kartu
pajak
##ey
prov
tenaga
dibanding
##elaskan
gl
perd
membaca
menit
usia
penger
istr
rem
ikut
pergi
##kipun
pendapat
rah
2010
##ifikasi
##alik
##uju
rakyat
##erang
keuangan
jat
inv
po
sebesar
industr
teg
belakang
##oll
##embangkan
coba
##ahami
##gn
kak
produksi
nov
prib
##utusan
##olong
ir
meninggal
penggunaan
##get
##res
##ulang
hampir
kamp
konsep
mencoba
merah
mati
ayat
meskipun
tentunya
agen
pengalaman
##no
##sp
dana
##aruh
presiden
##ongk
##ell
calon
menger
penuh
##tut
memer
umumnya
bo
ev
membawa
dokter
##enter
lagu
kateg
##50
##aft
##ulasi
##gak
##atih
teknik
mengikuti
menuju
##apus
##ekan
##ho
23
sulit
bumi
22
simp
##ment
##itan
##ji
ro
sis
naik
##14
berf
stu
##uler
penyeb
##pek
agustus
mew
##aksanaan
##anyak
tanaman
##akter
keti
strateg
membutuhkan
pesawat
cl
##aksud
##iner
angka
diatas
penulis
##anggung
ni
diant
industri
##benar
sura
##han
##...
##percaya
webs
kaki
itulah
##pada
##untungan
lew
inilah
kesempatan
##andingan
##itkan
##alat
yo
##aka
alamat
alasan
##inj
##sh
##ahal
mengur
inst
menghad
##adian
##apak
ide
##omo
menghasilkan
sih
prakt
bunga
pengel
##ank
menulis
indah
email
download
benarbenar
profesi
##ass
pu
##ergi
check
##osa
bab
resmi
pulau
##kannya
##asis
##encana
gad
artinya
panas
he
bb
sifat
dar
##sifat
surabaya
membeli
paket
##emat
gar
fasil
musik
##port
rambut
##ome
##ingat
##phone
tersedia
bus
game
empat
bali
##abis
membuka
##agam
berkembang
##ingkatan
##alagi
##amanan
silahkan
##asama
##ebr
pro
utara
##16
##sur
unit
pribadi
rendah
jad
##hal
perj
pendek
et
car
nanti
tes
pasangan
website
cocok
menjalan
##age
lemb
##adang
”
dom
##ie
##18
pelangg
bermanfaat
pasal
olah
disk
pesan
apr
##hl
ataupun
##asaran
tradisi
##awa
turun
##itab
standar
baca
kalim
##anyakan
##ujud
##gab
arah
##ice
admin
##usnya
2009
fac
kekuatan
sambil
sejumlah
muh
menjaga
##ubungi
##emu
##inc
ayam
peraturan
##ino
keras
apalagi
tau
dapatkan
leb
##awab
reg
ht
##uktur
kebij
ras
##utkan
##iptakan
##iti
##edaan
##ve
by
##ansi
sebagaimana
kok
minyak
pengembangan
co
hp
manajemen
maj
##angnya
objek
dahulu
juli
aj
##asang
nggak
karakter
ketua
tot
##tinya
sisi
kenapa
yah
##itur
##awarkan
##iku
norm
sl
seks
pelaksanaan
##enangan
##atnya
sebaik
##uku
udah
fasilitas
##ester
berita
##ambahkan
provinsi
dimaksud
mengandung
lewat
yog
percaya
menyediakan
##let
ji
##taf
sukses
mil
##ps
memenuhi
kompet
##ark
asal
##iks
gunakan
ayah
post
##ebook
kayu
dl
nas
##arapkan
ed
sept
asli
bes
kecamatan
##tion
banget
##ida
cantik
##utar
lembaga
bebas
##iah
##rip
##ote
##encan
lahir
##istrik
##wal
##out
jawaban
penyel
##gerak
##ikmati
##raga
juni
##eter
menyatakan
##gaw
##ost
ditemukan
##yataan
##45
mb
seni
cari
keuntungan
dag
##auan
vi
pagi
link
mit
##uny
##ainya
sof
##engaruhi
menentukan
sc
perbedaan
angk
##ukaan
lo
##udul
##ahaya
september
##uki
udara
keputusan
seles
saw
smp
wib
com
##obatan
##tulis
padahal
listrik
ki
##wak
bir
saling
lima
berg
komunikasi
ketiga
##ampaikan
##oda
top
pasi
##iman
##epas
##ish
modal
diketahui
pantai
##ibatkan
membangun
ca
##bar
lak
pembuatan
##ewan
dilihat
sebanyak
cr
raya
##adah
gaya
##inal
akses
pelajaran
mon
##uarkan
tas
baju
##ihkan
sederh
ribu
bersifat
pi
cuma
##awaran
studi
wah
198
sehari
##awatan
ged
diperlukan
hij
##istik
##alisasi
##ert
universitas
non
upaya
dianggap
##roid
sikap
##ebihan
##eman
bantuan
##etapkan
ta
tampilkan
partai
musim
##por
ali
bangunan
##ela
aktivitas
terlebih
wisat
isi
kp
kebijakan
walaupun
penduduk
milik
pengertian
burung
menya
daun
cab
##vis
##17
tindakan
##arif
sma
diseb
kemungkin
mir
pengguna
##pen
##gus
ang
mei
memperoleh
yes
##eta
analis
##entuan
pertum
##arap
fisik
##usun
semuanya
gag
##ono
##ektr
##ambat
##yakar
berubah
##urus
wajib
menjelaskan
50
stat
##tober
bul
mengapa
##tugas
hid
penyebab
sederhana
menurun
##adar
##hari
selamat
##qu
##tern
wisatawan
khususnya
nabi
katanya
##onton
tumbuh
sana
##usak
##ajari
perangkat
gunung
nyaman
con
##ach
berlaku
dijual
istri
sul
jum
berusaha
##orong
bas
hewan
operasi
pemerintahan
##unci
kun
##bum
kode
pah
##icara
##emuan
pay
ol
total
poker
tambahan
##isten
##ganti
android
kemungkinan
##are
mendukung
kapal
##ex
##ivid
##olak
maret
pm
ulang
##ullah
meski
dibandingkan
selesai
##isk
ahli
kew
hitam
muham
memahami
##ilangan
##ock
##ows
dibawah
##isti
tulisan
##ikah
##hatikan
jal
kim
dpr
ha
##ital
tekan
##25
supaya
tadi
kop
##unjungi
##vi
27
resep
dipakai
jab
##enj
dilaksanakan
korban
pp
##epatan
spes
##egah
perc
mengaku
##insip
kerj
mengatasi
##ukur
pakai
april
##asinya
pertumbuhan
##yarat
meminta
28
##rik
bersih
bint
##osis
energi
anti
may
file
##alian
##imak
halaman
pertandingan
tanda
gej
berc
laporan
##amanya
dewasa
##za
gi
pakaian
dinas
tahap
sekaligus
duduk
bib
pasang
olahraga
kos
##anja
hadir
internasional
##adinya
positif
pap
memakai
##erv
apapun
demi
##tra
individ
lupa
ent
##aitan
kaum
hi
af
21
##ce
##ona
sebaiknya
gue
##erbal
unik
temp
##ilaku
##iksi
kanker
lib
kot
bergerak
kesel
##unuh
##ikin
melaksanakan
##ork
##ware
raja
##erasi
api
terh
tokoh
elektr
perp
##anfaatkan
hend
##adakan
pengaruh
menang
dat
berlangsung
##adikan
kendaraan
terkenal
##ualan
##obat
arti
##ganya
antar
efektif
komentar
##egang
vir
##aih
persen
hand
lel
mempr
kategori
berkata
##ulus
diharapkan
peta
##arakan
minum
kul
pola
##untut
tangga
##enti
26
##yakarta
##rah
##bi
gerakan
lab
tiap
malah
##opa
modern
tipe
rencana
##ewa
perhatian
##idik
bp
lar
##ement
peningkatan
##asilan
penilai
kawasan
smart
konsumen
berapa
peri
yesus
##itis
##200
versi
pemilih
staf
por
sing
berhubungan
suami
##adilan
del
pengg
sa
##jo
##isip
##bo
##ee
potensi
##rat
fitur
buruk
##alia
2008
##oni
bekas
teori
mengembangkan
bernama
##engkapnya
akun
40
##anian
##aftaran
menimb
##itung
mag
goog
##epon
##tifikasi
##yang
kre
mengak
melay
butuh
http
##okan
##lihat
gan
keraj
##edar
##impinan
##angund
trip
vari
spesi
saud
##uali
bon
umat
##hi
gas
##erd
kandungan
cew
##amaan
##arab
proy
##aji
tamu
##net
berpikir
yogyakarta
##uskan
dibutuhkan
rup
balik
amp
##bal
menteri
wh
##ng
peran
##ahas
ge
mengin
kunci
duk
oktober
prop
##indari
##impan
pasien
dikatakan
ujian
##gabung
##ham
##uga
##ret
disebabkan
##top
febr
desember
istilah
jiwa
##umpulan
distr
mengurangi
halhal
membentuk
super
##uf
##wi
main
##esu
pil
maaf
##angkap
terasa
##urangan
##ge
ment
penilaian
##oper
tampak
merek
tengg
was
namanya
sempat
##oma
##yaran
all
pant
melip
minim
serikat
##isa
taruhan
perang
##esaikan
lokal
pengobatan
##ion
gw
##unda
minta
tant
pintu
rasul
dijadikan
##andang
##tas
sir
##der
##onsumsi
##arin
dimulai
tv
##ahari
benda
lakil
##timb
terletak
pd
sud
##uksi
##ium
2018
##ajib
terbuka
##22
pa
pemimpin
kirim
fre
leg
asam
pendaftaran
takut
##amping
##ero
##ustru
hutan
##kir
pelanggan
herbal
menimbulkan
pemilik
menciptakan
alq
uc
samping
diberi
terbesar
##ower
soft
der
sunga
pk
bapak
titik
beliau
justru
qu
tata
strategi
profesional
##bul
dll
##ton
belanda
tradisional
daripada
cm
januari
##eja
area
ip
##oid
##40
##idak
##jid
menikmati
##omosi
zat
kredit
##ien
agak
sun
hamil
##abu
proyek
pohon
menyer
kanan
##entingan
pur
mor
##rib
struktur
mari
##oduksi
kapan
makin
gangg
pembayaran
menjadikan
sec
karyawan
facebook
##ros
lakilaki
jadwal
pikiran
home
hilang
matahari
##ram
##onen
jatuh
##inginan
bukti
penjualan
taman
def
##amar
ciri
tog
psik
pengunjung
peluang
29
penawaran
sip
direk
tergantung
##its
##unggulan
##idah
mengenal
pokok
prinsip
berdiri
##aksa
diam
google
##iring
dikel
kejadian
konf
##ampung
mohon
nih
pac
anggaran
##engkapi
didalam
##elasan
##bl
bilang
mengubah
kaya
maksud
malang
##intah
album
##istrasi
ketentuan
##visor
berkaitan
sepanjang
##60
emas
perawatan
##ith
##ayan
##ograf
##ajukan
##tujuan
au
cap
amb
##enakan
sungai
perilaku
jantung
november
khas
##ediksi
semangat
berfungsi
tw
menambah
asing
aturan
remaja
##ck
suh
sms
##urna
mandi
menambahkan
##ayakan
publik
cewek
keamanan
fir
kisah
##abil
individu
gejala
##alikan
aceh
otak
normal
berikan
eropa
pej
dimiliki
##ater
daging
yakin
##tivasi
merasakan
jalur
pegaw
meliputi
harapan
rut
##ilangkan
unsur
deh
pulang
pid
aspek
##ick
pab
kepad
bakal
##egara
penderita
diterima
huj
garis
##form
##ripsi
##ferensi
bikin
senang
tanya
latihan
##uluh
##pon
terjadinya
kiner
##edakan
syari
out
##ahun
judul
##inginkan
keper
##warna
##23
menunggu
sb
##ipta
mempengaruhi
##ilis
cor
wakil
camp
##irikan
menjual
comp
pegawai
mencegah
gangguan
##ungguhnya
polisi
##ikul
##indah
pec
perg
lu
##iko
##ungkinkan
##impi
satunya
kepentingan
##use
zaman
pelat
menjalankan
bertemu
berharap
##istiwa
##unjuk
sehar
arab
mendengar
dp
##cing
##uji
kerus
kimia
prod
35
kalangan
syarat
##ukai
##erbitkan
panc
##mat
pertanian
sayang
##ahat
##uliah
persi
hat
jarak
197
ho
cel
terpercaya
investasi
##oris
perasaan
populer
##elajari
##enangkan
disel
##anjutkan
##nur
sebagainya
umur
##arata
kebanyakan
##umb
susu
dap
gedung
radi
##antinya
kecuali
term
periode
##oritas
ingat
bog
mandiri
ruangan
pemilihan
semarang
alk
enak
transaksi
seharusnya
##ualitas
diperoleh
##okok
##ren
gadis
##atal
##put
##iksa
wind
bant
##elih
buka
eng
##ace
sepatu
pake
togel
mengatur
kut
hijau
berwarna
##kes
kinerja
##advisor
meninggalkan
disi
sant
diambil
luc
##evel
om
bergabung
menghadapi
temb
muhammad
tripadvisor
serv
##urat
her
tekanan
bintang
jok
banj
##ne
kitab
##uruan
lapangan
##uruf
cek
teb
spesifikasi
sebelah
2007
market
##yu
##angundang
tang
kesalahan
gigi
analisis
naf
##ahu
##eku
asia
komponen
hujan
pertemuan
kris
telepon
##akaan
maksimal
##iksaan
kecepatan
catatan
##24
##baiki
##anggu
net
sya
pencarian
mengeluarkan
##dul
kapas
##80
##tual
##ral
solusi
mic
glob
menjawab
off
permas
##ade
didik
##entasi
undangundang
sens
##urah
guna
mengirim
nasi
kuliah
kering
suku
##aluasi
meter
##ayat
##ukti
##arch
##bernur
##iling
kalah
ep
##jakan
peristiwa
peral
##atat
lahan
tampil
sahabat
penerb
##upati
pernik
pengirim
##nas
bos
den
bertanya
##sb
##agia
mulut
##27
lum
sempurna
semb
vol
tur
mempert
senin
berikutnya
medan
##una
berbicara
jumat
masjid
##oo
gubernur
hot
##emahan
penjelasan
##ect
##21
diantaranya
##ora
berisi
##pe
tampilan
##utuskan
keduanya
sarana
##arat
##set
republik
sesungguhnya
keinginan
selengkapnya
ratarata
mi
##mb
pikir
vit
##yo
memungkinkan
kemenangan
sim
pemberian
bogor
ujung
##uci
seng
habis
hadi
##etik
black
seper
kerusakan
jel
jarang
##te
you
pernikahan
##35
##usuri
mahal
februari
##mer
##amakan
huruf
biar
memerlukan
berkualitas
minimal
didapat
bupati
perbuatan
##yaratan
kompl
##onsel
perut
##fi
dukungan
##artemen
kari
kematian
tuk
nyata
mengingat
##lat
ref
##inf
kotak
##ka
sepeda
##tusi
##ras
menikah
berbagi
kehilangan
##unyi
dong
##inding
kalimat
fot
komunitas
timbul
dampak
siang
##do
##imu
perum
minuman
berhenti
pelatihan
tanggung
##oro
mik
penis
pemeriksaan
nus
##entang
##urusan
##utr
##atuan
##aring
##ood
##itor
batas
##land
memulai
menawarkan
usah
##abel
hasilnya
##olaan
##atera
lantai
##ehe
pelaku
menurunkan
red
kiri
##ankan
temant
batang
##andi
roh
saran
pam
oh
software
pandangan
kekurangan
teks
##kar
##ner
##aliknya
sepak
wa
##28
kelebihan
meja
keterangan
##ukuran
##fa
##ema
berper
infeksi
virus
hah
persyaratan
##ight
##akkan
demok
##fikasi
##anam
kebud
ringan
##onda
##intas
##tutup
##lus
##okus
ambil
tahan
melawan
##mp
menyelesaikan
##stem
##imaan
das
##esanan
##uat
kir
##wis
##orkan
mitra
kamera
##ular
##atangan
ponsel
bug
fa
##pir
jo
##truksi
##omba
tulang
##empatkan
status
45
singkat
lang
permukaan
mirip
##yum
60
bakar
korea
sas
sebaliknya
detail
situasi
kopi
tni
##her
distrib
putri
peralatan
pengelolaan
abad
##inter
telur
permasalahan
bod
##adem
##ebat
##uasai
gereja
tp
dos
laz
bangk
##guna
menghilangkan
##osok
lip
kekuasaan
##omatis
##ancis
rangka
##awar
##iliar
kebudayaan
##itasi
##nah
nil
gal
##olis
##kom
ditulis
generasi
aliran
kabar
##jaga
2000
##eed
##okasi
##26
nantinya
##tarik
lam
pengiriman
##opy
san
rasanya
makna
##ull
awalnya
bbm
korup
abu
smartphone
dingin
##intaan
melayani
##onik
aneh
kertas
##ajian
##ahter
ditetapkan
##enaran
##uasa
berbentuk
jabatan
##ungkapkan
##dr
menutup
##kin
pang
terbatas
penerimaan
dihad
keunggulan
kursi
mp
system
##view
adapun
akunt
saham
mengerti
##son
pabrik
terdekat
inn
##enya
##acara
tertarik
##awesi
optim
##ue
laptop
##ental
##itarnya
bandar
sungguh
##kal
pekan
bing
##usat
##iterbitkan
gor
rapat
membayar
promosi
##itakan
jangka
##inkan
dalamnya
melainkan
##date
pendekatan
ajaran
##asana
beragam
##ologis
kain
gagal
##ays
kerajaan
target
cabang
kereta
##dari
salam
##emas
kadang
tiba
teh
##antara
kemarin
##omend
manis
##intai
liburan
pengan
dek
##indungi
##isipasi
rom
##cak
ujar
##00000
memanfaatkan
bed
kompetensi
##peng
altern
##har
kesulit
caranya
##ahankan
##onya
pemuda
tarif
##ahaman
menyenangkan
##enterian
suhu
##ambung
##29
pc
##alog
##ancar
fit
ass
gula
seputar
lemak
##tifikat
##over
banyaknya
kepem
##agangan
sadar
menyampaikan
tri
otomatis
maju
saudara
membahas
liga
lub
windows
rusak
dikirim
##ikulum
hy
val
##uktikan
bekasi
##iasaan
##uransi
sektor
layar
rupiah
##jak
aksi
tep
##indahan
meraih
iz
##po
fi
##olusi
##se
##engaruh
tumbuhan
##jur
##ungkap
jog
cender
##orit
susah
serangan
##ling
##la
kementerian
tib
honda
cairan
bangun
terbukti
##ich
halus
perdagangan
##eral
tand
##umuman
##ary
bukanlah
##ambang
##dan
##ech
memperhatikan
suasana
kapasitas
amat
##70
##hluk
engk
ww
bakteri
##aim
##anto
ulama
my
tomb
uu
aut
saluran
##ance
kesulitan
##ikal
##pert
##ahi
##buhkan
##anggil
cahaya
##ris
##day
##ive
petugas
##akuan
dinding
smk
##obati
memutuskan
but
administrasi
az
imam
jaya
kurikulum
cenderung
##ajuan
checkout
pendapatan
berbasis
hadiah
kewajib
nak
mendorong
berguna
##emuk
not
dini
##elang
mencer
pernyataan
prot
##esuaikan
ane
terbuat
kenyataan
lampu
kud
##awi
##uruhan
dokumen
ialah
##ogen
hadits
##so
##akata
##33
##akaian
negatif
sekitarnya
mantan
ilmi
##elar
kenal
kebenaran
seharihari
stasi
mm
ketah
##ening
vag
##bah
##encanaan
tb
artis
lant
jerman
berani
jari
##ataan
196
prediksi
##ron
##umber
prem
bot
vitamin
via
bengk
##osit
##enuh
read
##isiko
menyebutkan
##adu
##ematika
##xy
##akses
anj
real
##coid
terbentuk
##lain
##ran
##str
pis
##ontr
miliar
##otong
ibadah
##48
raj
referensi
konsumsi
agung
ditentukan
makhluk
tambah
##idi
imp
kue
terkena
cak
peg
##be
tamp
berakhir
sertifikat
prestasi
ra
rasulullah
mut
hubungi
09
tolong
kebiasaan
os
##ial
##ervasi
pari
##etan
du
dikar
dilengkapi
31
kontak
belanja
perencanaan
penyelengg
ilmiah
perintah
##tic
temanteman
angin
luka
kumpulan
sampah
payudara
bertahan
##ografi
##awatir
tern
menengah
rangk
mendatang
menemp
juara
dibangun
diantara
##yek
kepercaya
##word
komisi
pejabat
mempelajari
ulas
rutin
##eet
batik
##anjian
seleksi
##sinya
golongan
tag
stasiun
aq
horm
alternatif
##ombang
##wisata
checkin
free
##araf
rev
bertambah
##gen
ars
2006
pemikiran
##angkau
jag
korupsi
##ekar
##yal
kristen
pembah
dipr
pemesanan
sekedar
##anji
menampilkan
sign
swt
motivasi
serius
rs
##enggarakan
##urang
kelapa
power
www
peman
##oa
selasa
segi
pemahaman
pasukan
##argaan
mac
city
##din
2017
mengajar
kamis
##nu
keseluruhan
besi
pemas
evaluasi
80
petani
permintaan
##onis
enam
ris
kac
rec
rabu
pip
reaksi
##indak
puasa
melew
pemil
##inisi
pembelian
dewan
tol
##udukan
##illah
menyebut
##asnya
mengakibatkan
beserta
##amilan
asuransi
##ts
bertanggung
klo
##arm
otot
##ajarkan
sobat
end
terkadang
##ediaan
kontrak
##untuk
properti
##umi
##atiba
menekan
##evisi
##ahanan
dimas
dki
satuan
bicara
##unjungan
pimpinan
engkau
ne
##ence
shalat
fakta
##atasan
##emar
digital
bingung
pingg
##engkapan
##astik
telusuri
penghargaan
penu
##idaknya
##ats
##38
##oli
##titusi
##56
lawan
##elan
##apura
tunggu
nur
sams
kepercayaan
##oker
tema
bonus
pengen
suci
iya
##ujudkan
##afat
setengah
mom
##ational
sumatera
makalah
port
memastikan
deb
kn
##sek
##tinggi
##36
trav
tibatiba
##udang
bh
semacam
lucu
##edur
jas
##umah
lemah
ganti
inginkan
pekerja
kelamin
hendak
diskon
matematika
mengisi
keren
dibagi
tangerang
khawatir
tuh
don
##itter
asi
##oman
perjanjian
disampaikan
##alahkan
cok
##umpulkan
poin
dihasilkan
global
kolam
##imakasih
2005
relatif
anaknya
bumn
mengadakan
iii
##osir
layak
dur
penjual
##itungan
murid
fokus
pembentukan
2004
##irik
setempat
##isnis
##waktu
transport
hel
##kw
##etu
gro
plus
adat
kewajiban
gitu
penurun
unt
pengend
syariah
muka
harganya
##ambarkan
##asta
sapi
##he
##mm
tenang
##epak
jil
##indungan
akadem
##zi
perso
kreatif
mant
##sihkan
av
##34
##ambar
militer
kadar
##endiri
search
lag
ros
efisi
##kus
ident
keterampilan
doa
##75
berusia
cas
jul
memperbaiki
pastikan
kotor
kalimantan
mekan
seksual
mimpi
sudut
bac
kup
memasuki
emosi
klien
menghindari
##omun
##mar
meneg
##ony
persoalan
koleksi
fin
senj
klub
simpanan
tabel
##ajat
##entikan
penghasilan
kunjungan
##alang
##ato
##arikan
puncak
##asiat
##aktif
##cel
pidana
berbahaya
lainlain
dipilih
play
pastinya
##ultan
##umpang
kaw
uji
serupa
##uhkan
##otein
##antikan
detik
ru
austr
##ampang
rahasia
##amkan
##cana
izin
##angkut
tombol
ditambah
##app
ketahui
##agang
forum
beban
##ubung
##sm
00
arus
with
##ultas
dasarnya
##lin
setidaknya
kampung
fav
tungg
dgn
transfer
##uaran
test
##tis
pemand
##90
##ory
mengal
segar
cu
tun
bandara
##arn
dikembangkan
gimana
bibir
mbak
melah
pengusaha
latar
##kp
maha
gelar
##ii
adik
service
bertujuan
katakata
##spot
menolak
perbaikan
##udahan
kg
india
...
##egan
mengunjungi
##angkutan
sabtu
cre
kampus
##ihatan
bugil
##ww
##ins
bend
36
##78
##ulusan
dikarenakan
kehamilan
ec
pulsa
##go
keberadaan
pinj
##idan
pertimb
beda
kil
perlindungan
utk
entah
lepas
melanjutkan
memainkan
risiko
lulus
##usen
dprd
##ml
jend
ret
keg
##ikmat
##oks
##jah
sipil
cit
luk
##aksana
harta
membunuh
##upuk
emp
putra
kuning
perumahan
rad
alias
massa
##irm
sepertinya
plastik
menguasai
perjuangan
pembaca
div
key
gaji
##utaan
vis
grup
fakultas
rt
diab
##irian
##berry
##ke
pangg
penurunan
lebar
piala
diny
##etes
menetapkan
menerapkan
70
prim
col
##ayang
dosen
##ovasi
hebat
urusan
disert
##omunikasi
prosedur
plan
ketur
mengobati
review
klas
##allah
televisi
##antampilkan
spesies
##umur
##ancang
sengaja
bad
fen
menyimpan
sid
cina
##ubl
##akup
hind
##ingkan
lun
koper
##press
iv
pns
nan
petunjuk
level
update
dibawa
##ucapkan
##obi
pag
dam
protein
joh
ulasantampilkan
terang
padang
##pirasi
penampilan
miliki
solo
persero
membuatnya
melahirkan
puas
##pem
kenaikan
jurusan
bimb
##urs
pond
##rop
##utor
news
perguruan
##ean
##olan
##elis
intel
manag
diikuti
##itah
halnya
##lahan
sinar
lubang
sop
kabel
pengumuman
format
can
##amah
bri
##eum
bor
inform
pasir
silakan
##esis
##iarkan
tuan
##organ
##udahkan
##rid
##aa
mempertahankan
##zah
konflik
menyadari
samsung
menyerang
akuntansi
hib
terlibat
resiko
hard
##pres
pembahasan
laga
##oko
graf
more
##99
ij
##az
##angani
samb
teknis
menganggap
senjata
pemilu
##epaskan
##identifikasi
cac
pengadilan
##orasi
travel
melewati
minimalis
lapisan
##adaran
profil
##alanya
##een
##siapkan
transportasi
rob
mengungkapkan
##kuat
ty
hangat
masakan
giz
alquran
##inci
fat
##alin
##lang
misi
merk
era
melindungi
##tuju
disebutkan
mutu
kerjasama
dj
trik
menyus
ml
tujuh
##cl
toy
promo
##emui
##impulan
##ume
berperan
menjalani
karb
sch
panduan
##illa
lomba
kaos
hany
pri
ton
melakukannya
##isahkan
##indo
contohnya
tenggara
china
##kota
##entuh
land
gab
dri
sore
tertinggi
34
gram
menilai
##hasilan
##kirakan
nyeri
grosir
##aporkan
perhatikan
##sul
dal
##erai
##tip
##itek
bro
##buang
##omod
##inar
rekan
gug
diatur
kemajuan
radio
praktek
drama
temukan
perek
lazada
strategis
pemasaran
##umkan
max
back
##eo
hr
kelah
lembut
##37
sewa
ahmad
penyimp
dibuka
oke
##nam
ketidak
praktis
gua
##otik
konv
nark
kesadaran
2003
##itia
##engarkan
nilain
berkel
##arankan
##aransi
lintas
swasta
sand
##jen
##ifi
##ashapus
persiapan
anc
elektronik
kub
##ekaan
90
pram
##umpul
peduli
pb
pendukung
memudahkan
keker
##aras
ekstr
sulawesi
hidupnya
eh
fo
##anyi
penerapan
tir
hol
jemb
langit
##va
##inat
##46
##bel
dibaca
peneliti
berpengaruh
##onor
lampung
sn
melibatkan
nilainilai
full
biru
ketingg
diperhatikan
dinyatakan
##osisi
##saya
hip
##awancara
ragu
td
plat
##55
cir
##www
##akaran
##ecil
32
##oft
kang
buatan
##2013
sastra
ramad
urut
haji
bencana
##ingkali
definisi
blok
twitter
katakan
terapi
jun
##sc
##anjung
##olahan
simb
jaminan
##usatunya
depok
##asila
##abah
ren
bersangkutan
tubuhnya
marah
##olat
##orl
ic
##resi
membuktikan
##ustom
##aing
##atau
gizi
paham
group
##ove
lg
##orial
##itual
##upan
keturunan
sib
papua
##ulauan
aneka
yun
dosa
seringkali
bersam
direktur
mengus
kaca
berangkat
satusatunya
share
1000
##inis
let
##alisme
penerbangan
##de
##iss
mr
diet
iman
angkatan
##uary
ari
ci
majalah
internal
##das
##pan
sri
material
park
mencakup
seber
order
##nik
muk
##39
berbuat
favorit
mengej
parah
app
##angkal
##arahan
sepenuh
kesej
##awal
isra
skor
bahagia
bawa
##57
anim
##ys
tantangan
sasaran
##ahl
##kripsi
##les
tersendiri
ramah
##31
mental
##kas
celana
pass
point
server
disediakan
##inga
wat
pedagang
rangkaian
departemen
jender
pangan
tut
berlebihan
bung
alih
mengajak
sekret
kesimpulan
hom
##blog
##aysia
telkom
yam
hemat
##iver
job
minat
koperasi
roda
bulu
1945
peringkat
diar
cow
##hamdul
kepadanya
##atihati
baris
nusantara
mengganggu
tutup
jamur
tertulis
##barui
kucing
panitia
##tah
keberhasilan
150
kebers
alum
##ler
##ingatkan
ayo
binatang
##owi
lancar
wid
bertindak
miskin
menyukai
##vari
pancasila
hanyalah
##assar
fenom
##49
##luan
##ings
##ubungkan
02
##isar
diterapkan
stabil
##oth
tat
book
##able
inti
mol
##sial
jati
##yan
jurn
jenderal
##ajikan
##ikirkan
##elihara
heh
limb
##uaskan
##omi
mesti
##log
jaman
##ju
memperk
gelombang
nu
##egi
hakim
we
##encanakan
semester
malaysia
menahan
##aranegara
akal
jutaan
tk
istim
##aker
mengkonsumsi
keperluan
kedalam
vs
gerak
kompleks
##rut
copy
loker
kus
##itmen
gm
kaf
##untungkan
kehad
pemakaian
##oss
##88
mewah
didirikan
ratusan
komb
##andai
##urahan
##lowongan
perhitungan
##utang
##47
dinam
##enuhi
indonesi
suam
##ahatan
garam
##osting
dapur
##enalkan
ginj
##entrasi
diskusi
negaranegara
menderita
500
lumayan
ramadhan
koord
betul
aktifitas
tunggal
dikeluarkan
apaapa
kebaikan
australia
kelahiran
##diterbitkan
##ikator
ujarnya
gambaran
pint
##kn
##ven
##safat
liat
pemandangan
teratur
##wakilan
upacara
toyota
karen
rekening
ungg
##kop
##adai
sent
menyi
cd
##wang
disertai
##acu
##afs
bub
##atik
keempat
demokrasi
##anyol
deposit
##amatkan
kosong
##otan
bangga
keindahan
berbel
penutup
##ez
##ct
mengund
75
aud
motif
cita
spir
pinjaman
instr
merusak
mengend
diadakan
berw
##sal
##sin
##epsi
sari
##irahat
##enger
ginjal
dijelaskan
##ebasan
blogger
biji
sangg
mengangkat
mini
blackberry
##ugian
mart
tante
akr
obyek
disana
##ame
cont
ditawarkan
beri
##abiskan
diminta
berkunjung
nutr
pindah
perlengkapan
kemen
##by
##ical
respon
##ews
produsen
##embalikan
kart
abd
##iteria
tom
diajukan
medis
##aktor
lazadacoid
##etakan
tindak
jogja
##apt
tangk
pesta
pariwisata
kategor
flash
##etakkan
##lem
##ernya
museum
bibit
sosok
##gm
##32
gemp
kurs
##ribadian
kod
seiring
kekayaan
sisa
custom
harian
jerawat
dada
didukung
inves
memegang
55
len
tentara
mengerjakan
edit
baku
karakteristik
##ado
jujur
istimewa
taj
botol
##gantikan
diker
speed
pertimbangan
##itr
penet
krim
peranan
budi
ner
italia
##hy
ribuan
betapa
terbang
kerugian
##rol
##erahan
jembatan
membersihkan
sebut
banten
gampang
campuran
pentingnya
hapus
##yakinan
##io
##ambahan
##pt
las
induk
tegas
##nes
postingan
perwakilan
seksi
ucapan
untung
dif
center
##ahteraan
moral
banjir
##etulan
filsafat
##tin
pengurus
rac
##awanan
lidah
diinginkan
##gag
##omodasi
kag
pelatih
##ikkan
masukan
##ahasa
games
sesudah
gelap
kira
kepemimpinan
seru
##bur
yuk
han
lambat
##ashion
kpk
trading
bau
##uasan
pengolahan
jah
2002
antaranya
##ekuensi
mengakui
##ria
fis
bimbingan
kb
##els
menak
spanyol
aset
##amina
emang
##antum
visi
sekel
##ten
terjangkau
kesejahteraan
##pd
bok
saksi
##erdekaan
mengirimkan
terimakasih
tbk
07
soci
##likasikan
akar
pengawasan
##embuhkan
char
vagina
membagi
##inda
##igh
kolom
berbelanja
skripsi
memperbarui
kakak
seolah
##oke
sejenis
##gl
##ise
##cepat
menyusun
praktik
parkir
##orld
berpend
alhamdul
mulia
menguntungkan
kong
mendes
dibentuk
sekian
cetak
kecel
jak
05
kejahatan
jokowi
##uddin
kit
##icu
naskah
cuci
has
##000000
leh
dimanfaatkan
##bing
rus
##eat
kemerdekaan
##ike
lif
dak
wajar
##imbangan
masukkan
karna
##dy
goreng
basah
memasukkan
star
israel
mewujudkan
sepenuhnya
lulusan
wawancara
dijalan
limbah
ms
##operasi
38
kepribadian
senya
bahaya
comm
memenangkan
singapura
pacar
##ianya
stadi
sesama
makassar
##emukakan
##2012
##ulah
##del
instansi
berkat
pembeli
memakan
##mo
##alih
merawat
turut
anjing
##tunya
menyiapkan
nen
identitas
pupuk
##ultasi
##inaan
##enting
memperl
##orium
memesan
pelajar
day
##ica
##ulas
ampuh
kawan
sejauh
volume
##awas
##ustakaan
sport
##meng
kecelakaan
dipas
rusia
hab
##agn
logam
pemk
renang
##pertimb
topik
ekor
##hu
ruk
diduga
disamping
inj
##gunaan
serat
menghubungi
besarnya
lho
##idaya
##epan
keselamatan
##antren
heran
mencintai
menurutnya
madu
mengab
bil
kristus
##ign
distributor
ub
ibnu
word
puisi
liter
baiknya
sayangnya
##angsang
prob
##tan
tor
signif
memasang
menggambarkan
##ingatan
menginginkan
kriteria
dian
reb
penyus
bawang
pemenang
penumpang
multi
keny
this
membedakan
kena
kis
##ks
lunak
mengucapkan
audi
##masalah
operasional
surga
##apas
kebetulan
##ou
bukit
sekalipun
##arjo
ungkap
ye
##ahul
suz
diw
300
jilbab
simbol
berhak
cipta
##indones
##anye
kompetisi
mens
##argai
rekomend
kajian
ama
sibuk
pic
setia
fam
tarik
##hotel
tal
##jadi
cerdas
sex
diser
menginap
##43
laku
##amen
diperkirakan
dec
##elahan
pengambil
tutorial
tidaklah
bg
##inum
##madi
pon
##macam
penyelenggaraan
##acom
cil
##iki
##ose
interaksi
skala
##barang
konstruksi
karang
##esta
isu
fashion
penangan
konteks
waktunya
dinilai
kecantikan
sholat
##bahan
##arto
tanjung
bersamasama
sor
##ampur
##ujian
bol
tepatnya
fenomena
##onomian
menghabiskan
##egr
keyakinan
##ering
yamaha
lol
33
1999
##bola
##08
akibatnya
kerap
kenc
nutrisi
diabetes
akurat
alqur
polri
sangatlah
resp
dh
##uncurkan
musuh
dipercaya
mempersiapkan
##itanya
menjamin
pondok
hamb
06
mengajukan
purw
rap
perform
wali
memek
kesatuan
##pertimbangkan
gur
ts
perkara
##icarakan
dol
##bukan
variabel
pesantren
cs
##ior
soalnya
##lu
padat
##cd
diterb
signifikan
micros
tiketcom
trus
khasiat
danau
##ukses
bersamaan
##tik
tersangka
jej
rokok
malu
gem
gold
kelemahan
international
nar
gala
pengaturan
perlahan
narkoba
adv
peringatan
##br
mendaftar
berkurang
##olisian
matang
##jawab
mengelola
posting
##irah
##arak
memproduksi
sap
kunjungi
##isinya
##ijaya
bs
##lak
mendek
tertutup
karenanya
ibunya
##way
kala
boc
puluh
syah
##kel
##spotcom
tipis
ikuti
dicapai
nok
##adangan
undangan
kelihatan
buang
handphone
perekonomian
bob
##mur
palsu
lamp
##imbing
puluhan
mengam
gir
##100
dimainkan
dengar
##ei
mengumpulkan
##abuhan
##agram
acc
novel
cem
manual
tuntut
##work
alkitab
sembuh
##aria
##eling
pengendalian
pertahanan
##hh
mud
##irmasi
bertah
kombinasi
##cc
tergolong
master
tablet
kepolisian
koneksi
##ancurkan
##ative
tour
lelaki
nafsu
##utip
setuju
cur
mama
person
yaa
long
##awali
##nd
memandang
final
##faatan
##59
pras
hahah
##enyum
##pasang
jin
kebun
##orex
yahudi
##endam
##indahkan
putus
rata
menuntut
##unjukkan
mun
##iliun
##ektif
kara
indikator
##jikan
##anggar
formasi
dewi
operator
##odoh
harinya
arsitek
grand
##ulir
menjelang
world
disesuaikan
brows
head
ancaman
berjudul
kekerasan
babak
kesan
##jana
##58
sabar
##nc
##otaan
##44
seo
formal
##ajah
termin
lembar
baterai
natur
ten
##rak
bit
##ambu
##ebut
wir
comment
##kk
kacang
##irinya
##ley
##pol
pihaknya
perpustakaan
##ty
pandang
berak
sain
sinyal
tingg
cowok
yay
berharga
mineral
##olehkan
over
##agama
senyawa
##ontrol
memuaskan
##rika
van
##plin
##entangan
menghitung
penasaran
pintar
##atorium
hukuman
sewaktu
brand
dewa
##ometer
##iru
##zim
kw
terseb
diterbitkan
delapan
alhamdulillah
diangkat
diaku
##zat
atm
coklat
nikmat
##umumkan
kpu
orig
tali
ud
adil
kepulauan
##trans
niat
banjar
bayar
kehadiran
##indung
manajer
hai
fase
pep
##wanya
gempa
riau
garansi
pedoman
kuliner
ulasanno
##eld
##kr
sr
wasir
mendengarkan
optimal
derajat
dev
didapatkan
organik
mengalir
kandang
cair
##erus
wart
kayak
##ancangan
sad
pengadaan
kutil
##ancing
berdua
##ikap
disiplin
2001
berpr
mendirikan
gemb
pelanggaran
box
panggilan
dialami
instal
tangannya
##ilitas
pemula
tahapan
##lasi
are
##ibusi
##anggih
hormon
mengganti
card
lin
priv
ditutup
##tn
rahim
akomodasi
beredar
papan
pelabuhan
##entr
kum
37
terpisah
tew
diselenggarakan
berukuran
menempatkan
siklus
##truktur
ideal
domino
jamb
besok
hum
planet
sidang
kelurahan
tari
lirik
foll
konten
##ugikan
line
tukang
##umpai
sper
potongan
ayahnya
gatal
##ibur
##lihatkan
elemen
berbed
##board
hiburan
tebal
beasiswa
galaxy
pembicara
cream
ongk
##ff
menangis
##iraan
kedudukan
mobile
yus
kambing
triliun
##42
labor
##gantian
palembang
berpeng
imb
premium
penanganan
##langkah
rid
mengec
##ohonan
nonton
##jual
##onan
kuno
eksp
mewak
##oner
##alif
pensi
##km
mesir
marketing
best
event
biarkan
##okter
##onj
##sip
##erg
murni
cip
ternak
03
merd
dimensi
##ake
penyimpanan
telinga
urutan
tersenyum
jurnal
atlet
pengajaran
mekanisme
orangtua
aksesoris
##air
busana
kontrol
39
kepuasan
##alifikasi
##ebak
##enteng
##yakini
printer
120
perbankan
nenek
mang
yayasan
penulisan
fisika
tercatat
kerajinan
terdengar
dipimpin
##ukah
efisien
warn
atap
budidaya
##baru
mala
usus
##ies
simak
##yanya
##ave
kenyamanan
##zz
suzuki
pasaran
ala
peroleh
ditampilkan
membel
konsentrasi
##2015
ajang
masak
mengant
##wat
lurus
dipert
penya
je
penip
inovasi
kudus
ditempatkan
mencetak
##bd
##lis
##aper
ketat
##entot
sampe
menonton
pembagian
menceritakan
##akira
sedih
termurah
##esa
memec
publ
##ky
ky
kemudahan
##cm
ikatan
petern
fes
##ciri
##dik
##olik
pungg
##impulkan
wifi
##wayat
jus
berdoa
komitmen
pesanan
menangkap
##uth
halal
menegaskan
##ekali
senanti
##ght
qs
sultan
##linya
pembinaan
memimpin
sekalian
##pu
pemasangan
fer
pengambilan
##tad
mengingatkan
forex
sertifikasi
##etika
##mem
pengin
##ompet
kadangk
dibayar
jendela
##madiyah
password
sepuluh
##ilm
1998
cent
tersebar
senantiasa
tdk
terjun
cob
nga
aug
whats
work
##ahlian
perancis
pembuat
soekar
pemanfaatan
mengajarkan
menemb
riset
roy
##aftarkan
rupa
##ze
perse
honor
surya
mewakili
##abeda
terpilih
lim
tahunan
tuntutan
arg
meres
alm
pembuluh
usai
##lemen
memikirkan
psikologi
get
##alas
type
sampaikan
pengeluaran
danatau
prancis
klasik
##aruan
##ebunan
microsoft
##egahan
leher
##sikan
##ingkah
dipastikan
istana
dipengaruhi
mainkan
##kalim
04
##ene
roti
keadilan
perbandingan
cuaca
##als
##org
dirasakan
01
pij
##untung
lantas
tutur
48
konvensi
##read
kebebasan
keahlian
digelar
##imen
diakui
law
mengar
menyembuhkan
yunani
bersaing
spec
nokia
penyedia
boy
krisis
pilk
ori
sekretaris
##sy
temen
citra
samasama
##ily
karet
diluar
merubah
memori
canggih
profes
diciptakan
rumus
65
menangani
##faktor
kebah
penyusunan
bener
sunda
resort
##pi
jg
pakan
bunyi
httpwww
tambahkan
bervari
karir
populasi
harap
##sem
dikonsumsi
##epakatan
house
impl
unggul
##jem
maya
##irman
##eimbangan
mam
variasi
united
kesi
lari
etika
##lydel
tampaknya
penjara
pisang
terdaftar
##sigen
tewas
firman
load
##yangkan
makanya
medi
time
jelly
keluarganya
46
computer
##gagalan
dipahami
melepaskan
asy
lamaran
sanggup
perund
bilangan
250
selaku
didasarkan
##empurn
##osiasi
##unjukan
gat
##aram
candi
##ifik
buruh
ditemp
##dalam
kirakira
gudang
acco
disek
kalinya
pasalnya
investor
terlepas
sdm
ramai
oc
telanjang
kasar
berbedabeda
pust
##my
ditandai
disusun
munculnya
keluhan
##esh
perkebunan
nasib
dimasukkan
##arai
hahaha
setahun
##aingan
berpendapat
saf
menyemb
##las
##ihi
sayuran
##agen
bulat
##produk
##ding
gus
page
hendaknya
interior
##kandung
menyangkut
disimpan
##ss
riwayat
mengenakan
user
diakses
larutan
domain
posted
eksek
##wujud
##77
##ambangan
menel
persaingan
afrika
##tujui
fu
cv
##embuhan
jeruk
mont
dicari
rumahnya
##ito
analisa
suaminya
menyerahkan
kaskus
quote
##iayaan
gila
##ebon
contr
mg
##unkan
oksigen
kesepakatan
one
##intahkan
##alib
##ontal
##yc
nger
##iaga
##ile
menyajikan
penetapan
##aib
wartawan
lebaran
kegagalan
dilanjutkan
##osal
mempercepat
##link
penerima
semen
##atanya
seberapa
sebentar
mena
##sen
maksudnya
wadah
##xi
youtu
kuasa
tex
punggung
potong
##ahnya
istrinya
##jakarta
kampanye
kursus
##angkatan
misal
menerus
##buk
##osh
pembukaan
langkahlangkah
wr
kuk
peneg
##ture
##pasar
wed
disajikan
##ko
laboratorium
jadikan
keju
##sis
berkas
sty
bahanbahan
dilarang
memasak
john
janji
##jaan
abdul
menyebar
##oyang
seminar
janin
erat
##owo
rekomendasi
perdana
berumur
diganti
social
madrid
##mudah
patut
gelas
trend
penggemar
lomb
pencipta
##rep
##apakah
penyeles
kemasan
telp
green
##pas
cuc
menyak
berulang
mund
##andingkan
diperk
##odi
ekonom
dul
mall
##ternal
design
padi
pantas
distribusi
pertamina
##ayangan
##adak
ketinggian
##erm
bertugas
##odo
lengan
seragam
##ool
menghapus
##omotif
hadis
nampak
##anjutan
tam
pengelola
##pot
memelihara
batam
##iakan
bap
bumbu
##lok
gagasan
gamat
##iaan
jakar
##ohol
##66
bij
berkomunikasi
dial
kt
##gb
padanya
kebersihan
insya
seminggu
##andatangan
##uss
bunda
jahat
penonton
pramuka
train
hatinya
perkaw
obs
loh
tepung
99
kapol
mendekati
bagaiman
ratu
uns
pom
jack
hil
pengamatan
kedokter
kritik
##inder
pilkada
est
kuda
pengukuran
ragam
original
cik
##imbang
eg
dikenakan
body
akademik
quran
tajam
iphone
##rasah
mengalahkan
ganda
barangbarang
##etujui
item
sarapan
##hasil
##igur
##ux
setan
fung
shop
engg
pendidik
eur
##pel
misteri
kemalu
qur
##ape
siapapun
##bn
malaikat
fe
casino
##nia
propinsi
##upaya
terpaksa
ste
map
gil
##bud
pencegahan
##ensif
bentuknya
menyentuh
dipenuhi
keman
##elai
darat
pln
##gerakan
university
dg
gul
warung
pasca
fol
ketik
wujud
jumlahnya
mengakses
memeriksa
##ated
hindari
standard
nel
terminal
impor
berken
##jenis
duga
##kl
hidung
##esaran
konsultasi
##antau
tetangga
penambahan
gh
dikerjakan
dibahas
demam
##atangkan
hub
kedatangan
sebutan
sejati
ngentot
cle
##info
##ihak
visual
kadangkadang
mask
dituj
reservasi
jav
##eni
jatim
##tempat
kualifikasi
make
##ailand
##lp
sut
##ajur
ketemu
team
baja
tujuannya
##idasi
##obaan
kritis
pangeran
mengembalikan
org
##usa
dibilang
##ancur
##under
jd
##2014
istirahat
kotoran
##jam
diak
lolos
mayoritas
isinya
##enjang
menyesuaikan
##foto
mig
pew
bersab
menghargai
##isir
##mk
##ecom
##ulangan
hatihati
diisi
hehe
##eliharaan
##rb
cirebon
kesukses
bpk
##ire
membiarkan
##ere
engine
##ikota
apartemen
melebih
##ocom
bervariasi
cup
##52
##ativ
diproduksi
##eteksi
kecerd
spr
tool
##waan
##ungkapan
drs
##ery
##98
bursa
bid
menanam
mencatat
dipesan
##kt
##amaian
##53
##indonesia
supp
lambung
##alisis
spesifik
ditujukan
56
kedokteran
datab
thailand
##incian
##fr
##ungkus
##contoh
jawabannya
makasih
pengganti
memuat
dirancang
##akapan
perkawinan
berga
bersedia
melaporkan
menghentikan
terpenting
##presi
##pes
bekerj
persis
menyambut
ded
tai
##asari
far
kebakaran
##kh
##tel
utamanya
##rati
ciriciri
##keb
from
dimaksudkan
keag
menyelamatkan
king
##gar
mengu
insti
memperlihatkan
##emia
##lon
naman
sosialisasi
tanam
saraf
##prov
ngga
##vey
laba
pengec
muhammadiyah
perawat
vii
##anjikan
##lish
run
##tek
logo
gadget
saatnya
##antis
melanggar
##ites
##emikian
bersikap
arm
diubah
kecewa
kelak
##abut
merugikan
ja
##ipan
pemeliharaan
##bert
customer
bahas
##ann
##2011
##hak
##kalimantan
emb
sifatnya
##amer
##injau
bre
lis
1997
live
dipergunakan
tingkah
rapi
beruntung
##lawan
##41
gede
intr
reformasi
agan
##off
ucap
pakar
bangs
memanggil
tabung
##ror
mikro
##ekul
putaran
##uhur
persamaan
##omendasikan
hist
memperkuat
##ernaan
wawasan
##apaian
##eluk
letak
keseimbangan
menolong
divisi
##ella
##airan
##oyo
dengannya
menyes
membah
##adaban
bn
semula
les
##anks
hasan
majelis
transm
setting
panen
cc
seakan
inspirasi
nt
##pal
##engahan
kehend
sukar
##tib
##sil
semesta
verifikasi
keterb
##esin
ekspor
mot
menggantikan
atom
dinamakan
##gu
baj
menyaksikan
suar
damai
begini
##ids
selsel
frekuensi
kecerdasan
edisi
menghancurkan
angkat
##onsor
penemuan
tump
ipa
keperawatan
hay
mode
liar
berbahasa
personal
##banyak
adam
##tidak
dor
susunan
##gh
nd
pek
dipasang
##ille
tit
terbit
##scom
##ikh
##balashapus
dipandang
##ject
##atalan
bermacam
##olongan
##ebalan
uud
enggak
implement
sint
konsisten
permohonan
##besar
##iam
##ye
beach
surut
##isl
pemegang
ambe
gitar
belakangan
nasabah
penginapan
pipa
##kami
lombok
iklim
##iskinan
##oom
##itahu
santai
ditambahkan
##kamar
memadai
cinc
bacaan
##esterol
dihadapi
didalamnya
dijalankan
benih
jelasnya
pencernaan
formulir
nikah
kesuksesan
##hab
dialog
##band
125
dosis
##anen
mt
haram
menghubungkan
yud
bea
##awasi
list
penguasa
berdampak
##esuaian
##pend
lan
furn
##lakukan
database
tegangan
penyelesaian
##our
utang
mab
proposal
##ongkok
abg
dirilis
bgt
melebihi
telkomsel
bambu
##76
##yukur
impian
##ancy
produktif
##ejo
od
hobi
##orsi
##otensi
mengukur
terkini
menanyakan
##eser
berpengalaman
##atap
##lar
mundur
##ais
kontol
lelah
##tival
spesial
view
plas
##2016
club
youtube
menangg
siapkan
tunt
dirimu
cy
farm
ditemui
##ohan
ambeien
berminat
bergantung
##ahit
sepakbola
pecinta
bokep
##obet
##entuhan
faktorfaktor
matanya
putr
##istensi
sunnah
##usikan
audio
intinya
gajah
berjuang
kencing
##2010
relev
revolusi
stres
follow
pensiun
##tera
kebahagia
tandat
kemiskinan
##upun
##iar
belas
pembatalan
prioritas
mainan
##96
##inst
pesat
##itahuan
##ormati
melatih
dolar
##erat
ilmuwan
##ure
percobaan
nada
koordinasi
##bawa
terlambat
haha
##eliti
laki
tsb
xi
##kesmas
##cher
##que
repot
##ajang
merokok
raks
bijak
##versi
##egal
pertengahan
modifikasi
pahlawan
biologi
bakat
rasakan
##cam
jama
pergerakan
add
##ayu
walikota
aktiv
##ewaan
jem
hd
sperma
merdeka
fungsinya
##och
dibeli
dijamin
##agaman
pengakuan
exp
sarjana
alatalat
perkiraan
alex
produc
disarankan
bukankah
##enam
##formasi
##hiri
pemberitahuan
lump
diartikan
jaket
makam
bersyukur
sampel
rumput
##osan
##onim
##ahah
##umbang
won
garuda
##indar
rent
sido
##laim
selera
jenjang
110
##egrasi
##umuskan
42
rib
memaks
##ombongan
##rek
##utnya
festival
direktor
dapet
bambang
march
pustaka
##ashap
monitor
##ebar
devel
july
pencapaian
penyanyi
terkandung
sempit
gb
menunjukan
sank
sesi
##cr
##ratiz
kebahagiaan
hadapan
##adari
modem
##epend
##langratiz
kian
dides
subs
sby
##roduksi
85
beton
persetujuan
timnas
chat
pecah
peradaban
hindu
##oneg
bom
raga
kolesterol
institusi
##ohong
##yakan
kewenangan
sabun
mendadak
ijin
kabupatenkota
beroperasi
villa
amal
neraka
kendala
##val
tandatanda
ditangkap
batuk
mendalam
manager
##unting
##sih
##abatan
beranda
sejahter
##mani
rupanya
jantan
primer
##pet
pelajari
rasi
win
atur
support
mengacu
##sor
sembilan
##ampi
sayur
##hawat
menekankan
water
infras
dest
polres
##place
terbagi
berencana
turn
##alinan
##xx
##79
##ecahan
##bisnis
gk
karangan
##bit
pidato
##blogspotcom
nusa
intelek
beragama
instrumen
berpart
soekarno
##inik
august
tempatnya
raksasa
butuhkan
##onc
progr
dsb
##tuhan
##asy
jagung
##ajurit
mulus
mengendalikan
##ikanan
pembiayaan
manch
##omong
##ormatan
##luk
landasan
##jika
bodoh
good
##olok
##onf
panggung
berfikir
pengawas
##ikum
otomotif
##tat
##fik
shah
kekasih
eksternal
ced
dugaan
pendahul
booking
caf
surve
bertentangan
kerangka
kutu
dibedakan
##gian
##pad
##peraturan
##lum
##editasi
##siap
##iday
penipuan
network
##rom
start
lond
gand
sawit
1990
##lydelet
your
lipat
##ics
riz
##ektor
tub
##andap
##ox
rincian
jobs
gabungan
denpasar
##ogo
mula
##wangi
pengantin
york
##uasaan
perikanan
##pin
citac
login
akrab
rajin
##ric
##unungan
mengundang
obatobatan
putusan
kamip
senyum
##ection
##uarga
##jazah
##rama
##intang
##bagian
##turut
##ath
bercerita
##ext
##ein
patung
##timbang
##agukan
jambi
pir
hidangan
berkar
persatuan
##roh
hehehe
melengkapi
pelap
konstitusi
berpartisipasi
honorer
ih
##ency
##unjangan
##ampaknya
tiada
##andainya
aparat
##uto
lp
diajarkan
uni
##ominasi
membuang
raf
##angku
##ney
kantong
44
sejahtera
##itatif
kuh
##ogn
indo
##igasi
jelaskan
dikutip
##alem
mempermudah
utuh
##ars
##ekor
nafas
ditinggal
##pns
janganlah
telek
kekalahan
pbb
refl
beriman
instalasi
##sion
kuant
amin
keagamaan
##utif
##ujuk
##audi
statistik
arsip
tt
komposisi
ketak
memperkenalkan
##akna
persalinan
##aler
wew
bias
##oter
pn
angkutan
##ster
uraian
baikbaik
melihatnya
##back
account
menet
reli
pelaksana
dad
##imum
flu
dakwah
aslinya
yusuf
arsitektur
mantap
##teroid
open
##vid
right
mengharapkan
##enjar
konvensional
betina
kemana
menjauh
terkesan
##ewakan
koran
pengikut
penyer
##enak
##iris
tepi
nik
##54
jepara
marketplace
transp
##ahulu
label
penempatan
astr
menunjang
##ector
##amana
prajurit
phot
butir
menempel
menghadirkan
high
keterl
rancangan
umar
led
ramuan
##vd
##ning
senior
keters
bangkit
##antang
##etul
sbobet
memecahkan
##opi
dihitung
sedemikian
##usinya
rela
ditu
##utasi
##aptasi
##sum
instagram
cam
58
popular
tanggapan
madrasah
##lay
pameran
call
layaknya
pegunungan
bra
manado
##usul
sit
##ister
iklangratiz
persepsi
ustad
##ition
ditanya
menghadap
##uu
manchester
menjabat
gard
##unuhan
rock
menyerah
##ider
proc
disukai
sumb
dibantu
balas
tertawa
truk
##onjol
london
indos
karbon
coll
fb
##isian
##ush
memf
puskesmas
400
cerah
menemui
fungsional
##embunyi
##mod
##win
##ikmatan
tambang
mengand
zakat
alergi
ibuk
doll
##omet
wkw
##atar
berkumpul
nav
birok
##oso
##akn
ung
##ekatan
##omosikan
##hat
##andan
perih
pembu
##enian
tech
rekrut
maria
campur
gant
tabungan
memancing
seter
haid
independ
rugi
dianj
setara
dipelajari
sendok
bunuh
batin
infrastruktur
##oses
tembak
mikr
penyelenggara
##udin
barcel
momen
show
pembantu
##okoh
sidoarjo
menyusui
memicu
kelainan
roma
performa
##mel
produkproduk
##agr
down
##buku
teor
pekanbaru
kepend
##okerto
##ujung
hiv
malas
##rian
mutlak
lal
audit
##uruk
destinasi
nis
fans
##inet
##5000
##02
dianjurkan
perak
mbah
love
menyarankan
inc
##oi
gerb
##eki
slot
##iasa
tunjangan
efisiensi
47
##pn
singk
bendera
dikelola
##emuka
lingkup
dagang
muti
##ale
bt
##anjangan
rok
##oj
##arannya
pembunuhan
##jub
survei
spa
cash
ran
klaim
kosm
kelenjar
##ativitas
lemari
baginya
paris
##aksaan
##aham
subur
ular
##andu
##asat
##inisikan
##dengan
sanksi
pencari
kenikmatan
varian
dikunjungi
june
##ous
hidr
office
libur
scr
##yam
maz
ijazah
harm
##utamakan
balai
##allahu
ditur
mengeks
diperb
hambatan
bermu
##ott
##onegoro
##organisasi
bayangkan
implementasi
terganggu
kelima
blu
komod
66
administr
ditempat
dius
mie
nuk
##empuran
mematikan
desk
rohani
merencanakan
bosan
seandainya
cedera
zona
##daya
tumor
romantis
browser
##ilas
tempo
##gp
gener
88
lambang
##ole
imun
life
rute
##iker
food
##ehat
##astis
tunai
kontribusi
serba
##reen
syukur
mengap
lingkaran
opsi
stress
barcelona
sensor
ritual
cons
mengger
rasional
##asarana
stok
pembaruan
43
trop
cobalah
injil
ss
##cari
##dian
##ancarkan
##unyikan
mengejar
kakek
apple
wahyu
fos
##iture
49
baiklah
dlm
##aitkan
racun
lantaran
mendatangkan
katolik
jaga
tafs
rumit
##ampingi
mendidik
alkohol
keba
liver
##dayaan
berjumlah
##lier
perkataan
terbar
install
sob
##agus
akhl
##alth
agr
dz
pembicaraan
indeks
bebek
animasi
##jt
mengarah
turki
asap
##we
acuan
##ilin
ucapkan
nag
molekul
penyembuhan
##bat
simpan
klinik
##istis
##emput
result
penentuan
menggunakannya
magnet
##elat
larangan
kk
ds
hem
los
##acancy
##kulasi
57
hamba
##jangan
membandingkan
kelem
chr
##pers
##atra
##ucapan
anal
kuota
penjaga
##ectr
terjaga
jakart
##utihan
##idae
terwujud
menutupi
##ejarah
##tahun
##ety
urat
jalanan
pagar
kemaluan
##urt
##kand
problem
spiritual
##mah
perairan
stadion
logika
santri
balita
konseling
saj
##lamasi
alf
pertempuran
##ektar
##alisasikan
input
fri
##06
##eti
##ument
41
diagn
1996
##orangan
menonjol
berkom
##yanto
iq
membesar
duit
perlakuan
indosat
##num
keyboard
sayap
mengurus
keangg
##05
kurangnya
ukur
hancur
konfirmasi
##antumkan
ketersediaan
##inja
##esaan
##rahim
upah
bm
hias
agenda
cincin
kerjanya
under
##eskan
hubungannya
berkisar
menjel
intim
berlatih
##ound
jitu
menyerap
enter
kembang
menghambat
terbiasa
reproduksi
metab
rpp
rind
dm
hu
##mail
dilah
gig
##isap
care
##untu
kader
dalil
1995
kip
##istan
pelih
angkasa
hakikat
##andatangani
##efinisikan
wajahnya
subjek
ongkos
epis
mangg
hut
batub
sekadar
kaget
##03
pemkab
bk
dollar
##adat
kesenian
dimin
bata
single
##egas
mutiara
##awang
skill
nat
##akwa
chip
##ange
##ology
yan
kah
##gma
##ongkar
##late
##js
##iness
tren
##ese
grafis
pran
ketimbang
lengkapnya
##ukis
seimbang
jen
##ford
control
dibidang
##urunsur
##arning
##ehan
tuanya
##disk
kencang
ubah
##coin
babi
bios
pdf
stock
mc
##ilikinya
sebabnya
bukannya
terpadu
maluku
cacat
dilaporkan
##elsea
##right
import
##ense
diund
golkar
##anaman
##hit
kediri
lukisan
kreasi
cic
keram
1800
membeb
rekaman
##edul
berupaya
##opsi
toh
rombongan
norma
kompas
pura
##esik
##onia
pandai
##izinkan
menum
##oskan
sains
perahu
minimum
padaku
training
##umentasi
##bagi
ungkapan
prima
##rus
##usiaan
##harga
ray
melarang
store
spe
jajaran
sdh
music
psikologis
patah
##alurkan
jangk
arif
##mak
management
kenyataannya
lanjutan
##zer
stroke
hor
west
cadangan
##ging
diserahkan
vagin
bareng
##ias
asma
fant
##angsing
menyakit
unsurunsur
gini
muj
fotof
cib
sawah
chelsea
terhubung
##upai
kafir
##51
lensa
mengonsumsi
menggelar
bukub
seterusnya
peternakan
meg
munt
intelektual
ips
hijab
##interaksi
join
unggulan
tercapai
ktp
78
hack
fitri
##eam
rekrutmen
menginst
pks
kasino
##68
dilahirkan
sony
enzim
tingkatan
modul
tingginya
furniture
##imalkan
rahmat
aktor
##pak
##eph
keluaran
umpan
boneka
january
panel
hutang
memaksa
sharing
##jemahkan
platform
##500
diajak
pertunjukan
jasmani
mh
sump
potensial
sekelompok
64
##kep
february
dimakan
natal
joko
##ingnya
maksimum
##ihad
mengandalkan
reply
##2018
penangg
sund
tersisa
dirumah
pertambangan
moh
##uy
##01
elektron
semata
batasan
##gabungkan
mengumumkan
##enta
tgl
mencuri
##iny
##ihatsu
anggap
##ilingi
bengkel
thanks
##ensinya
asyik
batuan
##mus
bermakna
sunan
koloni
##ift
sentuhan
instan
mengolah
dipanggil
lt
##etulnya
##jolan
pengantar
bni
usb
alasannya
##san
##inah
pijat
##angundangan
pendahuluan
##bet
##papan
polda
menyatu
mengarahkan
dituntut
kandung
##ier
##can
ngeb
##ept
##07
##ele
terkemuka
basis
metro
pertar
mk
##shop
belah
factor
##ations
##uansa
berlanjut
kategorip
##irannya
nyar
ketakutan
hikm
nor
##abilitas
##tug
##enderungan
terkej
partisipasi
menuliskan
diap
grafik
mendekat
diturunkan
sind
perayaan
##was
terbakar
registrasi
##emaran
##iler
##uasi
ayu
sejalan
hipot
bekerjasama
##aul
##rp
keanggotaan
ideologi
hir
##ico
mengup
output
menempati
rencan
ngomong
marg
bensin
mengemukakan
kilometer
prasarana
vital
relevan
electr
pengemb
membahayakan
pusing
mba
##aruskan
krn
##spir
flor
tiang
masalahnya
beran
meningkatnya
pred
##aq
pered
keputihan
pengucapan
ibukota
##bank
wordpress
##ingkatkan
pemberdayaan
adegan
semi
##ru
ai
rong
jelek
bidan
10000
##pektif
##reasi
##enarkan
rasio
dibuktikan
cand
jalanjalan
##bp
heb
staff
pemakai
##ilikan
pinggir
baby
berganti
bca
kreativitas
suites
##oney
bitcoin
daihatsu
song
##ril
##angkit
lapak
##ekah
##ogan
merata
porno
##otanya
lemp
##pg
citacita
muslimin
rab
penerbit
sendirian
kamus
berinteraksi
kasi
selamanya
##isikan
##aro
tempattempat
baks
pengujian
##etron
mengamati
loading
sebetulnya
##123
##tusan
##urant
##tive
penyebaran
seribu
mengontrol
secepat
kemas
fed
wac
skr
##ilmu
##aton
sebulan
prev
milan
ditunjukkan
abang
beres
nelayan
latin
##iy
lembaran
##try
tiongkok
##jan
pelan
##abarkan
beralih
feb
penangk
##inggalan
jodoh
1994
muatan
##ustrasi
pompa
##omas
kehendak
demikianlah
ditanam
seekor
##uduki
deng
68
##04
menular
##tak
berdarah
penyebabnya
##ution
menghemat
xl
memotong
survey
melekat
dikemukakan
institut
##aput
##bang
##aph
resta
bukubuku
permanen
december
tongk
pub
hmm
mengad
abadi
hun
##uw
ditolak
rantai
##wood
dibeb
warisan
david
buta
menyuruh
##ever
penguasaan
##ohid
##inasikan
##sungguh
apel
hong
merangsang
##hers
kait
ceritanya
teror
##amata
ekstrak
keterbatasan
lisan
waspada
mataram
dihadiri
##ms
pangk
pg
pembal
dinamis
tugasnya
##angkitkan
##yakinkan
##sak
##199
##chi
##ional
##lusif
kecenderungan
##hadapan
59
lb
siaran
asuhan
pelamar
manfaatnya
temper
##venir
presentasi
##kem
loc
ketid
##lm
naga
terjamin
mentah
##akunya
pengk
##ayangkan
lalat
robot
darurat
rub
perjudian
intens
adonan
ramalan
1992
##ancam
0900
alumni
gembira
budd
print
##mudahan
ring
##akannya
kepemilikan
batak
parup
##egaraan
emosional
natural
diingat
##obrol
ekonomis
dipl
wewenang
##hlas
ruko
filip
##ibu
fotofoto
aroma
udang
saudi
##inggung
##wil
##ilasi
samud
timbulnya
hektar
menghal
##endang
##dis
nanya
##acak
menatap
##unjang
krist
bagikan
periksa
berpotensi
public
sinetron
##ago
adi
##agar
membicarakan
birokrasi
diawali
bernilai
##itt
dijumpai
##terima
serial
xia
lamanya
ven
eksk
##alikali
##unculan
sofa
iran
##isahan
seluas
##come
self
kemanusiaan
pengem
soeh
##kalau
##tact
##awati
sepi
tul
bermasalah
diolah
terdahulu
dusun
klasi
##osof
doc
##for
portug
##andakan
##agon
road
##mark
ejak
##ilat
english
lelang
terbilang
mega
##ontak
dominan
sumur
bandingkan
alur
kegunaan
berawal
bengkulu
mn
kepadamu
rh
mampir
caracara
##esel
##evaluasi
akhirat
ace
sales
komer
sok
##fungsi
idul
jaj
langka
##emani
##rumah
big
##ping
anggur
diselesaikan
solid
##entase
##aduan
sipilis
param
melepas
1500
mendownload
##sumber
##pool
pengu
##angganan
##rim
studio
tembok
nab
menghormati
##ega
madura
##makan
tafsir
terjemahan
##niat
diukur
sdn
##ampai
rw
pangkal
mempers
melupakan
##orth
dicer
##tiap
##dir
##empurnaan
dealer
##tengah
ditempuh
tn
##lima
tawar
that
##afal
error
memunc
menjalin
asupan
##ohidrat
observasi
reserv
##alaikum
pokoknya
##ukiman
cerpen
##abaran
lezat
##amankan
##alamu
zoom
seolaholah
ever
eksekutif
ana
##2009
##amuk
individual
##old
fan
berkelanjutan
##ajibkan
##gasi
##panjang
sediakan
rinci
##sium
diriku
filter
membac
##otivasi
andi
alas
cover
hitung
##landia
##idat
##ander
hawa
gon
simple
konser
##olo
dikuasai
dub
penanaman
##kripsikan
jabar
##iting
namanama
menyerupai
pengisian
cuman
restaurant
dpt
##ories
temannya
##met
jalannya
##yaw
cint
terendah
angel
menjanjikan
isa
usahakan
energ
samar
##prinsip
asas
haruslah
valid
##muat
regional
berhadapan
diperiksa
sepakat
pack
mengag
infonya
melayu
stop
pelet
wik
bersabda
54
alokasi
drive
senilai
kapsul
miss
bann
low
andalan
##siapa
##utu
sug
berputar
award
ejakulasi
##67
taw
##agan
ann
##ampau
abis
opini
persegi
##cs
##olisme
##bon
shall
anus
terkejut
bersem
paruparu
depannya
god
school
##ando
hama
driver
memerintahkan
meyakinkan
##ebus
pengumpulan
must
episode
karawang
balikpapan
bagianbagian
ibrahim
java
mual
konon
##bs
host
prab
##kita
berlalu
mond
pemecahan
##yaho
tap
commun
raden
tenda
kalender
press
nikmati
porsi
menab
klasifikasi
atasan
bersumber
tercantum
##usuk
others
##09
liber
cond
respond
##des
konferensi
##infeksi
ahok
##antap
rental
##ahh
debu
fiq
membela
komik
membant
menunjuk
berlari
produktivitas
##yai
demokrat
dikasih
gerbang
##kg
cafe
##abar
52
vert
offic
cend
spesialis
menggel
##perusahaan
##otek
pendirian
membatasi
orgas
style
jadilah
berkons
karbohidrat
masuknya
berpindah
dibiarkan
##adaannya
islami
##arung
mencium
human
cut
jualan
##jian
##pemb
bertahap
ditangani
tanyakan
formula
##peny
##iasan
##enuhan
hukumnya
memeluk
##elam
mengancam
direncanakan
##kol
partikel
pra
kamipasang
##spirasi
iri
ajukan
berniat
coun
##act
kedelai
##play
sirkulasi
##ating
resid
eff
sebutkan
sekunder
##mal
rud
banyu
##nologi
bakso
lest
kalori
satelit
##egiatan
kategorialat
kepalanya
nk
diyakini
linkperaturan
##angkali
##ansir
##eline
ditarik
ketinggalan
diman
kental
sifatsifat
gamis
macammacam
palest
bukunya
soeharto
text
surakarta
terikat
percakapan
keset
##itahukan
sq
##atalkan
berbahan
tanggabisnis
##entak
mudahmudahan
fleksi
lee
ato
kenari
hen
##anjakan
##operasikan
diperbolehkan
tegak
polit
terlengkap
kayaknya
##sional
tinggalkan
##itaan
pesiar
biod
##oan
pacaran
sensasi
tikus
pendiri
##osistem
tidaknya
ster
##yn
##agara
sensitif
player
pisau
jamaah
berenang
telapak
iblis
mark
asumsi
teliti
tuntas
padamu
thn
##ulin
menembus
traf
filosof
musa
##audara
salahnya
wacana
##gambar
##aduk
fc
jt
legisl
lebah
##estik
##jubkan
sponsor
bersalah
laju
diminati
##perimen
berlokasi
bayangan
cep
sendirinya
elegan
pertolongan
kid
kogn
manapun
##astian
gresik
##andar
menumbuhkan
lumpur
##teriak
assist
peb
##buahan
memohon
##ayasa
deskripsi
hart
sopan
##89
viv
seluruhnya
organisme
##edak
stadium
konsultan
keringat
bec
komersial
apbd
pelindung
otonomi
##rani
ikhlas
##araja
instruksi
diare
akhlak
53
orde
95
##roses
syar
##karena
spt
pengangg
##antas
phil
persah
##pp
bercinta
jenisjenis
##ugh
##ls
jne
##masin
sound
serang
ebook
excel
menimp
rencananya
##yono
jejak
teras
business
##ble
pesisir
berpakaian
resolusi
sarang
menampung
##ulator
##uriga
##untahun
mencuci
berangg
usahanya
perbatasan
ilm
melem
tenggor
menempuh
tentukan
##ism
persediaan
sou
company
turnamen
singap
600
sumpah
next
##abumi
##olahraga
menyebarkan
bagaimanapun
keliling
disimpulkan
##ombong
kawin
rez
hikmah
dibalik
kirimkan
##rit
##onstr
##ongkong
menakjubkan
##uch
##tiga
##enjak
##ser
membagikan
realitas
stim
usulan
hamp
rew
berib
depresi
mendasar
upload
##iq
lov
segalanya
##65
berpuasa
mengatas
pembuka
about
solusinya
##emari
jaz
kakinya
mov
mitos
##rin
merc
tertinggal
temuan
pemul
antusi
usd
dukung
linux
hantu
indra
##kat
tegal
##arut
51
direktorat
religi
barub
globalisasi
##syat
phone
lainya
corpor
sendi
sisw
bangka
##eransi
mengikat
jateng
##onic
uap
’
md
##inv
persahabatan
mengenali
dipisahkan
menghilang
perspektif
##endaki
gt
lead
tukar
datar
lazim
##unduk
basi
##komp
##otis
tend
ukm
dompet
hosting
##yer
pembesar
menara
results
1980
masker
lele
cop
mangk
roll
##impunan
said
##udung
buahbuahan
ges
harusnya
membakar
jarum
digambarkan
ditimb
##igrasi
ketahanan
dang
dhar
pengl
purn
bertahuntahun
lini
larut
hatta
##angsaan
menguji
serangga
benang
awan
vaks
##mau
##zon
aduk
diungkapkan
champi
##atuhkan
perseroan
bawaan
rights
domestik
lapar
puk
##jasa
fund
disiapkan
tahunnya
##den
selang
cokelat
kotakota
##tab
##juk
boot
ukurannya
hipert
##box
radang
1993
##impang
kabur
bulanan
suplemen
vel
folder
spek
terhindar
satur
oknum
##yun
wow
diameter
champions
62
##ibah
dorongan
palestina
wira
respons
hus
kehormatan
##atatan
menyeluruh
72
meletakkan
bermacammacam
##impah
bobot
awet
halo
asa
##dom
kiamat
##esm
##ship
##bas
ekosistem
elit
lans
maskapai
lob
##wakan
if
##html
##ifa
nol
juru
##istrib
pla
memin
meluncurkan
##eller
pedas
asus
##sulawesi
hei
mendesak
buaya
##tions
nip
menanggapi
##tapi
asteroid
penamp
meb
peliharaan
antusias
viet
responden
asasi
##tv
pengas
##kala
##cash
merujuk
asosiasi
##oord
aa
dipotong
tawaran
october
muslimah
trim
##69
##ulangi
##aren
photo
##vin
telekomunikasi
##mptn
undang
##fl
##che
##arinya
paha
pinggang
ria
mengklaim
diluncurkan
dvd
tekstur
kultur
budget
ruj
hang
mempromosikan
##sd
memindahkan
menghadiri
##tianak
apresi
pemberi
##otot
gading
cos
profit
universal
teng
mahasis
##alisir
kaidah
napas
metabolisme
##alaya
##ublikasikan
membu
kokoh
benteng
wi
##aktur
perdarahan
##elapan
jember
##entif
belahan
kentang
bermotor
ajak
ajar
transmisi
inisi
berkep
ekstra
kebaya
broker
enggan
finan
indikasi
##elak
##optim
##zo
perihal
##olakan
dani
kenangan
tm
##uble
cacing
menyetujui
pengajar
##ayani
garut
##pm
abs
oks
asisten
nap
paru
##ilo
bangkok
biro
tawarkan
alloh
##minkan
pembakaran
memat
penyul
integr
blue
##etus
dicoba
67
##150
##hr
banjarmasin
pedang
tenggorokan
omb
kalsium
lisensi
isti
merebut
hotelscom
puc
terba
independen
##abenda
pencemaran
tersel
##iro
berhatihati
##sub
69
##isal
##ova
menduduki
2019
tl
kaitannya
menyed
dikur
##akti
##orer
ganj
manuf
##erhubungi
temperatur
##inilah
segmen
pangkat
##epakati
ata
supplier
##umu
##atinya
ads
inflasi
kost
papa
ekspresi
ibn
xx
souvenir
code
mendatangi
penyesuaian
prinsipprinsip
##mentasi
##lir
##kons
##andapasang
benjolan
bannerhubungi
##ario
penyediaan
metod
diarahkan
kerjakan
semenjak
jamu
barubaru
menyert
disc
ion
dinikmati
hok
sekilas
##orban
000
cim
##ompat
arena
##ugat
benua
##etahu
##git
process
hongkong
menaikkan
balasan
terbaiklink
komite
77
disaat
teluk
dibatasi
kosmetik
offline
##osp
kedepan
##atika
serangk
##ness
diposting
paragr
macet
polos
panglima
##zan
mudik
membayangkan
sci
##utrad
021
mengawasi
sesaat
pertamanya
warnanya
kisaran
##lop
##amis
karier
kemampuannya
memisahkan
tetep
##ajakan
ereksi
memutar
##enia
filipina
##bagaimana
##ontok
susun
berkh
peninggalan
##acamata
moj
##cal
image
##wijaya
berjanji
##acy
##irus
sho
##ebatan
##orientasi
lautan
##rot
tertib
finansial
liverpool
pengembang
prosesor
##grade
gairah
disitu
url
vic
terbanyak
##check
##alaba
##ografis
pemda
sisanya
muntah
##idin
nyawa
gemuk
##oucher
tarian
##bug
bendabenda
moder
oil
berser
tenggelam
kognitif
mess
merilis
sentral
##daftar
penderitaan
##jawa
antibi
copyright
##ward
usul
paradi
##saat
whatsapp
laman
cangk
shar
mayat
dataran
pemprov
lcd
##eth
meman
menstr
professional
island
pontianak
besaran
penyelidikan
##ilet
##los
handal
royal
##hip
ditimbulkan
perhiasan
vietnam
##hitungkan
andad
##nyas
##iknya
like
berakibat
ilustrasi
letaknya
hormat
dpd
##main
otoritas
##aling
##andia
balashapus
saldo
kronis
##ahabat
##enap
kekebalan
mesum
mengas
hakhak
##tain
madi
##yawarah
mpr
ninja
##etis
dikaitkan
tinta
mangga
cetakan
##uit
##ariat
bund
##ehkan
identifikasi
identik
syariat
98
merangk
memukul
##oph
menganalisis
##eny
project
perolehan
anime
street
##gaulan
##utanan
teguh
##aborasi
milyar
orgasme
room
prok
bedanya
sarung
bpjs
apar
nad
membangkitkan
##itraan
rekor
##ville
bara
jim
tahanan
abstr
maklum
##til
nyaris
berkuasa
asean
komentarmuat
penyal
barangkali
antik
berprestasi
##alifah
mid
##zar
##anch
##gant
pric
reading
dahsyat
##300
##ashapust
second
##jl
pemr
##afi
menyusul
pemak
ditengah
ditingkatkan
##overn
auto
pati
bersatu
well
euro
teri
penglihatan
##ratis
peredaran
bros
legenda
ringk
menyimpulkan
##angannya
buddha
##etas
airnya
##itus
##abus
perawan
rindu
terinfeksi
wayang
way
mencerminkan
sejenak
ash
senam
dual
##plorasi
alis
##ree
banyuwangi
wong
ungu
##0000000
jadinya
batubara
sepasang
smu
lic
shallallahu
html
abdullah
5000
paulus
jemaat
##ington
800
##via
produknya
##anaan
harapkan
##arget
permata
##car
##64
dicampur
##ds
option
pph
perw
##menerus
bertempat
bubuk
##itch
alg
hipertensi
buj
1970
kav
subsidi
pergaulan
reserved
daratan
mim
nh
##ecah
berlebih
vok
##ibatan
##hoa
olahan
perbesar
ternama
masalahmasalah
permen
sumatra
eduk
memory
220
template
diposkan
##liam
##zal
sandi
membalas
diur
anggotanya
cry
lot
kontes
##jad
ditunjuk
atasnya
obl
mendaftarkan
voucher
sesekali
sistematis
##ask
merayakan
sai
##enggam
##ovo
break
terusmenerus
poly
ustadz
oli
makmur
ugm
melangkah
domba
rentan
aks
paul
jahe
##ukupi
kepastian
donk
kpr
harihari
##idupkan
0812
dihapus
mengun
menaruh
mass
selam
dibuang
seharga
dicatat
##antasan
ceme
fair
ayatayat
durian
lutut
note
vo
siti
##asti
kapten
##angkitan
terdakwa
nilainya
berkah
menantang
##turkan
##nan
tempur
##integrasi
plaza
##anta
diraih
pengembalian
gran
##kegiatan
chi
karno
lup
##urangnya
lek
sangk
mahk
raw
mengakhiri
pembuk
perkotaan
fisi
mouse
berdasar
hitungan
##angsungan
##mana
##peri
##estarian
awam
##lek
dilakukannya
rot
##mon
memul
apresiasi
disuruh
pemut
##apasan
tiaptiap
bening
sumberdaya
anakanaknya
mengecek
yohan
##dia
kaku
arsenal
diumumkan
kabinet
##isih
##book
membuatku
##embahan
berbau
##appy
genus
tercipta
kumbang
perkemahan
pahala
keun
##tk
perlawanan
badannya
ditinggalkan
##egangan
##uck
radiasi
pendeta
menerangkan
disekitar
kanada
##emasan
##soal
##mun
propert
kelinci
##imah
hob
wallp
telpon
##73
health
develop
rilis
mix
komplek
clean
tercinta
orientasi
pedesaan
ple
kembar
##esday
pantat
young
sman
##vensi
tra
kandidat
mustah
##iya
kurun
kehutanan
##program
##ken
pungk
rumusan
dilansir
mengabaikan
76
xiaomi
##ategor
##anjak
tasikm
drop
sti
canon
dias
antioks
kedalaman
##wayatkan
akut
rb
diletakkan
takkan
balap
famili
gawang
##ungutan
ketr
0813
nyamuk
learning
tomat
nuklir
finance
cabai
sengk
tsun
##iana
terpenuhi
kontras
##imanya
diragukan
##lement
retur
hiasan
##less
##ingkuh
mengaktif
ditekan
kelengkapan
dun
etik
etnis
mawar
paras
tangguh
south
transparan
ui
##ipedia
menggabungkan
berteriak
cross
humas
lod
dy
menyewa
tud
##aaa
##ashapustambahkan
menggi
##uah
seniman
paradigma
##ugerah
keberuntungan
##dam
madiun
nang
kategoripilih
rich
##rof
eb
diken
##tokoh
##ajin
##egaw
komplikasi
tersembunyi
hidayat
segenap
persib
##ited
dihubungkan
brasil
##inn
pelayan
memperluas
ling
dna
penanggulangan
penghuni
penyerahan
scan
##alangan
##ication
asri
##eaksi
fut
rit
lokasinya
##bulan
bekal
pilihlah
kesed
pik
diminum
berwenang
legislatif
tiong
##eget
##adukan
##artikel
##alaihi
tahukah
##arna
menstruasi
click
sarankan
pemkot
menelan
serp
##par
sungguhsungguh
andr
##ursday
##sar
bawahan
contin
kontraktor
hm
dihindari
penataan
##sk
dkk
logis
serangkaian
berker
bersiap
kerabat
lingkungannya
rektor
jurus
penghasil
celah
pikirkan
sebatas
paragraf
farmasi
penal
habib
ditum
terbentuknya
kuningan
basket
kawat
##iklan
bertum
##ming
his
yas
bettor
##86
national
##ground
##vacancy
##impiade
james
paman
##yi
1991
##web
sambutan
tweet
vill
##injam
meminum
sukabumi
metal
medium
##dh
##yl
semest
pink
memberitahu
##daerah
magelang
speedcash
seumur
penyimpangan
##berg
##apahit
sopir
khalifah
##con
perdamaian
aki
tanganku
##adata
semut
sleman
##empah
khal
fraksi
mos
mengejutkan
keunikan
budak
##vacancynet
reputasi
bijaksana
##bilitas
toilet
##jok
rongga
##opor
##edisi
gaib
jobsvacancynet
taat
pemot
sakti
just
kepadaku
bakalan
##bentuk
drum
abi
tasikmalaya
##dl
##ajahi
qual
subst
pengerjaan
kij
##osfer
dijeda
rint
diatasi
umroh
any
berorientasi
berdaya
mendeteksi
##yaratkan
meyakini
pemberantasan
dijaga
##untun
pengarang
##istirahat
##asatelit
pujian
##pul
ngel
##ener
temui
bima
kacamata
kangen
junior
petasatelit
ov
ranjang
nego
pemenuhan
79
kapit
personil
kompr
paus
kepegaw
ronal
techn
lengk
dipers
##hai
tuesday
gay
shahih
1989
cikarang
beribadah
bantal
coc
intensitas
hadapi
komoditas
rm
##opuler
pengurangan
##engerti
##bag
semat
kean
##oe
categ
monday
tersusun
memunculkan
berjarak
duta
##qq
##alisa
##ucian
tengahtengah
majapahit
hulu
legal
tolak
peradilan
##pesan
##nb
silam
sekeliling
mahkamah
pengenalan
series
gang
antioksidan
##sik
##arkir
##ahmi
##uty
parlemen
dibersihkan
perkembangannya
daud
menump
tertera
action
sallam
sosiologi
##awai
##ograman
sehubungan
musyawarah
menerbitkan
pemasok
katalog
jet
aparatur
##rium
dekorasi
meneruskan
ikutan
##resif
##isit
nanah
berbunyi
diperkenalkan
##85
heheh
boj
miring
##ampaian
double
olimpiade
mustahil
##ikatan
piring
armada
##inator
##gia
amalan
membelinya
kehidupannya
cengk
##dut
##bisa
penisku
samarinda
tags
##alag
hatiku
romawi
size
##tukar
pemanasan
jaksa
terluka
##omen
##inium
syam
perorangan
cemas
##email
keramik
teroris
friday
keberanian
thursday
##oriz
##idur
##eme
##aparan
ks
terancam
##72
cermat
mengaktifkan
pergantian
wahana
eksperimen
peradangan
##utuhan
pengab
usianya
##news
##guru
kepegawaian
william
ais
##kum
hunian
##fren
##lor
##pener
bersemangat
mengutamakan
sejuk
yohanes
berolahraga
penggunaannya
##ym
##aparkan
##okol
comments
##ensasi
sour
##itiga
##gaji
andre
larva
timb
bermaksud
aer
##akatan
##ungut
ordo
##urnya
##annel
menimpa
kual
fas
ngak
##pret
##ican
##lebih
nuansa
bedah
##okuskan
##ingati
mengantisipasi
pist
suaranya
inov
kunc
kunjung
##otika
trib
singapore
pesona
klasemen
teater
dieks
widodo
kemauan
terhitung
##fil
##dah
##ipat
kiranya
menentang
##aktifkan
pengangguran
##anyikan
##adik
protes
menggali
##chen
banda
product
kemih
record
mw
##alar
pembac
mulutnya
##betul
##rikan
##aba
kesal
akbar
##efer
ego
##iasi
subhan
##uap
bapa
datangnya
white
##tm
subyek
beristirahat
melamb
dimilikinya
##pro
##rain
beh
cook
kuku
semestinya
##atim
demo
ungkapnya
##hael
vertikal
pengangkatan
elektrik
##endir
##uburan
dibunuh
penangkapan
workshop
cermin
ix
keberatan
##uster
esa
##inyak
##anza
secukup
##asilitasi
memperbesar
count
ketrampilan
##isu
tong
hero
kendali
##hel
##ild
kyai
lad
menggambar
##ambungan
kuman
adu
rawan
begitulah
apbn
##ernih
asian
##gantungan
merancang
bahu
##ido
tropis
menguatkan
sandal
orbit
##urian
##ayak
pasif
fax
##ecuali
kesenangan
tulus
sematamata
silabus
hindia
terjebak
pembuangan
meriah
##amal
iso
63
valu
pekerjaannya
##alamat
nampaknya
keterlibatan
##orb
alh
##lai
##anggal
##tal
##led
kebijaksanaan
##hawatirkan
kejuaraan
reh
##pura
disepakati
aspirasi
##nesday
kesamaan
personel
refleksi
pdip
radikal
##dem
trag
diproses
gluk
kartun
track
mill
spot
chris
115
amanah
penyuluhan
petual
lagul
revisi
sambut
muara
wangi
melemp
arch
diperbaiki
dikumpulkan
awak
##argetkan
bertaruh
core
ngobrol
misalkan
rujukan
menetap
esensi
##ambatan
##2000
##74
700
##onfirmasi
##ajai
analog
bill
ditahan
dimengerti
##resh
kesayangan
akhirakhir
pecahan
mengerikan
binary
kijang
kesep
inci
sambung
dikembalikan
diklat
##atic
melarikan
##selengkapnya
##market
blm
kedaul
khan
temantem
multim
##user
biodata
che
##oka
prom
##iat
##orge
fik
skema
##abang
ambon
penunjang
##95
berlibur
membran
friend
kedaulatan
helm
##intis
wash
siasia
mengusung
liv
paj
##edo
mui
prat
tsunami
central
banding
mengeluh
hardware
mum
##rang
tagihan
peper
##71
##ching
kongres
toll
secukupnya
pesaing
##pam
tokohtokoh
##ream
##pergian
##suite
bubur
sudirman
neur
menyesal
pertuk
smpn
diakibatkan
bangku
##ajahan
nomer
segitiga
dinasti
##ikasikan
##tuan
dikirimkan
##http
finish
pita
##akum
kekel
sumbangan
kompetitif
figur
dirawat
klor
##puk
posisinya
##ogl
##ope
darinya
ntar
pasokan
denda
persentase
##ebang
##bayar
intensif
##embak
lor
mong
happy
pertanggung
dn
##ahaha
3000
datadata
210
menyingk
indonesian
tempe
##63
kesabaran
##lap
kin
sate
##pdf
first
motel
piz
##alongan
astra
##ipi
##akr
xii
servis
views
pejuang
eksklusif
fad
manggis
thomas
ingatan
selebr
##ikalau
geografi
##akh
futsal
##riya
##usahakan
bocah
##actur
cb
hipotesis
sajikan
bina
adakah
##iranya
##oster
marga
merumuskan
gugatan
general
past
mahluk
##2008
basa
tadinya
klinis
ly
rc
##ekh
kejaksaan
mengantarkan
pud
silatur
kaltim
##afah
##ekanan
slid
##injauan
krom
nakal
selisih
pernapasan
##emon
suriah
ketidaks
mengulas
kaisar
diy
##efisi
ago
##fum
pemad
lampiran
berkala
timor
gugur
pengajuan
access
dilap
mendapatkannya
##rad
##eless
ledakan
menged
robert
berdirinya
demokratis
payung
tugastugas
taiwan
disadari
##sekolah
menyebutnya
mengamalkan
penciptaan
gond
##ague
bond
esok
##agai
kiai
sedap
##umbu
smartfren
tembus
##yid
##hen
pemant
sky
jung
mingg
sg
##edulian
rate
polic
##ormal
miliknya
tersimpan
##du
##juangkan
kristal
kamarsuite
##nnya
will
menghibur
toleransi
hepat
tubuhku
jejaring
membimbing
wahai
##atuh
wafat
dc
##anting
garagara
bermutu
kuantitas
memaksimalkan
##kap
meneliti
dulunya
petir
rag
kerip
wednesday
refer
##entina
parpol
energy
##bin
grav
sod
##ujuran
fresh
jenuh
pengamanan
menyala
sukai
content
portal
bord
##earch
kasihan
ptk
pukulan
mencukupi
enc
blitar
ketergantungan
berkembangnya
paku
kemand
nir
##ict
##ehi
##ime
##ompokkan
yahoo
conn
development
special
penyidik
##ayar
##fo
pencerahan
pertarungan
##eto
disetujui
class
channel
hk
##ird
hahahaha
##akm
##pihak
durasi
temantemannya
editor
kemul
pembina
gall
asalkan
##idiki
menggerakkan
aff
mlm
found
1950
tongkat
##endor
##yut
saturday
naruto
menip
bookingcom
tionghoa
##ansel
kebangkitan
dikurangi
requ
##kelompok
##120
##ekolah
daftarkan
irama
bersihkan
mung
keluarkan
kendati
pelaporan
penyi
##iayai
dinamika
##alakan
menandakan
penyajian
eksistensi
penguatan
bw
##ampaui
kontrover
rekanre
##impun
mada
##eur
keim
kelulusan
terpasang
##oshop
##field
pahit
diucapkan
fem
caleg
pranala
##jelas
stream
##ussalam
pekalongan
dwi
##wo
100000
ciptaan
rekayasa
##barangan
##irat
virtual
syaikh
##ishi
didesain
kebersamaan
step
who
syiah
73
89
##odifikasi
##ute
kebing
maul
##enci
##iji
##lokasi
siapakah
vaksin
how
##110
dikend
untukmu
berkalikali
cli
sembarangan
##rogram
##uke
laun
markas
uh
buatlah
##hum
##antar
isteri
trader
kesana
mengira
jln
##ehatan
sumut
terper
##ofil
kerana
relasi
cod
maxs
pendamping
panggil
geografis
tani
kebid
konsekuensi
singkatan
##tanya
hilangnya
mulanya
##entum
nun
kualitasnya
lanjutkan
tergabung
##dress
##amai
pembawa
digantikan
dibagian
jernih
bahw
sriwijaya
sedikitnya
integritas
sablon
rukun
bio
perwira
galau
berkarya
antibiotik
gend
assisted
rentang
##ventu
its
ratus
bent
memantau
##orn
mempercaya
reward
rama
bertu
lenovo
toket
karpet
hiper
##anjaan
##adaptasi
pembangkit
contact
dipegang
keris
bun
##alasan
pemrograman
yu
mult
know
##operatif
mulailah
##tiban
ganteng
asm
##otes
##ermin
menyalurkan
sebaikbaik
lembah
konveksi
##ctv
##informasi
##eno
nyari
##anduan
guest
mengizinkan
jur
salib
fort
##itat
fun
rezeki
kesem
notifikasi
##lex
##aktek
##pemesanan
sunday
perkan
tokyo
wel
voc
speaker
malik
##aaf
##bau
##artment
pertukaran
bai
##king
melamar
1986
betulbetul
##tisida
zain
berfirman
dilalui
1960
##osari
kebingungan
diaplikasikan
##iu
gap
lagulagu
##imas
bagaikan
sulut
##setelah
terbarunya
##odik
batal
logistik
mestinya
##pati
anggapan
vaginanya
mengikut
merekam
ditak
bik
fm
##angsangan
redaksi
masam
barulah
##iringi
bepergian
rekreasi
lahirnya
dina
ikh
sajian
secur
menyembunyikan
princ
penyampaian
evolusi
topi
##itory
##oterapi
senapan
##ices
ruas
proporsi
1200
gaun
900
usa
pre
oral
palu
silat
diteg
##atuhan
prabowo
085
peternak
##elor
diterjemahkan
sew
##opo
laris
prospek
simulasi
##hur
root
mog
cake
jes
##kb
lembab
kepedulian
##gad
diwajibkan
jazz
##ilmuan
diuji
mengevaluasi
puting
penegak
berkend
##igu
peperangan
##ged
##ersey
fiber
alangkah
akademi
handuk
dongeng
deg
##yarakatan
kualitatif
kebidanan
tertua
hill
barisan
singkong
##atus
ongkir
1985
##ility
penolakan
##the
kewar
veget
orangnya
pengaw
ink
##husus
dilindungi
##ampingan
niaga
##pos
anggrek
didampingi
menginstall
ditinjau
ax
mind
musibah
civ
mengatasinya
wester
feed
##apainya
berbisnis
##tro
1988
##onel
perda
dipersiapkan
avanza
atl
##etahuinya
beraneka
sekur
research
##ontan
##zil
seluler
##isnya
##uhnya
##wati
pertimbangkan
ceramah
insan
kubu
manfaatkan
berke
insiden
##optimalkan
cian
jalankan
block
victor
##ndut
##iskan
##imax
berturut
##ego
itupun
penerbitan
balapan
bertek
express
sea
singa
medali
##uel
firm
golf
silinder
tengk
perkantoran
publish
##ogp
kesibukan
saleh
haf
regulasi
##iliasi
##anggaan
##idana
##perm
##syarat
##istor
akta
##igurasi
menjadikannya
maag
dipublikasikan
##erankan
##rio
dangdut
##uis
pelangsing
kai
dipindahkan
wkwk
np
pencatatan
##ultur
kemeja
ted
stev
site
menjatuhkan
membebaskan
inovatif
##vertis
##surat
kasur
lamb
berlawanan
iwan
michael
##alamualaikum
genetik
daerahdaerah
bengkak
##olit
pembersih
legend
parfum
keilmuan
beng
madinah
86
##antul
##empurnakan
lilin
sengketa
kabarnya
##yas
mengamankan
geng
seder
light
dipertimbangkan
dendam
##tional
kiat
hlm
berjualan
ibarat
mengantar
##tt
##dip
demonstr
wo
bocor
kelelahan
bia
##ganegaraan
##ejala
dicetak
wikipedia
conc
trauma
##adw
kista
212
source
north
photoshop
##pengumuman
priceline
kearah
sumbersumber
mars
##ribut
reguler
##usahan
secepatnya
nulis
areal
##enazah
sombong
##ead
kooperatif
pepaya
mengem
loy
##ardi
##apatkan
expedia
74
seratus
diberlakukan
##iew
frank
##endi
fleksibel
##ormat
qnc
centre
##dasar
now
97
ilegal
pelunc
menyimpang
tank
##andra
bioskop
rod
singg
diup
ibuibu
bermula
rating
##oksida
percepatan
mts
terapkan
##yahoocom
serviks
diponegoro
pasc
1987
##dal
kondisinya
menuturkan
berkeb
bahasan
##ventus
koma
keluarnya
menemani
pemulihan
##coba
##estarikan
disambut
penjuru
pembimbing
ribet
##pur
itb
##ette
ill
##abupaten
ade
bpom
##abek
jumpa
links
##elakang
lanjutnya
anemia
##nusa
50000
##oard
pilot
cost
zen
##ereng
terbenam
##ature
##implement
##ultasikan
sambal
##olasi
##ebas
mahkota
##osom
##aksian
nature
viii
mek
kemah
intervensi
konservasi
sesak
##efisien
pegang
abstrak
pegangan
nich
heboh
aktivis
##87
diwar
detil
istriku
##ayanya
menginj
##ania
memuji
lestari
jenazah
##alon
massal
bantul
jikalau
##tuanya
pki
rio
ikon
1984
##orak
mons
tatan
dikabarkan
##med
##imi
##apis
magn
##bawah
payah
##embahkan
didunia
flo
sirsak
asalnya
nominal
juventus
siswi
dirasa
giliran
pengamat
##ulaan
kelangsungan
tangki
##ubur
pemukiman
##oki
##84
sekretariat
kebangsaan
##basi
didepan
cabe
hadist
##irnya
##ocity
janda
syaraf
memotivasi
kejujuran
laporkan
kipas
##eliat
quality
180
ampun
academ
##anduk
kemac
##vel
membenarkan
##iff
berked
capek
terpengaruh
shal
alamiah
berkenan
ditunggu
##zu
##mati
jersey
##acap
bereaksi
##anamana
karyakar
##utri
atr
##isili
##uburu
mengungkap
rendahnya
didominasi
berkec
##rum
tesis
gps
##tle
selingkuh
##erahkan
##but
garden
##kantor
terjual
migas
dihukum
fast
##edu
multimedia
cell
##ailcom
visa
harry
warnet
kerudung
prosesnya
semalam
silver
sekutu
tki
##ipang
benarkah
seketika
screen
membas
pengabdian
##ungkiri
sesat
paud
diteliti
##ajaiban
melampaui
membina
##hukum
##kuit
dihubungi
82
##transfer
##82
##kam
sembari
jawabnya
lendir
##rong
##sed
rest
pencah
panj
dikemas
keliru
cucu
pihakpihak
##cp
kado
profesionalfoto
pengendara
##etapan
anugerah
pembunuh
darussalam
dokumentasi
##rag
mekanik
##orter
pelaksanaannya
amir
tempuh
zul
panik
aura
paksa
##sangat
himpunan
rontok
saudaras
pasuruan
puji
memus
terungkap
see
terserang
memprediksi
##usta
timnya
tembaga
mengkaji
frame
penerangan
kred
##auhid
##cer
##yyah
disingkat
##enjata
##obe
kesiapan
##ungku
terkend
##idangan
84
terob
masehi
efektivitas
bermimpi
tower
rangsangan
jago
teladan
membatalkan
##yet
##ianto
pemiliknya
terbangun
lh
##apr
ttg
penghitungan
61
teringat
client
##mobil
keberadaannya
polsek
##rahman
dharma
##opang
nunggu
kemacetan
konsol
##mes
##anger
##iano
kemitraan
mengusulkan
glut
kebanggaan
pssi
##83
tayang
##cle
##pora
##97
##alla
dadanya
##sumatera
##yana
netral
ikat
swiss
dimuat
##bagaan
saking
east
slam
mengharuskan
policy
##ontakan
pengacara
penegakan
berkomentar
##ips
kela
##hawatiran
mengangg
imbuh
plakat
##ipkan
##elasi
pow
terintegrasi
aluminium
retail
dibakar
##balasan
stan
agresif
programp
buahnya
keimanan
peluru
memberitahukan
fotografi
klaten
##alama
##ikapi
bersejarah
pamer
kesak
##db
lihatlah
desc
##usif
##jar
glukosa
komandan
tuturnya
salon
kios
imbang
##akel
meluas
pembalap
##bie
pasangannya
knal
mencob
##tris
yudh
rsud
memajukan
kurus
son
96
##itim
cianjur
menghalangi
berburu
eko
yoga
bath
substansi
##ongg
##180
rebus
##ository
spontan
parameter
karyanya
didefinisikan
taksi
ajaib
benci
tebing
apotik
ruu
dw
peter
hakekat
##enyap
permulaan
mutasi
nic
study
##lasifikasi
penutupan
basic
kehar
##alisi
harmonis
##acun
##ilbab
berkes
som
##olio
patri
##sari
bakti
exc
sambungan
##presscom
##efl
##oho
##awak
##ulum
educ
lapis
melancarkan
simpel
address
kekhawatiran
menghidupkan
##industr
koordinator
pilar
83
sepat
cool
vendor
koc
fitnah
##ruk
menyimak
##epulauan
setinggi
diamati
pencurian
##ray
##fc
sekiranya
date
hepatitis
pizza
komunis
kondom
##yakart
kolonial
akreditasi
##nt
##areng
##gin
fajar
##sw
pabrikan
luhur
curah
kulkas
lodge
community
zait
pertanya
##raw
neraca
btw
kapur
##yim
alb
advertis
##ilagi
meninjau
value
jaring
##ubang
pendingin
##tips
kulitnya
##akala
indahnya
##alifor
##truk
ach
##aserb
##stal
mendapati
dialah
ios
short
selangk
##apor
##ingi
kingdom
ulangan
##ax
reseller
koment
##ipulasi
doang
penggunanya
ngerti
##ancuran
polusi
bersahabat
bertarung
moham
dibicarakan
pup
panti
kurir
berandapasang
rand
bej
sejenisnya
##eon
mint
wijaya
##cerita
week
jeb
bela
mojokerto
mebel
pendeng
##ijen
antena
mengecil
distrik
tambahnya
merespon
penyaluran
##epannya
dibagikan
dipaksa
badai
##sg
qq
terkecil
tangkas
yup
diagram
cemb
berkhasiat
##py
##terior
liang
##aukan
##xion
niss
##idge
testim
kawank
ey
arteri
##urai
premier
##ters
informatika
##icom
##afasan
tay
pkb
ppn
indonesiat
ciuman
##hot
syekh
##ete
terorisme
desktop
##hhh
perhubungan
##62
riv
##menurut
xp
ronaldo
mail
programprogram
hey
##idap
misterius
##umat
american
galeri
memand
tertidur
memperkirakan
tegang
ntt
beranggapan
berkendara
notebook
##baca
mach
camat
leluhur
mengusir
##pus
paruh
fatal
payud
penarikan
pasifik
81
penyalah
persia
untungnya
hall
pembengk
layer
##investasi
simpati
gmn
##alifornia
ig
gatot
motogp
##elajar
##eber
##dm
##urg
dimanapun
jup
dikit
golden
gemar
##fir
##oreng
##intasi
panah
obligasi
optimis
league
##list
menggun
##ukanya
aktiva
mengemb
mungil
akad
digemari
gabung
pinggul
warnawar
##ful
penafs
keberangkatan
pig
##uting
pahami
telat
##turan
station
keajaiban
menandatangani
105
berant
uda
racing
##egar
loe
wol
saus
only
turis
##elus
kependidikan
travelocity
ost
diesel
timurkalimantan
pernafasan
diobati
zaitun
gp
kuala
##fan
pai
momentum
mikir
##mend
1983
angs
jombang
kejutan
kemenag
##alukan
kaset
##eu
organiz
230
airport
pondasi
##ancaran
##omor
ess
demak
diuraikan
stud
##gmailcom
kuil
upgrade
protokol
msi
ball
keyword
nitr
rawat
pemantauan
duka
tangkap
menembak
lembag
##entasikan
bercak
##sif
peluncuran
soalsoal
##cus
##enario
george
dpp
menegakkan
##jawaban
berkontr
dijawab
perpindahan
##jk
dukun
takdir
meledak
##baban
edukasi
dress
bagai
imaj
cah
1982
eun
bersep
maut
##imia
terjad
harum
msh
stabilitas
state
cilacap
perpaduan
##abisan
peramp
persatu
berkenaan
salat
musisi
dahlan
family
lut
profesor
politisi
portugis
balok
bungkus
merep
##uliahan
arahan
membacanya
tatanan
##ball
##elengkapnya
fish
manufaktur
ntb
mengasih
utusan
western
pusaka
pemberontakan
imbalan
##iskusikan
stain
irak
getah
pelep
bersel
purwokerto
onlin
berturutturut
akupun
##istim
##esona
kemaren
##orejo
memut
prabu
melukis
##ampirkan
##yadi
##makanan
##ako
wallpaper
##masyarakat
##esitas
gender
propolis
##sun
asin
jgn
berlangganan
font
##idih
ruh
amanat
script
211
##jauh
ditandatangani
bait
acak
##fac
grad
keenam
penyerapan
##ombinasikan
disemb
membawanya
penjelasannya
##93
jilid
informasinya
sutrad
subsc
kepeng
##edah
membaik
keji
##anggakan
##imbau
mengelilingi
perlahanlahan
raih
asik
cheat
ideide
##uare
corporate
direksi
##iptanya
##mesin
za
icon
corak
yeh
dilew
bernaf
123
##yani
menawan
menanggung
##asaki
sbb
lemas
panjangnya
kemandirian
##ebaran
##uncur
keatas
##wana
##ucap
diprediksi
bercampur
##92
dipertahankan
jemp
71
penjajahan
shin
skrg
##iskusi
memak
lagilagi
penas
japan
fundam
penduduknya
##ody
tonton
what
kuny
##wid
##eksiko
##trin
berdosa
christ
##abilitasi
##lanjut
penggantian
kard
vixion
pasta
perantara
merapi
she
##viet
kartini
syair
california
velg
adap
bron
kelembagaan
cluster
watt
ekspedisi
elas
jangkauan
kesaksian
##utra
##dar
lega
gambarnya
transformasi
herpes
meren
##overy
berkarakter
smas
##penawaran
##awanita
perf
menggoda
paste
##enan
##enag
jambu
kuta
hajar
moyang
##door
nissan
messi
dihentikan
pemotongan
kutub
##aah
menyis
mencantumkan
##elitian
penyusun
keraton
old
##murid
daniel
perbaiki
laser
kaka
kuar
##mit
##uara
atribut
diceritakan
meniru
mush
jkt
terin
##ukar
##ante
sav
publikasi
dum
##nk
security
##diam
ekstrim
##romo
komis
berdekatan
##uff
equ
interaktif
ditel
eksekusi
tahuntahun
realisasi
hadirnya
terkecuali
##456
##istri
##penerapan
menenangkan
flora
##rd
menyakitkan
kalaupun
daw
argentina
ataukah
##700
amino
magang
biologis
putar
aksara
knalpot
kutipan
konversi
bertany
wirausaha
memfasilitasi
##okasikan
menanamkan
kesempurnaan
kondusif
##erap
bergaya
terbalik
tercepat
##meny
deras
memasarkan
made
akh
ladang
santa
valent
pembebasan
color
satria
prasasti
jenisnya
##ampilannya
integ
zh
##cantik
pertanda
##1200
inisiatif
bergaul
tertangkap
solar
cctv
atmosfer
sejatinya
subuh
have
ketenangan
##ategorikan
developer
merak
##film
ibuku
syaratsyarat
##aguan
imunisasi
pembengkakan
purba
dekade
##usk
kulihat
##pertanyaan
idaman
ndak
bantuannya
##esahan
dayak
last
snmptn
##tujuh
sial
diand
kemuliaan
kecilnya
administratif
didorong
perancangan
##amas
ipad
##oyono
##nn
petualangan
jay
bukhari
sihir
tj
akum
diwujudkan
bawahnya
##orbanan
kewarganegaraan
##empel
girl
php
buil
trade
##eria
ice
mending
wkwkw
repres
##etelah
minus
##agihan
lemon
##hana
bentukbentuk
pelangi
tauhid
gelang
piutang
##oyan
menduga
streaming
price
yogyakart
bd
##opsis
beauty
steel
##entur
meet
##epit
tembakan
melingk
fau
murai
##bek
jahit
komplit
tunduk
##nyak
lint
karunia
##prom
mai
##aging
desainer
##vo
##angsur
antiv
porn
adsense
didi
pemutih
koq
cintai
##urasi
##etapi
##ages
berwisata
name
barangsiapa
rach
wireless
mewarn
##250
bisakah
integrasi
menakutkan
ril
perdebatan
##rie
drastis
supply
fal
betah
bermunculan
pembatasan
ready
##satu
keta
satpam
fauna
##indra
pratama
mitsub
masyarakatnya
kaleng
dideskripsikan
nop
anat
##arau
gund
##anjur
wap
##won
menyalahkan
goa
menanti
kewira
##umum
statis
dilepaskan
hair
bertanding
##esat
pipi
pemeran
mengulang
kesuburan
##indarkan
dikendalikan
komando
denganmu
renovasi
diplom
##otak
kelautan
##eferensi
norman
pangkalan
fatwa
meremas
turunan
dirjen
soviet
hits
cast
##hor
##ealisasikan
puj
adiknya
distro
##uz
govern
dirumuskan
keas
pelengkap
##sch
syafi
bagiku
##tipu
didengar
tetes
pengkajian
serbuk
selat
anakku
malem
jos
dilepas
flashdisk
menjangkau
meksiko
##yog
rekanrekan
##lywood
##alembaga
kemir
mengutip
kilogram
nuran
##ritik
kompreh
##osip
tugu
melompat
objektif
##situs
##emi
ismail
sutradara
katun
hasrat
bani
urin
moneter
##aut
mendefinisikan
kebumen
privat
dida
front
rambutnya
160
browsing
##red
mancan
kreatifitas
mengoptimalkan
property
reset
##esty
##organisme
catur
1600
teripang
getaran
ketetapan
kontra
##umer
##ingankan
menyembah
urban
menyet
sebenernya
diagnosis
##erior
invest
melambangkan
sale
berpas
iseng
##fic
##eterep
##ekaragaman
klip
jud
juri
pengorbanan
perluasan
menata
##stone
##ocopy
##imat
peraga
##perubahan
##ulur
selaput
belaka
##reg
##oci
safety
terserah
brun
noda
fosil
mabuk
sebaikbaiknya
banner
##ault
##ident
##otbah
suruh
##araku
makn
monster
serum
sulsel
mendominasi
mengind
mendidih
130
cewe
terjatuh
lebat
tools
##2017
banyum
manamana
##maka
##resep
yani
paper
##endik
##tatus
##ugerahkan
mewarnai
cicilan
##inggo
pemikir
perkasa
animal
lansia
nugr
sedekah
penyalahgunaan
atasi
mengklik
##imut
ultr
kuantitatif
tuduhan
kelancaran
touch
obesitas
beranjak
sejajar
pengungsi
perpanjangan
mengoperasikan
##opedia
nasihat
kecemasan
##logspotcom
penghubung
ask
thread
busuk
genap
oppo
spo
memperjuangkan
kuburan
##sihan
mempercayai
##etiap
santan
dilatih
mitsubishi
hotelhotel
##kon
pengemudi
tatkala
saint
berujung
related
injeksi
kerjaan
serpong
##zy
niscaya
kostum
varietas
##oshi
kependudukan
swedia
##nus
##inho
##hul
##94
dipungkiri
kewirausahaan
wad
dog
diriwayatkan
andah
prest
serentak
gum
##parkir
##lokir
##yuk
diserap
pendatang
##ores
##onymo
muridmurid
lsm
continue
berny
aids
##icau
aktris
seger
##obel
koreksi
memerintah
ekst
wahid
##istribusikan
komen
mengetahuinya
##akmuran
##syah
ucapnya
##yad
testimoni
kupang
melanda
blora
lbh
kebug
tendangan
konfigurasi
##alau
##obo
jarij
menganut
orm
negosiasi
kafe
susilo
cyber
bkn
salju
dampaknya
adip
sig
penul
teknisi
##ariku
khil
humor
koin
mempergunakan
perab
seneng
poster
progres
tayangan
pembacaan
penampakan
berbuka
tara
ranah
##acid
hidupku
plug
mani
##ft
daur
memasukan
##insik
mancanegara
##ondong
##ces
##bahasa
##elangan
beradaptasi
##mis
proklamasi
##epuk
##implementasikan
skenario
##orbankan
dipec
pemisahan
##roskop
popularitas
kelembaban
nias
money
number
ilmunya
1965
membantah
mendarat
gorontal
##apain
peka
##izen
##draw
kriminal
##arki
penyar
##ipa
menari
rim
melimpah
narkotika
btn
montok
##replydelet
perkuliahan
suamiku
betting
dipasarkan
adaptasi
balon
##sir
diandalkan
ditanyakan
##urnal
350
sirih
dara
##aritas
py
buktikan
zatzat
satupun
##edang
mahasiswi
##ities
menghendaki
##erial
bersinar
140
memint
##ano
##apasitas
kapolres
kunyit
##rem
udh
pengaruhnya
##pat
##estan
makro
tembakau
##lh
separuh
##kesehatan
##cang
##agic
sewaktuwaktu
insulin
aplik
koalisi
sexy
memperpanjang
semasa
##ason
information
bersenjata
##balik
ketiak
##kitab
menyeg
##adalah
dibayarkan
services
dt
paspor
tunas
investi
neh
##upas
iritasi
mood
kelihatannya
pelopor
bohong
##iruan
##isisi
mencabut
rutinitas
##ometri
waris
menud
denger
dimasak
gsm
##odet
##efek
##presikan
tekad
mendi
##gg
##unduran
seraya
##esti
93
kebugaran
texas
mesjid
##roe
penari
buktinya
anwar
species
stamina
##untik
sku
yatim
kompensasi
fals
cuti
rumahan
perpajakan
##tore
persidangan
brosur
mengawali
##ondo
masamasa
berstatus
lil
fred
##ananya
lia
martin
lit
percetakan
jasad
##eal
##amatama
town
gejalag
barunya
leluasa
bertel
mater
partner
alba
letakkan
komprehensif
sian
dihargai
melintasi
bromo
##ane
menyad
diwak
nasionalisme
aji
##bb
##epankan
kekal
nasehat
tanduk
##arl
##proses
##php
##anak
##imbangi
##andangan
##hrop
##61
menyatukan
mete
bersabar
berinvestasi
1300
sung
bergantian
pengal
berperang
berdiam
perselis
mount
lampau
##checkin
mencarikan
sistim
turunnya
mencic
lebahndut
##ultanan
kedepannya
##agor
pendarahan
kubur
menunda
##lahir
##ashi
local
nasa
indom
sesuaikan
##ql
firef
mengaplikasikan
##alahannya
ramadan
skin
##alo
empuk
pertanyaannya
##anggang
hendaklah
##oplas
berdiskusi
dihadapkan
meringankan
##amil
##jaw
gorontalo
0857
antib
mengetik
diset
##beli
##pri
eceran
peminat
ubi
pengap
pelantikan
tanggungjawab
jalani
1400
lux
ingatlah
##online
##jang
trick
akuntan
dihilangkan
##izat
##agri
gelisah
dibekali
pembersihan
kecakapan
great
tribun
makanannya
horiz
relawan
##nie
##cor
##arium
pembek
historis
mustika
kerak
sert
anas
struktural
##kec
##eae
##alamannya
financ
notaris
taktik
##gung
010
##lukkan
nek
##ymp
##beb
##namun
##iap
privasi
gunanya
##kup
pembesaran
keanekaragaman
duluan
##usanonim
berhubung
kontraksi
##unaikan
##room
tuban
kopling
kemari
penafsiran
##olongkan
rezim
ramb
radar
negaranya
##alapak
bibirnya
yudhoyono
diad
praktisi
##burg
perlunya
betawi
spring
digit
diperd
mayor
almar
keterk
mahir
cho
cin
kawah
boss
##aci
johan
mantra
##erit
gian
##ingkungan
republ
neb
kehabisan
##iannya
samudera
87
##unggah
yeah
asrama
##akarya
rempah
##ely
##urug
kees
beku
antivirus
pemungutan
maafkan
official
poros
92
ditanggung
##emik
##besaran
penerus
##lit
fly
##kata
repository
sentuh
uangnya
prinsipnya
sentra
penggerak
mengecewakan
selagi
nm
rd
##angsungkan
##merce
cpu
acer
diundang
ilmuilmu
##part
perdata
##pulau
extr
county
kamarnya
residence
malahan
maf
santun
ketegangan
##hm
square
semisal
minahasa
habitat
##otkan
hilir
##atin
faktanya
bps
##eksikan
##ampakkan
##rup
0800
terinspirasi
nyatanya
imajinasi
ketert
tpi
##akta
skpd
##tri
berbatasan
sekolahsekolah
kompor
bergel
##download
##ring
##ampiri
jang
nkri
dikategorikan
##atannya
##81
##oya
kelola
interpret
tampan
praktikum
kaitan
manusi
kecap
longsor
##upkan
##ifer
##aminasi
##indukan
kesini
partisi
bagaimanakah
bocoran
##asing
matic
untuknya
kagum
toba
outdoor
menjelajahi
rank
##ll
##esek
##adz
absen
haus
##sia
beracun
pertamatama
jihad
diperhitungkan
kemarahan
##imer
ketu
transisi
berterima
ombak
door
entertain
satwa
urine
menyangka
memanjang
agent
##osankan
herb
bingk
##ortel
jeans
semudah
##incang
kegelapan
benak
dikeh
jamin
##konsep
broad
koefisien
##2007
##fitur
mendesain
soto
dihadapan
##memb
pensil
hidayah
##onymous
expl
##adab
wasit
##tuliskan
firefox
samudra
majikan
kesukaan
bertanyatanya
vokal
premi
##model
pemicu
fifa
perselisihan
sinilah
maen
##kelas
tingkatkan
berulangulang
1981
kemarau
##krim
ping
pkl
bertambahnya
pdam
og
alhasil
uin
melon
213
##eraian
silang
karyakarya
hara
wisuda
suap
heart
membolehkan
khat
##onet
##ulik
biak
menganalisa
##isin
##goid
aborsi
##ohongan
sedikitpun
sos
taraf
tunjukkan
jelang
lagunya
135
lembagalembaga
berbaring
dream
paparan
kontemp
kuas
##utat
##ison
guar
kelaparan
sampingan
comb
meminjam
watak
##esia
naj
rotan
membosankan
titan
##elkan
dikelilingi
##edes
cha
mengundurkan
##amon
bukalapak
mikroorganisme
eksim
fk
paduan
banyumas
##wire
##anah
hello
nit
kesedihan
syd
pinjam
pakistan
##odetabek
seharian
selangkangan
101
liputan
display
##arep
outlet
kelayakan
hibah
poc
ont
guruguru
pestisida
switch
pix
alaih
keharusan
ketujuh
memaparkan
##orma
tulisannya
kontin
tg
##bidang
memperlakukan
case
abuabu
unjuk
merem
berisiko
board
rend
##point
melaju
terpenc
##gai
##ebird
jk
128
penampilannya
penekanan
##audaraan
kolaborasi
slim
seakanakan
resm
disahkan
permus
ngasih
##awijaya
duni
nuh
supermarket
rehabilitasi
##ury
##ayati
ahlinya
##igo
wc
diteruskan
perceraian
holiday
##hah
##ription
##obud
##wordpresscom
pcs
##timasi
memengaruhi
bisnisnya
ketenag
##qi
diamdiam
##tipe
rejek
moth
diulas
##etampilkan
meluncur
komisaris
##alaminya
sadari
angkot
memperingati
pemainnya
mengasihi
kepadatan
##oon
##far
deskrip
##bor
olymp
curiga
story
megaw
diskrim
kuhp
##udid
hentikan
entitas
##sman
berpisah
pewarna
curhat
syahr
##adana
##masih
gejalagejala
oleskan
pemberitaan
melati
##loitasi
membesarkan
penentu
##intangi
membuah
iskand
belitung
subang
##atukan
inis
report
kemasyarakatan
##ahului
asset
##ibar
thr
##enerasi
ganas
tembolok
##asik
##bc
horizontal
##abangsa
yos
melayang
##erboard
berpel
marak
syarif
ketebalan
pebisnis
##jal
mukmin
obama
##askus
minor
doktor
diperintahkan
##iasakan
education
genc
plasenta
modus
syn
##face
wall
ceria
bulannya
try
memil
##copy
salaf
##peria
mencobanya
algorit
yogya
dot
sempr
##endahara
112
##undry
##ehehe
##jurkan
rin
kurma
entry
umkm
pemakaman
##rok
pembuktian
berobat
terf
sara
gugus
penganut
dicuci
laks
##edahan
bernyanyi
micro
##eseran
pengecekan
mered
berbohong
memproses
pelestarian
##iaman
belgia
##umbangkan
terlarang
kacau
##engat
fiqih
ilahi
jackpot
dikelompokkan
slidetampilkan
keraguan
terawat
cum
diharuskan
terputus
vimax
##bumn
sag
empedu
persaudaraan
pendanaan
serikathotel
##oles
fiksi
##400
please
literatur
moment
pendengaran
categories
perbuatannya
irit
sinus
wortel
rpm
duh
##cha
penyidikan
night
menyingkirkan
coff
##olar
fotocopy
julukan
eka
##jb
seny
ath
##91
volt
##alinya
mempertanyakan
##wara
##oharjo
##ansyah
trail
emisi
katup
keuntungannya
##inggris
gurih
gantung
kemakmuran
resepsi
berisikan
berkapasitas
jomb
##pack
plasma
hatimu
##ebutkan
informal
ketertiban
saudaranya
jemput
##dak
##ambyc
##luas
##ambycidae
oven
ext
##onstruksi
wanit
makeup
##wu
hacker
dasardasar
##aafkan
1974
base
##dayakan
mencur
kebesaran
cakupan
##oordinasi
tegasnya
##umpah
##aspek
idr
mengendarai
verbal
crystal
ce
charles
harimau
xenia
pembuatannya
jp
alim
rekam
career
##wp
academy
diseluruh
bertuliskan
kawankawan
upt
mengunakan
##rr
##une
##yon
##buhi
##amanannya
hayati
lec
puri
##istimewaan
pinter
menggug
yi
vent
monitoring
mendampingi
register
kejam
20000
hern
jong
dst
menumpuk
menghar
##andung
luang
ppp
sif
##enggal
saing
##ege
##other
rawa
nipis
melacak
https
##olitik
##integr
washington
boom
##ografer
ciptakan
sambutannya
dimungkinkan
pinggiran
pelepasan
##loud
##update
masi
monyet
##len
##dil
irigasi
auditor
pulih
antrop
##ncpns
bangsawan
membiayai
##uhu
marilah
ponor
keser
bojonegoro
pelayaran
melestarikan
##mawan
pinang
##lanjuti
perokok
hidrogen
foot
##ashapusanonim
koh
kawasaki
seksama
##entik
assalamualaikum
laf
arya
terduga
temu
menyikapi
penyerang
pelac
keesokan
tehnik
##sos
iptek
##formasikan
carilah
##irin
bintik
jempol
optik
lamongan
ormas
##lock
##yung
##comp
##perk
##inian
beat
##zen
dorong
parasit
guys
abdur
menyertakan
pemasukan
leng
prostat
##alk
demonstrasi
pick
dipelihara
pojok
sgp
##inang
##egon
##00000000
mement
dilantik
memaksakan
hotwire
pertambahan
##bandung
tebu
gandum
fah
aur
diserang
##aster
beraktivitas
##mud
##ombaan
tautan
background
##1000
anis
beratnya
##intesis
bergi
riil
##opoli
##amerkan
kidul
##bumncpns
215
terlahir
##dp
sekolahnya
brazil
kiriman
meminim
shock
gok
##otakan
saji
mengga
##orig
##okat
insyaallah
fantastis
olehnya
##fur
steril
imut
##anten
##islam
wedding
berkonsultasi
lapor
fermentasi
##egaran
##ername
eksplorasi
pemadam
menganjurkan
akik
lont
sni
filosofi
yerus
aduh
terpopuler
derita
nurani
kembangkan
##arui
mendekatkan
bangsabangsa
##admin
sebanding
elastis
neger
penularan
capsa
berkompet
sydney
kanc
ganjil
##ukainya
berpusat
gurunya
##uangkan
0856
perpisahan
##ibr
terhormat
profile
punc
##pap
##tiar
##eport
##adwalkan
tekst
konselor
terlupakan
##batas
taruna
##olet
ara
besarbesaran
technology
kediaman
deket
indonesiap
korpor
mudahnya
berkomitmen
megah
days
mikroskop
bc
aisyah
##diulas
##kasus
##ude
berkeliling
membawakan
here
liku
version
nila
##asannya
mengadopsi
deklar
lurah
based
pv
dimak
eksis
flan
##ejar
rakyatnya
lock
hap
rossi
banking
oo
hana
diputar
taufik
amand
perbel
##eee
saku
keli
cukai
soo
perumusan
penisnya
bagimu
berbuah
penjahat
kesembuhan
berfokus
hs
##umas
kesultanan
menelepon
lake
cimahi
kejang
##ife
argumen
##520
mertua
sulai
##inger
sink
lupakan
bersaudara
matius
bendahara
jumpai
##mereka
ekspansi
yur
abrah
kekec
default
fix
gonore
manakah
jabatannya
##ision
undian
keripik
runtuh
##ekt
lepaskan
##amad
##egasi
##nel
tinjauan
diberitakan
##unge
navigasi
diabaikan
penyemp
##salam
angsuran
##iqah
cepet
##uguhkan
##bukti
cbr
menabung
jendral
berminyak
melintas
disem
perik
tuliskan
##sit
##oting
##iteknik
metodologi
##entrian
##layanan
##epr
kerusuhan
94
camera
lev
##titu
melun
dimasa
kurasa
konstruk
kolektif
karat
##dn
dibenarkan
kemerahan
##utamaan
indrama
##icky
arj
licin
hasyim
maknanya
memperbanyak
ketiganya
##normal
nitrogen
dipan
diizinkan
##asem
##resiasi
##erangan
sabda
##untukkan
morf
remote
religius
ting
kebenc
unduh
jauhjauh
plur
portugal
##fast
##aannya
##arta
##jemah
agamanya
##gy
dicabut
gara
pent
pemohon
jengg
bsa
diklaim
mendo
terampil
##opter
membuatmu
yung
kementrian
perbelanjaan
smua
setelahnya
##itive
pikirannya
bkd
kapanpun
belakangnya
fundamental
sumbu
##langga
menyelidiki
##hou
merpati
diperkuat
ditayangkan
processor
menyegarkan
khus
jatah
perlombaan
##tures
moz
chic
##buhannya
kebenarannya
own
jabodetabek
rahman
##kak
vas
##van
menjemput
pergeseran
##eff
ponorogo
patokan
kkn
mengenalkan
kompres
gerai
##shar
mazhab
##ijat
mej
keistimewaan
##alim
diutamakan
stor
kalbar
##upsi
bertepatan
##original
##akuasi
##duh
financial
##obudur
menariknya
##letter
xperia
menggantung
##sep
duc
dibu
##asiatnya
1900
negri
sbg
1979
terpencil
posts
nash
jurnalis
dominasi
orangtuanya
##etaan
##urutan
##angkab
##intern
dry
##edy
siaga
birahi
menganugerahkan
cris
panggul
##orama
bersantai
alph
pod
menyakiti
1100
kompos
ketahuan
##odohan
router
##ufactur
ves
##bubur
membenci
103
tasaw
dicintai
##iram
kib
doktrin
qiu
pisahkan
kd
##ulung
##tw
biografi
ngan
lovebird
menginjak
terbaikjadi
ceo
idola
ox
##kej
repotpesan
epid
naw
##anga
spanduk
##ikmatnya
rumahrumah
kantung
##assi
aqidah
capai
mali
dragon
laundry
##nama
##enture
##ocoran
ktsp
menunaikan
##ertaan
diperlakukan
##ekuatan
teologi
ente
gagah
pdt
budha
menipu
dzikir
senayan
kemunculan
save
sirkuit
108
1978
sinopsis
pernahkah
##rajin
##uban
yerusalem
menafs
penuaan
##ailah
tenis
beneran
##aganya
berbah
##sudah
motherboard
##ahir
keragaman
##irakan
pembaharuan
probol
##hd
grade
##cul
mencolok
waralaba
terakhirnya
##akerjaan
space
provider
##ianati
bass
organis
kekh
terigu
menikahi
iskandar
memikat
seberang
zi
wood
magic
putera
paten
##plus
dup
pgri
gg
lion
beta
memberinya
tragedi
disembuhkan
##rt
memacu
##indaklanjuti
intan
mengangkut
paypal
kerbau
menebak
tersed
fur
uterus
yach
diiringi
teratas
pengaman
ngaw
fiqh
diusulkan
hakikatnya
mengedepankan
hipn
sumbernya
menuai
jon
pastilah
##ajaan
blognya
##cap
entertainment
##time
interview
jut
##page
##ogiri
##menc
inspir
sumsel
##trad
##lalu
pasrah
##nyam
tetaplah
asmara
##itra
mengeb
hijrah
##elon
keseharian
filum
kulon
username
field
henry
genre
bertrans
gaul
bahwasanya
undip
kepal
sendir
anna
science
##hp
kurnia
borobudur
algoritma
plaf
sujud
arief
didaerah
sumbar
##ulat
semu
panggang
kiper
portof
bankbumncpns
nyoba
wang
balan
sikat
mobilnya
pandan
pmi
ukiran
kecanduan
pendengar
indramayu
teriak
ummat
175
graha
lereng
disp
deskriptif
##sesungguhnya
richard
##erson
kakaknya
indera
##ideo
berbalik
114
##belak
terobosan
##pilih
keterkaitan
##post
##ogi
##wai
##125
##reneur
##bukanya
##selain
##uro
resto
salim
ditebang
##idrasi
estr
nal
disusul
anu
gusti
abraham
jarijari
vet
prodi
counter
perlukan
##enankan
sahabatnya
bln
##install
##ekam
##ayaknya
ecom
mataku
keingin
need
standart
memanjakan
##ondisi
biayanya
##rar
frans
ulat
lonc
##indakan
bedak
##usai
##hususkan
##akas
cleaning
anggun
bernegara
##hub
alun
##telepon
kebencian
##umbat
##ebes
naras
kontemporer
berkem
##eoil
director
##hentikan
yul
bodi
##onsored
##inus
segel
##kos
penjajah
ketenagakerjaan
##amun
beresiko
catering
chan
itik
adit
##fort
lenyap
penump
berkesin
berwujud
bercanda
##ufactureoil
menargetkan
terindah
alarm
nup
geologi
letusan
##krip
##ocol
##akibu
dengarkan
teruji
berlian
##perb
dibac
##aksikan
##olla
214
menginstal
nambah
##ibilitas
meningg
manif
kasir
kerah
gord
rejeki
##ervisi
memulihkan
gambargambar
multip
genteng
##fe
##ocus
##innya
##adanya
1975
##lie
##komponen
tokopedia
##ungagung
db
hent
brp
##lasifikasikan
##mailcom
mekar
4000
##tugaskan
rul
edi
rudal
pungkasnya
newsletter
##ayam
##apatan
perwujud
##orf
mengalihkan
dioperasikan
martabat
disewakan
lady
gub
alj
##mul
aktivasi
vena
perannya
##esmikan
menelusuri
pencuri
##etooth
institute
menyanyikan
##rakan
##aphy
liberal
entrep
kron
pala
curug
silaturahmi
megawati
danamon
ahh
ain
flow
slamet
tumbuhnya
kitabkitab
##ewajib
sulaiman
##yol
ngapain
berjalannya
coup
##apar
plpg
pribumi
ukg
kromosom
senada
mimp
##epi
apartment
##aco
mengagumkan
##pensi
deretan
supir
umurnya
langganan
mabes
pribadinya
transit
arke
apk
history
kelanjutan
dikonfirmasi
pings
osis
subhanahu
terciptanya
hj
diresmikan
digolongkan
tps
##oreksi
##kalo
jengk
nyala
permain
predikat
kalor
country
##arifikasi
mingguan
partisip
##ebu
idi
##usukan
gravitasi
index
##pemer
skuad
device
##rist
probolinggo
jayapura
terdeteksi
shir
kasat
oleholeh
subt
##ebal
berapi
lingkar
1700
insentif
wilayahnya
##ollow
direktori
dalem
kenyang
##urabaya
##iii
monumen
##wb
##epri
##puni
ngin
terisi
##opak
##emo
##tag
psikolog
simpang
menguraikan
arema
motiv
hik
##oral
##esankan
##omega
##ambi
berkontribusi
idol
##tical
kendal
debit
isyarat
ayahku
102
ketepatan
dead
##aun
##dit
mendeng
meni
bayaran
endapan
khasiatnya
brig
debat
ultah
petrus
##ekw
conf
gelandang
cemburu
orange
request
menghindar
##angkas
##berikut
##ombal
gerindra
estimasi
bunc
luput
##jawabkan
##acita
##nyat
dituliskan
manga
rain
##buan
arifin
otototot
pelakunya
kesepian
menginspirasi
our
slide
##px
lukis
ika
rol
mendiskusikan
opera
pengajian
##olitan
denganku
##ked
##zali
langsing
singgah
##rent
##embung
repl
##ining
jajanan
marc
##ubs
place
linc
##igeo
bapakibu
6000
sisasis
peop
berteman
intelijen
menungg
table
politeknik
almarhum
##ehatkan
penyair
bertukar
menjauhi
puncaknya
##embar
##yg
##angkabau
brah
menyempurnakan
diperuntukkan
autom
##yangi
bluetooth
##udhu
shang
termahal
movie
##ecut
mengorbankan
terlanjur
kompak
##atural
mikroba
segan
waduk
teoritis
aula
ranting
resour
##otoko
fotok
pertentangan
seller
patuh
berantakan
tris
paral
krit
kontroversi
##media
hahahahah
mendeskripsikan
mub
##ific
##ilati
nangis
##esalan
jr
##kab
pantun
ujungnya
tiens
persembahan
##anter
interpretasi
polandia
tasawuf
polis
kebohongan
membuahkan
wita
parip
pkn
mour
sufi
##garis
widget
diagnosa
cul
##lian
umatnya
##adaya
odigeo
dibebaskan
konstan
##tumbuhan
ppk
louis
mengol
111
kisi
tiger
faham
ditonton
dikhawatirkan
replydelet
menghisap
semif
dod
sepele
topeng
##itator
##ilkan
##nahkan
ditjen
think
pilpres
modernis
menafsirkan
proteksi
terangnya
nazar
sempet
disisi
melemah
tulungagung
##itiv
berbakat
hollywood
halim
sepup
pengurusan
att
whit
selaras
franch
haj
periz
treat
fitrah
##aminan
wujudkan
pelindo
river
menges
007
##ribusi
inget
minangkabau
homec
##ecta
##arapan
##umpa
##enjangan
bayinya
margin
##odiak
empiris
##ukau
104
berlin
filmfilm
##loid
pengatur
##ede
sendiris
lintasan
pendataan
nanas
pit
berasa
##ongs
##fah
metrop
papar
narasumber
rer
hig
akui
portofolio
##promo
##aind
##gabungan
##agnet
bongkar
bintaro
terbawa
talk
##ridge
korelasi
foundation
##pay
nurul
mengembang
sisasisa
##job
##lahu
##ewajiban
mengherankan
suratsurat
geser
##apang
sher
penghormatan
##ekaran
catat
kedamaian
##oco
federal
menghampiri
canc
spam
##800
bolak
kedai
berjilbab
berperilaku
jose
omega
##ampe
institu
##antah
penyem
penjualnya
brit
##ampuni
genset
shol
keranjang
diselamatkan
kataku
punah
pentas
tuna
sila
rabb
aspekaspek
##etra
##buruk
blank
##ontarkan
capital
mengesankan
purnama
saatsaat
kalung
berpegang
diakhiri
penalti
##emprot
mematuhi
penghap
menemukannya
##isy
kebocoran
stimulus
pain
bersed
sekelas
##wich
woo
disfungsi
##sebagai
pemindahan
##bengk
##agung
suc
kesakitan
keamanannya
##atio
##ijinkan
boyol
##arket
##angkara
shamp
situssitus
##murah
kegiatannya
tumpukan
tours
##kamu
##ompa
##ajasa
##pelan
##oz
arist
##ampar
kaus
ditugaskan
selepas
htt
122
ecommerce
memerangi
sidik
anton
##omax
yen
jogjakarta
apotek
aqu
##taq
##anas
vacancy
philip
##barkan
tertekan
macan
##apapun
sket
pengesahan
##fs
mementingkan
terlaksana
##ejak
kalk
spd
mengedit
perkumpulan
##bes
riba
paripurna
sastr
psikis
alaihi
deklarasi
mencarinya
penca
camb
kontrasepsi
britan
appl
mania
ani
##seperti
mamp
karim
mumpuni
dikaji
nafkah
ceritakan
##orok
lanc
kapolri
meram
##akeh
##uld
duri
penipu
##ix
##aknai
1930
##eger
ron
pertaruhan
##ilian
tercapainya
sarah
pingsan
gurun
modif
kabut
diputuskan
##okl
path
1973
sarat
nie
keluarg
meramp
1976
mendaki
##ijing
pacarnya
ct
corner
##turbasi
berbayar
leuk
bmw
wp
soda
dikalangan
biarlah
symb
memilikinya
katak
##nai
##lagi
##hon
gosip
menek
heter
##lines
flanel
skand
##berd
bersepeda
stainless
gallery
##inju
dikalahkan
abbas
ptn
nhs
yaaa
penuntut
males
##cast
mio
dilayani
bach
sapa
##tom
akumulasi
centu
untukku
belasan
prilaku
menandai
mengunduh
profesionalisme
eku
stiker
blogspot
##pukat
iain
##maaf
antisipasi
ngeblog
aqiqah
komoditi
mendalami
pelosok
messenger
##ocoid
diwakili
sabung
dai
meeting
##adiah
kehancuran
##aditerbitkan
stay
muridnya
menghafal
##gs
bertekad
pucat
sangkar
selimut
serahkan
##akk
##atiga
memutihkan
dipikirkan
##erse
##allam
lift
##ofesi
##iser
##aspada
timbal
ump
kebon
##ades
memecah
apik
bertolak
perwujudan
91
menjunjung
##ache
##ius
155
chin
temanku
##amula
percay
kebutuhannya
animalia
omong
kudu
tala
teach
menurutku
pepat
##vas
kecurangan
##gon
meru
dihuni
boros
fisk
ambisi
supervisi
bersekolah
nuptk
janj
industry
bule
ft
terkendali
direbus
chart
bergegas
investigasi
##rei
##tml
batasbatas
akademis
turunkan
risk
didasari
saudarasaudara
pornografi
berkesan
127
caram
dicek
arang
##iditas
karo
##anggungjawabkan
perizinan
deteksi
020
deposito
private
penghapusan
##bus
branded
##eknya
##diknas
akting
payudaranya
engineering
kenakan
dianut
piagam
accounting
kekecewaan
##setiap
perutnya
selfie
merindukan
year
ringkas
giat
##ikuler
##fri
taurat
meditasi
bersantap
aspal
elite
girang
shad
##etkan
diusung
mourinho
gaming
##otret
##lot
limp
lha
genggam
bergeser
##tuhanan
ground
cemp
bidadari
spor
obyektif
perbedaannya
##anggroe
##kumham
gunawan
taq
wakaf
esensial
meri
dibayangkan
cakap
santi
##ipe
agam
pelanggannya
arthrop
menyesatkan
dires
##house
##elo
##jat
kia
keutamaan
##hol
performance
##bay
rif
bugis
return
kalium
haw
##900
diusahakan
pulaupulau
##dang
jessi
relaks
terkumpul
metaf
##unannya
hb
gn
piano
sederajat
##odal
pendak
##arum
##stop
fotonya
jug
##lame
##600
perseb
mx
1977
sorga
alpukat
geb
kilat
ekstrem
imigrasi
anonim
herman
##low
dk
##isma
##lr
haz
##mawati
guide
##ttp
##semua
putrinya
casing
galaksi
raz
terbebas
##aktekkan
manjur
##45678
##inir
pangsa
menyapa
mug
##eritanya
##utaran
tokotoko
tawa
shi
absol
bicarakan
##bol
bidangnya
penat
##anth
flek
melewatkan
diidentifikasi
##jaya
mengekspresikan
450
##asah
mobilitas
nb
isian
hijri
perseku
tertipu
##rap
mencicipi
judulnya
naungan
nikmatnya
kuj
amazon
wit
arthropoda
artikelnya
rias
kitchen
marx
##ekusi
lakt
ister
puteri
oce
menerimanya
keinginannya
pengikutnya
penyempurnaan
##cayakan
##ewek
iuran
manc
pool
##enangi
##itnya
retak
homecpns
##bankbumn
keterbukaan
bergizi
palm
fab
diamkan
kumpulkan
memperlancar
kutai
jaraknya
##rutan
antrian
##ehingga
rileks
bungk
capsul
daerahnya
dijangkau
subscrib
##ista
andai
##ucom
gluten
memperkecil
##ador
mencintaimu
generator
##arawan
##egat
konsepkonsep
rekomendasikan
pemud
##kolam
donor
inch
seruu
after
ijo
hardisk
him
##isipl
##salah
supervisor
gud
mario
gym
keterlambatan
associ
uskup
##rs
buy
unggas
##rolan
##hadits
ida
ric
estetika
umrah
##pokok
direct
##pula
030
1967
terburuk
kedekatan
stnk
tercermin
berkurangnya
meth
##umsinya
menghir
jomblo
bertumbuh
econom
##erk
penggabungan
berget
hiu
ketaatan
##osisikan
kemaluannya
debut
tandasnya
##qarah
pepatah
pemetaan
pembentuk
harddisk
##wanita
##uantum
matr
##emudian
suw
dikala
vga
##lad
cher
107
##ulasikan
menyedihkan
seat
bernafas
disin
menyehatkan
purwakarta
##pb
face
neon
mary
surah
menghukum
selas
look
griya
tod
vektor
suntik
##emak
luasnya
buruknya
kesenjangan
dijadwalkan
plant
##intainya
##baju
mahar
hew
perhatiannya
memaafkan
basuki
girls
realistis
spasi
kasuskasus
##ernak
menampakkan
panca
quoteoriginal
##ingungkan
nj
membiasakan
detailnya
diderita
kontrakan
##bers
kuah
kunjungannya
meragukan
##alap
antoni
every
##silah
menyalakan
pilihannya
##label
batavia
huni
wisma
buruan
##vr
terjalin
senja
##rey
ayolah
aziz
##ious
navig
close
##erna
help
konyol
komedi
ketel
abnormal
ulah
106
cintanya
##ledge
otonom
produksinya
busa
disetiap
##enggang
##udidayakan
##pantai
penelus
denmark
hukumhukum
##erlang
##pusat
sta
sia
terjadilah
##lank
##kati
##utik
##semoga
nyany
pencinta
muat
pengrajin
mec
##aps
prog
##indas
boyolali
dens
bayam
##oskop
##terimakasih
maraknya
bkp
efeknya
striker
jac
kerumah
rumor
pembant
165
penanggung
##bir
rudi
penyewaan
perangsang
century
##oton
tax
##ires
labalaba
menye
pav
##idul
hilton
panorama
dokum
aplikasinya
harun
##silahkan
mengebor
terbunuh
hih
aturanaturan
kekais
pengoperasi
terdepan
##ajaya
coffee
##ease
##pendidikan
beijing
piston
kepiting
##etri
##ihatin
familiar
##obot
##bac
##ofi
capres
pkk
sintetis
administrator
##aaaa
dikehendaki
kelamaan
terwujudnya
adobe
edaran
dituangkan
1966
dist
selebriti
rosul
melirik
##andaskan
##core
yahya
sekuat
permukiman
semifinal
##ilia
##balas
lapang
society
##ophy
kegemb
fif
merekrut
spbu
telaga
myan
buyer
##sebab
putranya
rintangan
bilamana
dikenali
kurva
mili
gesekan
retribusi
potret
paran
tkp
##ongkrong
mengidap
clos
plafon
##gerakkan
bermasyarakat
pertam
kupon
finishing
##itel
persekutuan
tape
perjalanannya
disebutsebut
##aplikasi
510
##edownload
##ekerjakan
##ungguhan
cibubur
##card
##urukan
##gub
lc
berakhirnya
membongkar
##ekacom
##estyle
menyusuri
sekurangk
##impor
kejayaan
fasilitator
##antri
##zin
mys
peralihan
bayern
tengok
##aksakan
bandarq
tlp
144
melengk
gong
katakanlah
dd
kekaisaran
bella
entrepreneur
phy
fox
##sekarang
nopember
##aup
bayu
##boy
##hib
##verifikasi
mulamula
##ref
achmad
disebelah
smith
##prop
040
memanj
sukarela
nekat
peril
##adasi
##raya
kusam
sanad
##ett
brok
meletus
rr
people
barangnya
hargan
050
pembedahan
##angu
anjuran
pengus
##lamp
aga
sentim
##lies
ensik
310
##instal
kurban
##mungkin
##angin
sehabis
##idor
##asian
##etin
imbuhnya
menurunnya
##aban
anehnya
##bia
labu
kencan
contohcontoh
ahl
myanmar
jendel
efektifitas
200000
cet
perib
##rix
memadukan
kuc
asn
aktual
sanitasi
##ager
menund
##nak
##iteori
islamic
##his
natrium
kanakkan
mengindikasikan
belom
1949
##intir
##kul
berbangsa
##udan
##agih
##ifah
kwalitas
##anahan
##eries
kedu
barca
bic
plugin
##penc
##hire
##tick
buktibukti
tertu
duniawi
sampo
tanggap
pemekaran
##bih
champ
disalurkan
flat
ry
##awari
membengk
dipake
palace
lubuk
##uction
persiapkan
##mil
lukas
income
dibel
motorik
porip
sctv
##utarakan
pramug
leader
jupiter
denah
ransel
village
hav
smkn
nasution
pencairan
##older
##mohon
credit
mencontoh
republika
##asiswi
tin
chatting
##awei
bergetar
range
officer
mempelai
##ukir
nota
terupdate
obrolan
##ewah
##ebo
##sn
gerej
kristi
renungan
pantatnya
##odok
nig
##aspadai
##uluki
penetrasi
##uling
memainkannya
masy
chrome
kepr
pergilah
memfokuskan
##ingkuhan
dialihkan
penelusuran
cemerlang
britania
taruh
menyinggung
ming
proyeksi
kegembiraan
##ebarkan
watch
fotos
francis
namaku
menyalah
virgin
fotografer
##angkis
##sus
denyut
##wulan
urus
sj
##tihad
kenalan
kebawah
dicegah
extra
menyanyi
##indonesian
nadi
##share
##eru
##dim
membuk
fall
##alun
pencucian
022
jatuhnya
mekkah
pemus
sumedang
##ouse
##kisah
dijalani
pengaduan
solidaritas
##imbol
ojek
30000
tbc
menjumpai
##asiakan
##titik
semaks
gear
nebula
109
sedunia
agro
melukai
belit
##ingsih
pingin
zodiak
##opin
dirg
irlandia
awards
##idis
atraksi
##keu
##wono
penyerangan
pelanpelan
salmon
##osong
##ajuk
penjel
360
##biaya
selayaknya
tamat
##ece
toraja
pengangkutan
##2006
kambuh
dihormati
070
##egitu
##uguran
derma
##bunga
bersembunyi
kejelasan
shalih
ibrani
nget
penghilang
melapor
sragen
pembangun
berkesempatan
elev
datanya
##hanya
secret
##kre
ym
bereks
##ajal
sakitnya
kesetiaan
tenun
majemuk
##sebelum
ditangg
insecta
kepan
##andasi
makkah
take
##edan
##pasi
rog
##562
##’’
berjenis
##arth
cobaan
effect
denga
hrs
breakfast
konsepsi
vul
senyuman
##elin
dosad
daily
##aksinya
gramedia
sports
##ides
dateng
piram
meteor
##arg
##key
jib
kelel
khalayak
##estr
1969
goyang
kekeluarga
bendungan
menjauhkan
##aksis
##asarjana
kapolda
graph
moto
berinisi
ditemani
##unit
legalitas
saka
##kecil
ilham
tambak
csr
##upi
##eksinya
##onesia
##onder
menghant
proporsional
##alut
##losmen
perseorangan
garasi
ketagihan
terangsang
##oria
konsistensi
1971
##onaktifkan
kuncinya
##penyakit
##elatan
##hati
lik
ditab
quick
menggemb
500000
okt
brown
normanorma
karanganyar
pepohonan
##apers
##quid
even
dram
tidurnya
##ential
salinan
##mts
kurangi
sans
unlim
bertema
berkenalan
says
draw
scor
obatnya
kuatir
tombak
engga
netizen
bird
##uja
segitu
edward
cant
##iksakan
##entralisasi
ug
saksikan
##eram
##udu
##ving
longgar
membingungkan
mengemudi
percayalah
penandatangan
nongkrong
terhenti
menyem
pung
xxx
advan
penyiaran
glass
stakeh
hee
bblosmen
muam
diunduh
karaoke
##yaku
##acauan
cangkir
yaman
pemben
gaj
mandarin
##onto
menuntun
litt
corel
##adaerah
membelah
keberl
##acunan
drain
chem
got
##pasal
##uwa
##integrasikan
kepengurusan
habibie
bordir
spektr
##inata
bersen
##atunya
maulana
##sup
execut
1959
ridwan
disalah
selektif
sangka
cuka
##cut
mapan
fiskal
##order
##aimer
##dew
berkelompok
##kali
lauk
##kad
##tura
muf
hyun
konk
##soft
##auhan
##beberapa
memperhitungkan
hosp
resi
sorry
berpasangan
rajaraja
##esium
sabuk
cw
chord
statusnya
##vir
##para
inspek
##128
kelakuan
##pohon
suporter
ovari
kesesuaian
kolonel
nike
fiturfitur
##wel
##inton
asep
stik
mengecilkan
warganya
cerambycidae
bim
##eder
huawei
verifikasikan
tekstil
##endahkan
spin
student
##itac
##ubsidi
thx
##ipto
##iawan
leave
nemu
##rove
idealnya
timah
##angsenang
##ardjo
##angkung
##opr
##anggota
backup
penyed
prak
thank
waf
cadang
kob
bala
mendoakan
poripori
neng
cour
bersamanya
##ongi
##idupan
warnawarna
chev
##ikatif
times
sist
santoso
##endak
nyonya
sle
kalam
##claimer
utaras
lebak
sha
##arasi
##about
##fu
##2005
##uruburu
jiw
1920
menyita
##down
kagak
til
snap
irian
keliatan
impikan
dekan
##hs
##ompokan
##130
lawannya
pastor
kpd
##neum
##unar
##uliakan
laksanakan
mengac
ketuhanan
asta
parang
terpisahkan
ipb
##ective
##ors
eth
ow
bingkai
menuduh
delta
pemandu
1961
malaka
##50000
##uatu
2500
malaria
backlink
ipk
zam
##atria
luna
##amalan
mentega
tatap
##emur
cerai
1962
1948
##fone
salep
membikin
menguras
melulu
##aids
kapitalisme
membanggakan
karimun
##ebihnya
##oten
##ainer
bridge
tempatkan
bsd
shut
terhambat
##untaskan
pimpin
alt
blogging
kanakkanak
##wik
manakala
dibesar
daunnya
jessica
##cript
vegas
sembah
116
much
ensiklop
masturbasi
startup
##rase
nep
dibuatnya
membuktikannya
hiz
terbaiknya
rai
tea
produser
korporasi
113
##dapat
fotokopi
faktur
pelec
##etail
vers
tiram
##ikopter
pendapatnya
umbi
berdom
##epuh
##ongkrak
##adis
20092014
mey
transkrip
pagu
##eus
##eke
suplai
##ualian
portable
bertingkat
##ekal
menter
170
sejarahnya
relations
bujet
kardi
pengolah
##asp
inap
##empur
pena
terlatih
ikht
kencana
terumbu
##oup
kla
cilegon
peti
timbangan
menyukainya
##yy
slip
##arifan
berlainan
##ilit
apaan
resminya
dehidrasi
##weet
roket
##rel
kelemb
okay
dipat
##imis
##egera
kekeluargaan
agaknya
hud
oppa
knowledge
##verter
##tery
doh
##teknik
bem
preman
##agangkan
kutip
menaiki
tpa
chap
sev
harg
dikombinasikan
##lung
##3011
walet
disaksikan
##ooo
implikasi
##ungsikan
##onald
konsolidasi
##akarsa
trims
pengamp
dibatalkan
pertanahan
##unggal
tato
ironis
dibelakang
amati
spirit
##uruskan
mohammad
berjumpa
##aluan
want
##kabel
sedan
##astr
menaklukkan
teoriteori
embrio
melempar
mengis
iris
cia
mekanis
pengawet
133
nick
##uhyun
brawijaya
bpr
##2004
recovery
rizal
##ribu
agoda
brebes
##sive
##oku
diantar
kardus
loyalitas
reput
numpang
minoritas
estrogen
lounge
kejuruan
losmen
persada
##facebook
##itz
permai
jurang
##engs
diploma
kenali
##sue
##gawa
gmail
tham
rotasi
##ihannya
kurasakan
abdurrahman
trek
kontolku
pendaftar
nif
##embah
vip
##ped
anth
##berat
memperkaya
victoria
##ayagunaan
##engsi
tetangg
121
prep
1972
keracunan
sco
notab
berlakunya
##rier
desainnya
kekacauan
mengartikan
komedo
disinilah
mempercantik
lempeng
##timun
##ahannya
postur
##eksual
unlimited
##zhab
legendaris
tega
##isika
kri
pistol
emo
supran
dech
##endra
hernia
turbo
selebihnya
reza
pj
gamp
rece
membacakan
cloud
ciamis
membalik
upd
##opos
austria
selesaikan
mempertemukan
rizki
faktaf
henti
berkonsentrasi
ariel
terarah
##111
##ajam
kerupuk
moga
##atifikasi
melampirkan
##uba
dirugikan
baut
biner
1968
##ateral
adventure
pw
060
mesra
gusi
airlines
##row
25000
seusai
andromax
memburu
purworejo
pound
tipu
yuni
mewajibkan
terburuburu
esp
##aringan
##ardo
##yawan
datanglah
konek
kekuatannya
alien
gokil
trump
enj
berkari
manusiawi
amplop
ford
istiadat
118
sampais
gerhana
pans
##umatera
dicantumkan
129
purbal
benturan
##ops
kekeliruan
tic
##elling
##tabilan
pendakian
mengenang
##unium
kematangan
traffic
helikopter
##nov
memilki
pilgub
ketidakm
##anakan
##12345678
pramugari
bernapas
dagangan
ketawa
##mg
pekat
pendayagunaan
cimb
berdagang
##ership
bertransaksi
telekom
##onitor
mendasari
##eview
asuh
grow
amd
penguat
swadaya
ditegaskan
##selamat
fisiknya
ritel
##opause
dihancurkan
##etic
memakainya
paparnya
buntu
peker
ringkasan
arc
medical
kumpul
court
##egradasi
##iwa
syuting
loket
kro
tromb
##baharui
##banyaknya
perken
##ekerjaan
toto
mengep
options
kekeringan
diamankan
##tasi
belut
enaknya
mendengarnya
dilewati
charger
suspensi
##vii
bahannya
skandal
hivaids
christian
menghindarkan
ulangi
selasela
##afik
joe
slalu
##tukan
agrib
random
##elia
##ematis
hasilhasil
doi
sedot
pengalihan
beranggotakan
mangrove
sahur
building
##agub
lps
##enahi
catapakah
leon
gamelan
activ
starter
sekej
##ates
##ketentuan
beraksi
kyuhyun
kanal
ketek
pencahayaan
##obak
sekalikali
innova
menghiasi
diskriminasi
dikau
sekar
##jai
##2003
##tryout
hidupmu
##awiyah
ctr
bhs
sakura
lumia
ear
berfoto
awas
melebar
sutra
##imaks
valentine
##bound
bany
pelecehan
other
sedia
akuntabilitas
sintesis
ferry
##pinang
##berita
##leb
politis
penerjemah
##ensis
permisi
0878
lembang
kuis
buday
sekumpulan
setr
cad
alumnus
meredakan
##anderol
##beri
##amba
##iyah
##oyek
ageng
faktafakta
isis
darahnya
tender
elektronika
ovarium
pemeriksa
adipati
petinggi
ahad
##bila
kupukup
pembukuan
berlubang
memotret
##rioritas
cdma
##uncing
berjama
sebelas
diperlihatkan
juz
##head
berlayar
##personal
##weg
gs
##ihatinkan
kelestarian
tagged
##lic
wasallam
##tb
metoda
lidahnya
dijanjikan
wahy
dituju
##tuasi
##embus
kanannya
indof
sampaisampai
menghina
##ijakan
usahausaha
lte
cis
ridho
##igami
kemaluanku
menyisakan
nyanyian
##show
peresm
tetapkan
hindi
storage
ratio
dangkal
kearifan
##awannya
memprakt
sendirisendiri
kusen
lig
canada
15000
goy
dekatnya
mukena
cpnstryout
penambangan
aduan
parabola
cot
fisiologis
##andaran
bergambar
menggigit
kekuasaannya
modis
ases
shm
vakum
mancing
pelukan
##eway
kelopak
djoko
pascasarjana
cape
aksel
peris
integral
dilupakan
diperkenankan
##ketika
bwt
kontolnya
menerjemahkan
erosi
seorangpun
maksi
eliz
##sec
##atani
restart
sembarang
kekasihnya
1946
sweet
kematiannya
##lip
aren
salut
umm
mencat
##ambakan
penyet
khilafah
##ges
##ference
semar
diikat
memperlambat
niatnya
pedalaman
jiwanya
berdomisili
##kenapa
kewajibannya
panwas
##dikbud
insp
sampul
busi
kekurangannya
dijuluki
window
wonos
meminimalisir
ditekankan
ampe
delegasi
hpv
##italisasi
dibawakan
spare
tertanam
marqu
##ongo
butik
##cat
##uistik
serasa
bone
pps
##sour
atta
etis
pembatas
2200
##paket
##sistem
berlimpah
sekjen
truck
##teng
##newscom
117
setelan
cium
penyangga
keadaannya
jeli
cpnscari
memperingatkan
##enyak
pendidikannya
arb
zina
maksudku
pengkh
mengulangi
pengawal
##osialisasikan
kabin
##akiman
pewaris
berurusan
##organisasian
ditunda
syahwat
prihatin
tekh
berkelas
##erkan
sard
author
tekun
ord
##istilah
tement
##4335
##col
mengasah
anatomi
menjualnya
defisit
interface
##....
hotspot
treatment
beritahu
##ulawesi
ngeliat
induksi
industrial
berkepanjangan
andahotel
kepatuhan
##ematik
orient
bernuansa
sulitnya
##block
rang
sich
mng
##agat
bow
kemanamana
percuma
wonogiri
bulus
importir
terulang
rcti
##andeng
fid
##ampurkan
akunmasuk
kambo
ubuntu
##aduate
##df
jangkrik
akunmasukbuat
akunpemesanan
advertising
little
wb
meluangkan
mengkritik
ajah
solunar
gent
kubah
token
perunggu
lorong
lewatkan
voli
145
##bintang
mafia
gilirannya
cuek
##hewan
mengapresiasi
supranatural
description
fx
flores
slogan
tampilannya
wu
pucuk
siswasiswi
750
koi
harapannya
berkeinginan
naiknya
rumahku
##rn
cav
vaginaku
bercerai
rose
##retan
##undaan
tony
dilapisi
purbalingga
alfam
dipasaran
adha
magister
ral
##onde
soekarn
##211
spoiler
agribisnis
perasaannya
##cu
bell
tuhannya
##angkang
websiteulas
nice
membantunya
edition
pengarahan
garisgaris
simon
freeport
eksterior
##ohkan
pergelangan
berjam
vulkan
hariber
dora
komodo
prosesi
##estasikan
keputus
jurnalistik
##esioner
bilas
shopping
fantasi
ranc
mengabdi
seperangkat
dadu
salatiga
zenfone
pengeb
qura
kru
##terakhir
refresh
bagan
##18038
fpi
##lanan
##atta
kerang
beternak
ketahu
menabrak
##roli
khotbah
ajarkan
kupukupu
rame
safari
##odin
interval
konst
selandia
dituduh
behav
uniknya
mengangguk
##sai
infus
sprei
##ected
menggosok
forkl
##urnian
pengalamannya
##yaitu
oste
bergengsi
bergaransi
##awah
##badan
##bahkan
225
pendukungnya
kelasnya
##manfaat
mengkhawatirkan
chair
steak
strip
##ulitkan
talaga
124
tersedianya
##urutkan
##ycle
##eheh
##ticker
dermaga
aka
##bak
snack
qad
sorotan
pencak
150000
koroner
keburukan
terdiam
pdi
##illy
union
monopoli
yon
menyertai
agu
setiawan
classi
pilek
##etuk
penyakitnya
diterimanya
use
reks
drag
ampl
satpol
##entasan
##master
smpmts
##ebutan
carol
becak
silik
foredi
lus
tis
kung
laskar
indonesiapesan
00780
akbp
adr
usg
googl
##0018038
##andapromo
loren
007803011
##520562
##0018038520562
0078030114335
ambang
##empar
pelumas
##rioritaskan
entri
menguat
hospital
sifilis
resor
##ival
perundingan
dimintai
##atai
executive
sela
instant
terstruktur
##inas
##apua
berpen
##abal
antis
menikmat
devisa
hur
lumajang
transform
##umo
zah
disney
wala
kemenkumham
isl
119
two
ketertarikan
hamzah
milih
berkoordinasi
##oment
ditul
hamid
kepon
padam
hamparan
probl
gotong
##abeth
berkedudukan
nex
sporty
bergulir
##abs
aqua
maunya
cole
kulakukan
lipatan
##osongan
veteran
sukoharjo
##akur
##penger
samu
kort
angket
koruptor
mito
merealisasikan
bertobat
wisnu
chang
penyesalan
mengkons
ramping
plt
##bility
kumis
##industrian
disayangkan
konseku
berprofesi
rider
kukus
qurban
pertumbuhannya
##eplydelet
moon
deter
mex
##vert
bagasi
elang
document
##tice
kalla
##idenan
kesehatannya
ll
shio
##outh
025
membuatkan
barangjasa
sejuta
sepatutnya
disapa
ls
##okkan
menginf
##akcom
sumbawa
##olisis
##engka
kalsel
horor
therm
kamboja
khay
party
sebagi
##batu
2100
kelebih
relaksasi
bersenangsenang
pemir
##esco
printing
hebatnya
penyuluh
gah
##ayo
##ematan
ukir
gin
andy
seringnya
kevin
##atihat
akidah
etnik
titiktitik
##xxxx
##opati
progresif
mera
andil
##ghan
##anggan
juanda
##asel
tementemen
##max
surv
forklift
peresmian
npwp
pneum
hh
perbuk
##enium
boat
lada
sampling
ratna
ornam
lifestyle
arjuna
##ences
title
nafs
posy
##gunya
hobby
##elaran
##suf
ultra
karirnya
##incangan
berbunga
##upukan
perindustrian
##abor
eyang
withdraw
dipadukan
college
supra
kompeten
praset
zak
intu
berhitung
penghalang
redmi
uv
kembalikan
fee
andap
##hubungi
##prediksi
oksidasi
kembung
##embakan
aspir
penyelamatan
##biyah
##ines
hmmm
transparansi
karyaw
menyulitkan
pantang
dimodifikasi
##malam
signal
##eping
##sert
##ukunan
modernisasi
cargo
##oglob
##imbangkan
##ukim
##alai
##timpa
##oplasma
##sya
miz
yag
limit
layang
abc
hasilkan
penak
sinkron
pembekuan
find
##yakin
bism
compet
##well
##obatkan
joy
jusuf
berurutan
penyaring
spg
##urne
burger
regresi
##itle
femin
dihadirkan
sholeh
boh
kill
menyumbang
##organik
lep
phrase
memposting
##angko
kesusahan
gantungan
pendampingan
melingkar
##gio
bertenaga
kepri
america
programmer
utarak
lengket
royong
langu
harv
kapitalis
##eci
uas
deputi
segeralah
##yangan
nugroho
##omah
traveling
filmnya
027
sebisa
##engaja
indian
penghancur
berseb
terkaya
tertuang
scre
##ales
flav
kehadirannya
mcm
didownload
diana
berbanding
dianalisis
bpkb
klu
alan
pencab
makasar
tersesat
memukau
thai
yehuwa
##afood
ats
penyandang
##nilai
cilik
alunalun
barusan
mempesona
speedy
bokong
##cewek
lud
memprihatinkan
wni
cooper
franchise
##wh
menyayangi
panci
aib
agnes
present
pantu
pemin
leo
andal
memenangi
##enep
meleg
season
memetik
santo
##aret
berpaling
kalib
memad
ganja
hektare
##akalan
amatir
kancing
akademisi
kirinya
tanahnya
minimarket
menyempatkan
ketidakmampuan
penalaran
##ijawa
suite
##ruh
##ingkari
##eater
adm
mekah
gemstone
menjilati
dibanderol
pelita
kebay
saingan
asalusul
##arbon
memalukan
##taz
patch
dicerna
##odam
rani
ajakan
240
flag
diulang
ditempati
##detik
laen
thesis
singkatnya
proto
##elet
dirubah
##yawar
hafal
rapuh
##tub
##umul
dear
##ography
##omer
queen
##ibi
surf
##zing
bertepuk
migrasi
##poker
child
diseg
ekologi
hostel
memancarkan
journal
menetes
menggapai
kejiwaan
ladi
dubai
comfort
psy
influ
kuesioner
realita
##uha
terap
bersumpah
bpd
bukopin
berbincang
1964
##agiakan
##new
diperpanjang
##ikhl
##ingku
bacc
laras
permainannya
syi
buru
##inyur
##onversi
dibesarkan
nyampe
terkuat
##islaman
##umus
mulutku
132
1958
mengintip
##istry
##omunikasikan
##hing
gaskesehatan
brow
##long
2030
suntikan
institutional
force
##uknya
##ensial
cabut
bertelur
caesar
vcd
##entris
persija
##station
kecintaan
mou
agust
##fresh
##iac
##imob
horis
##ujur
elektrom
epson
##rul
##roto
penundaan
gy
bawas
angeles
salad
regu
them
##idangkan
radhi
##urance
##nisa
dns
##jizat
dita
fungsifungsi
alian
apalah
ghaib
##otrop
sialan
##eeee
usman
##nbsp
ditargetkan
berpesan
teling
berlipat
##ulud
menopang
predator
dikab
trial
arom
astronom
rasulnya
graduat
peneb
##city
perkenalan
crus
##aser
laa
oposisi
melipat
##anon
##elajarinya
dipicu
nai
melengkung
##ensia
syirik
1955
match
validasi
##rich
##organisir
cagar
##osialisasi
multif
##olin
ketul
fib
##fiq
kepekaan
mengajari
agency
motornya
##fit
kera
merendahkan
three
memodifikasi
bertem
geli
##has
jae
##incar
diwarnai
disiarkan
seoul
mengutus
dipungut
##osin
##internet
bergairah
sejarawan
less
doakan
##awanitacom
##bagus
ocean
dimanamana
sumenep
##awe
##utuh
##bil
pemanas
validitas
spp
hakekatnya
than
gejolak
negative
filosofis
ivan
madzhab
kho
dibacakan
serasi
desentralisasi
##112
##berdasarkan
##uhh
apot
kendari
berz
buny
hape
siswanya
hyper
variable
##asuransi
ekstensi
##makasih
cikal
126
nasrani
peristi
explorer
mainten
digabungkan
##jin
mengeras
##cy
narasi
gigitan
##abur
##arus
dimul
deliver
madani
kocok
ribut
bertiga
kebayoran
##ayaannya
ich
##empit
##hentian
##160
##ysis
##inea
eye
columb
##ohh
dipanaskan
angkut
mentransfer
##aluku
digoreng
argumentasi
##enius
laksana
##balib
baccarat
jackson
##obos
dibareng
##sah
reputasinya
##endung
##hubungan
susi
yap
##imuti
posyandu
##umpalan
##menya
tusuk
##nat
perpecahan
tercemar
##eleng
pemupukan
bersandar
hendra
##onasi
pengoperasian
kompascom
unta
ragur
lamalama
##osiar
##kek
maksiat
sembako
matikan
bertajuk
zone
websit
dibungkus
berangsur
##grafi
##janya
##ultural
tersentuh
linda
mogok
capsule
1963
kejar
pengungkapan
beralasan
##qah
2020
##adil
##je
libr
ako
menikmatinya
cerit
kelompoknya
1957
avail
##onlin
pangandaran
iqbal
##ihir
stm
wass
##jono
plot
astronomi
mengawal
instrument
nong
mendik
##loc
pendekar
sindrom
pelukis
##efektif
unc
perkakas
##itoris
rayon
pemburu
disertakan
##ified
jeda
ryan
kepalaku
baratjawa
penolong
pekerti
instruktur
##pastian
##emaah
kayanya
penganiayaan
samuel
sticker
blues
mukanya
##lav
tenggaras
tumis
##cium
rabi
memaham
shanghai
##ocokan
dukuh
##hapus
##jumlah
memberitakan
membengkak
marina
antropologi
riaul
menusuk
hoax
tengahjawa
nyanyi
##ukupan
pengecualian
digel
##bro
membungk
utaran
anne
musy
aurat
tandas
sabang
##hin
##uktor
bermus
digerakkan
paskah
shu
beruang
dibebankan
resensi
analogi
astaga
transmigrasi
##utbah
roman
ppdb
menyamakan
mempersembahkan
temanggung
##hil
##apem
##jol
##idas
ami
tav
ekspl
penum
kompresi
diberhentikan
##aly
wabah
##aini
pare
method
atletico
##zet
soc
menanggulangi
##hid
##bk
berlindung
##abak
invent
setoran
hyang
bj
penikmat
orbitz
##gunung
memeknya
advokat
##elaah
dialek
##sing
haknya
melemparkan
siku
gemilang
kafein
##redit
memberdayakan
baratkalimantan
nifas
mamalia
##elekan
##esus
##orot
selatansulawesi
##ilahkan
##encia
falsafah
##enk
pekar
pemberontak
raguragu
dibuatkan
pemerataan
##tulang
elektrolit
focus
butiran
naluri
powder
tuntunan
tere
menjerit
rada
navigation
corporation
sns
mengikutinya
rekannya
marmer
makannya
##ending
tengahsulawesi
hambanya
sdr
terlew
berskala
berpeluang
sekda
baratnusa
##likan
ladies
pendudukan
chicago
koridor
##angkanya
tangkai
salak
jenggot
320
deep
rina
##rif
electron
penug
##fiah
selatansumatera
periklanan
menghimpun
kedung
meneng
pokemon
tirta
##ayap
kontekstual
baratsumatera
kritikan
dikenai
##aktifitas
##engkar
jajan
##ovic
knp
bale
angkaangka
##endikbud
sugi
perusahan
acaraacara
tiroid
gunting
merepotkan
magh
dihal
pelarut
penyu
belitungk
asih
baratsulawesi
nano
ira
##agorontal
ijtihad
sekejap
dipertanyakan
launching
nob
##papuap
##ambijawa
##ukumaluku
##aserbi
konkret
melunasi
pelem
memburuk
seker
menguap
abdi
terit
merambah
utarasulawesi
##usian
mountain
##uburkan
manik
##antenbengk
ship
ketelitian
apoteker
mpd
menuruti
##unction
##ampungmal
puter
##incir
berjudi
tx
kristiani
pundak
debitur
##ombakan
##burung
sukarno
fond
penemu
##balibantenbengk
gins
spekulasi
isolasi
dibarengi
butter
kerum
pengeringan
brimob
mujah
transistor
ae
campurkan
##akhirnya
periodik
saudaraku
mahf
##okimia
sett
penjudi
berbadan
kedutaan
##adesa
tahta
kesetaraan
teramat
region
hilangkan
keislaman
peninggi
bhakti
fluk
gencar
aksesori
baratria
rembang
blender
utarakepulauan
##ombe
##amaemail
chandra
egois
sinergi
ketidakpastian
riaulampungmal
##papuapapua
baratriausul
fotosintesis
timurpapuapapua
utarananggroe
tangani
##enz
##penyedia
darussalamnusa
jakartadaerah
##watch
dark
proxy
triwulan
##code
huh
##agorontaloj
nn
keutuhan
##uludki
terkunci
##amaemailtelepon
bbmlokasi
kebodohan
##aff
restu
##light
alma
klep
konultasikan
##vacy
fauzi
casa
judulisi
antibodi
dubur
silsilah
menggiurkan
tricks
quad
##ampungan
##inong
##menit
toefl
jahitan
##tindakan
amper
editing
gosok
##abe
begitupun
semaksimal
batur
stimulasi
mengering
##isikisi
medit
parut
association
setingkat
most
##tular
##aiannya
budiman
wonosobo
dapatkah
##efa
ancol
dirangk
kewan
##change
berkompetisi
##pang
fire
pemeluk
kamipesan
##emanan
hadirkan
cucak
mazmur
manipulasi
ditembak
belajarnya
komune
hajat
##stik
pelapak
franc
ikhtisar
##ebab
notabene
termotivasi
tujuantujuan
##ince
##anjuk
dikaruni
sensus
##ziarah
pemberhentian
yunus
##aserbiwisata
iklanlabel
metropolitan
reksa
sbmptn
##2100
##contact
supri
bapaknya
##ves
alfamart
kesucian
##sost
buff
indoor
side
insinyur
##arge
##eset
##site
berkewajiban
xpasang
fon
ther
ups
##sponsored
##ements
dimenangkan
dipukul
ketahuilah
purapura
cowo
terbuang
terik
budayaserb
hours
##dk
adek
relief
##aksir
menyantap
rahang
perbincangan
##eyan
afghan
bawaslu
##1400
tarakan
##data
jahan
##ament
layout
betis
mengakomodasi
indosiar
##ukaran
alumunium
pelbagai
benz
likuiditas
homo
tanggungan
nukle
karun
##uters
syur
##madrasah
nikita
puy
sosialnya
otor
##proyek
dilanda
##3000
tersi
##oyong
##eriahkan
pelayanannya
##zzle
tebak
eselon
perusahaannya
##idz
isuzu
keramaian
##kapal
matriks
ternate
##uls
susan
kolagen
thamrin
##berandapasang
perser
##osen
##unik
134
diti
bacalah
##ikil
kedudukannya
eksport
teriakan
##gel
berhij
acid
gmt
years
pembelajar
##juta
mengupayakan
filed
bangkrut
##overnment
darimana
penghematan
magnesium
##ilap
##pengertian
##istic
patroli
newton
menelpon
paralel
berpikiran
nona
dihar
dipecat
pengering
spesialisasi
dinar
pemangku
##tetapi
##obol
##sport
goldg
markus
sisik
##eel
merch
tarikan
vespa
lengkapi
##arena
menyelam
berkol
40000
pahanya
##ucut
obatobat
mandala
cn
##undai
dapil
outbound
lkp
##erhanaan
lumut
menopause
eva
bijib
akurasi
stone
1015
##optera
hemor
melek
##agakan
sili
menyumbangkan
terku
##berikan
firmannya
vario
invasi
nabati
theme
couple
pankre
mencerahkan
##pemerintah
##eer
menep
gho
ultim
minimnya
##entian
deli
ditanamkan
##cter
##istrikan
ditutupi
kta
masukin
##oksi
##asal
rusa
sosialis
rini
estate
cakram
tergel
##afa
diperankan
krimin
marsh
20122013
##abisa
absolut
rebusan
fle
favor
modelnya
fitness
parad
penggalian
##hut
syahrini
koordinat
tuber
iden
sina
pendorong
##md
phd
##esak
##mond
##ijauan
mozilla
roul
##lion
penambah
prag
##zir
mangkuk
kemiringan
johns
berlaga
##obia
##cpns
##igran
amarah
klarifikasi
serig
##onetwork
ruam
pemerintahannya
kangkung
##isiplinan
kebajikan
pengendali
##rod
asys
terangkat
##bapak
packing
menjamu
bertengkar
goal
steve
asses
ventilasi
##kwkw
pensiunan
##lb
dihiasi
gib
##udaya
##impangan
satgas
baginda
lorenzo
minang
muz
langg
katan
tapak
neo
collection
caramemas
kewanitaan
##akura
carl
terbaca
joon
memperebutkan
##cius
##endong
kuartal
maintenance
rangkuman
##ampuran
loadingk
noni
kusuma
mereferensi
melia
dinamai
musti
valley
##sostek
risalah
bibi
joseph
pramb
keturunannya
loadingkaskus
sembelit
zion
penugasan
cacar
##elahkan
nagari
godaan
norweg
welcome
bilik
gratisan
zomb
bugar
ushul
pemirsa
aerob
vista
berjangka
ubud
suster
sesudahnya
mengantuk
mengisahkan
pose
##utangkis
kantornya
berdampingan
rapih
##ways
corn
renyah
##budaya
bersuara
tommy
tercampur
apply
doyan
pembelahan
terapan
membunuhnya
tjah
filsuf
##atangi
cakep
disengaja
membahagiakan
psk
lemot
caramemasakcom
jinak
kyk
albert
mapol
##olf
##apati
menjalar
maritim
275
##tes
sumsum
anies
kans
##katanya
##ewasaan
glik
saring
spray
terpakai
kicau
putuskan
panji
berin
pump
dance
pacitan
##kot
perempat
##arepart
straw
##haj
powered
memberantas
pohonpohon
##hazali
##emah
isuisu
##urch
regenerasi
##resentasikan
penampungan
##kau
mulu
##keluarga
ngantuk
tatapan
akp
##adona
dikandung
hilal
##hidup
irwan
roc
lks
##otin
change
vik
##osial
kenyal
ditemukannya
##tki
catalog
berambut
pendaki
federasi
tirai
dikontrol
dimasukan
kepergian
hydr
kontrib
kehebatan
##partai
elf
##isis
##aktifan
perah
penembakan
##apabila
jemaah
karung
##walau
mainmain
##tahap
aliansi
ketan
300000
##rob
anyar
##may
bong
##erie
##avi
sulung
##yahoocoid
##ruang
planning
diol
magetan
sepertiga
skot
emak
kontroversial
petik
##ambaran
sikapnya
hura
regulator
alexander
move
maling
lakukanlah
afiliasi
protestan
##wakil
##etr
impotensi
##ontang
clear
##dep
menuangkan
##alonkan
##icon
mysql
disamakan
artian
sepotong
dilingkungan
piramida
kisikisi
jeff
##armon
##zone
sketsa
cg
##uningan
meminimalkan
##ulisti
ferr
penelitiannya
mengalah
##arsi
penuhi
poso
sertakan
dramatis
adh
menyambung
kebal
bnp
lahat
pungutan
luth
nug
##pons
mengusahakan
##bt
pokokpokok
1947
mengay
pekarangan
##zhou
penasehat
depkes
1942
palang
pengisi
kantin
##adibawah
##iditerbitkan
duren
##engetahuan
##undang
widya
loss
strata
##ampainya
mengunci
propag
heli
lemahnya
steph
##idzi
disekitarnya
snsd
yoon
lukman
memperm
##oller
##oklatan
tumpang
serie
antam
##dapatkan
gawat
pelaut
##care
melelahkan
sosis
##town
bimbang
##inginkannya
##ampingkan
penahanan
nim
resist
picture
##wih
berhala
praja
imper
sajak
kapolsek
nyenyak
chen
ful
spektak
##ordi
diupayakan
penandatanganan
vivo
##ebur
hengk
##angatan
##untukan
saringan
halangan
lagipula
pelun
konektor
menyimp
berkreasi
sabu
seafood
inipun
hyundai
##secara
nganjuk
bolu
melonjak
sekecil
ngakak
##plan
buruburu
induknya
sariawan
indukan
##permainan
##ifier
jean
##add
telor
tabloid
sheet
ghz
##agak
die
nara
##ulia
##oteknologi
##uninya
dised
##ekonomi
##klik
##kur
##count
ppm
##alikannya
##122
rtr
##alamanya
1940
ejaan
##ikultur
cherry
prac
##mund
experi
hakiki
##abisnis
##asm
sekeluarga
##lydeleterep
berit
##ekuk
##ucu
ziarah
rakaat
##tangan
bajunya
amar
enjoy
##anol
autoc
berkepentingan
stick
kanopi
furnitur
ditularkan
pengasuh
lalui
drainase
sengit
seluk
stempel
persel
karyawannya
puding
copas
##yd
dilandasi
berbekal
##bourne
menoleh
##osot
jamsostek
menjelma
##115
ditangan
superior
inflamasi
##gest
kapital
berbulan
kerukunan
thalib
jibril
munafik
ujungujung
trin
kitty
##enge
ciputat
ditransfer
politikus
##terus
##ayoran
##adaian
menginfeksi
farma
mengalaminya
wudhu
berlandaskan
gaza
kuad
##otol
umk
##andr
keseb
representasi
psikotes
fosfor
##aste
##aduanya
kemunduran
bersubsidi
tup
##dii
eksploitasi
##muslim
period
berdo
berjamaah
searah
buncit
hop
##jet
rayap
bei
manja
##omnia
##nyah
mengaw
baek
##uarakan
##sat
kroasia
kompetitor
##gadis
##bannya
jadul
cengkeh
mercedes
rematik
smasmk
booming
##vers
lazimnya
##ariskan
kanwil
kariernya
pungkas
##cangkan
##eco
petang
poscheckin
pendinginan
restor
mort
kesimpulannya
##mata
dapodik
##matik
adikku
##pk
##ukuhkan
syaratnya
memamerkan
dibikin
ticket
skip
dikti
library
##acaran
kimiawi
kesus
axis
perkampungan
##welcome
dash
##yari
weekend
domisili
kekinian
paparkan
##iten
disekolah
##ulloh
telunjuk
robin
segelas
prol
rena
perkenalkan
##ehh
penggugat
##ewaskan
nina
mengalirkan
berpihak
kenegaraan
reksadana
ketapang
expo
beber
terselesaikan
elektromagnet
diterangkan
meme
136
genital
##epet
meresap
##pond
##ernet
privacy
mentari
alternative
hans
##toko
ortu
bermuatan
##oteles
command
hallo
herm
##ahap
##checkout
kemoterapi
tertunda
##embel
##track
keguguran
sulap
ney
##isia
##balashapusanonim
gaz
psg
terpuji
memulainya
dipenj
tertahan
##jack
duo
pembib
indofood
pembantaian
camilan
hye
diego
##aulat
hampton
byk
##umpamaan
##dib
bispak
gerobak
cibinong
kestabilan
##hirt
##oti
##lembaga
genetika
melintang
ou
142
hikmat
mengadu
memperb
pertemanan
maw
mike
lintang
kesalah
kesemuanya
semangka
##iminasi
penyusutan
bahasanya
mengantongi
mendesah
nahd
##105
##usakan
alfat
##prise
##uannya
dipaksakan
##eret
ditaruh
##jpg
##pass
lehernya
terowongan
memahaminya
terlampau
pegas
diperdagangkan
joo
fenomenal
##ellow
##impahkan
dimakamkan
##jung
machine
mia
kaga
##yatan
wait
patogen
pind
represent
kredibilitas
aus
backpack
tob
##neo
sparepart
arn
pictures
##omentari
spektakuler
##tritis
chef
##umbung
menginv
##opot
berkeringat
diharamkan
wulan
relative
ukrain
sv
pembelaan
diberitahu
bnn
##abl
memusatkan
perebutan
dieng
##ustasi
fira
pigmen
norwegia
serigala
wkwkwk
race
buana
pegal
sekresi
##wari
bahari
kanj
donat
siak
##administrasi
silikon
menewaskan
sayyid
ibumu
menuntaskan
ahm
kultural
##ikannya
##amus
berilah
crusher
gim
tix
mukjizat
koki
piran
anom
gamer
##besarnya
pacific
memberikannya
edy
tran
semin
serem
menjahit
tegar
terkontrol
alfa
kosakata
dhani
menggeser
rss
dialokasikan
##antanan
dividen
diamond
pixel
htc
mengenalnya
iy
perkalian
berpendidikan
rempahr
##ives
##anangkan
linear
082
madya
merta
nest
diancam
##sesi
platinum
berbulu
ekspek
akselerasi
berjalanjalan
benerb
perbulan
kacer
sampingnya
##agnosis
tersumbat
menyiksa
yong
pts
pantau
language
##okong
berkulit
lk
dra
20132014
celcius
small
##ayana
perintis
suv
shell
manajerial
##ontaminasi
ltd
shift
##antasi
pengemis
##ancom
lotion
bangkai
##ffff
kli
gejalanya
##zab
##kebijakan
lisa
##tara
adikadik
kenakalan
finalis
##pengaruh
unpad
##ursus
que
139
uny
mixer
isterinya
##individ
tekat
512
kick
hahahahaha
lind
pertamax
manifestasi
##say
cong
##okumen
mendahului
##pengalaman
penanda
caw
tumbuhtumbuhan
didistribusikan
terlaris
##kosaan
difokuskan
bungsu
tarekat
kj
lindung
perputaran
##agum
nyambung
terfokus
##”“
diburu
##yanti
256
fern
konserv
##140
mengimbangi
penangkal
137
dalang
toshi
##ogor
##ianat
tray
dagingnya
dosadosa
rizky
##hij
soh
fluida
bitung
aquari
diaduk
analy
perabot
siliwangi
curang
##101
cempaka
merintis
fp
##eton
kua
four
##asin
##raj
192
cemilan
menyuguhkan
png
1956
kerinci
##zam
adzan
mentimun
##oordinasikan
relia
afghanistan
##etar
bersentuhan
apps
berab
##enza
dimus
tian
20112012
##otal
greg
afektif
##muka
mengerahkan
simpul
##ustik
##ampus
pengulangan
difungsikan
##simbol
rahasi
arwah
skuat
hant
airlangga
soul
dileg
##ambatnya
##umumans
behavior
##endaharaan
governance
viral
adakan
brunei
evakuasi
resik
dipuji
empati
nirkabel
monas
peristiw
##matis
##oroti
beraturan
interest
terlarut
entahlah
##ujan
berjiwa
beramal
mencampur
menimbang
sample
semenanjung
ikhwan
##perbedaan
pakailah
moralitas
##ajemen
##krit
fram
##road
##naker
tapan
fel
hina
menyeimbangkan
prakteknya
##iani
antonio
leasing
##ekalan
##pemain
merosot
##wad
kaligrafi
yng
menjawabnya
tuhanmu
artistik
##umsikan
##ible
razia
which
kesegaran
kompresor
dilangsungkan
##otisme
##sterdam
rusaknya
bantalan
sach
tabrakan
manufactur
persend
cerm
subtitle
subroto
benny
rip
subscribe
von
##wilayah
yoh
##ulap
jagoan
memutus
0000
mazda
waw
ngawi
anorganik
perampok
rush
ornamen
kamer
matematis
##tenham
##ukus
upayaupaya
takh
pandangannya
##uplai
jaka
bkpm
otaknya
berlangsungnya
kedisiplinan
menyedot
##119
##gagas
##iba
georg
roulette
khutbah
bulog
##rosesan
kapuas
radiator
hier
elektro
##untuhan
memberatkan
##engine
hyung
gugup
##index
gita
oct
diawasi
intell
##cab
##erhatikan
poligami
berubahubah
bibirku
bismillah
kehangatan
marri
##non
katakat
very
replika
rempahrempah
penit
##ikis
ertiga
gulung
perselingkuhan
heru
##ikr
##enggu
##olution
melel
kebagian
##akatau
tersirat
138
charge
rahimah
##angkac
seram
aristoteles
sumba
216
selamalamanya
##ihah
desadesa
##osaurus
##eve
diikut
sesampainya
##rh
##atul
tengkorak
ngerasa
dilapangan
sulfat
when
tataran
##olaknya
tidung
##eas
alay
liquid
sekelilingnya
giri
diperm
kalanya
scanner
rahm
crack
kemayoran
menyandang
penjumlah
keteg
nominasi
resah
##ilir
haris
cristian
##alus
dijabarkan
##apres
##isipkan
156
idm
##gigit
meraup
berbahagia
cott
selular
tae
dinyanyikan
##arso
##mh
soed
##ampiaskan
mujarab
alamnya
kejantanan
ibis
klimaks
##uge
##agra
##ebra
nicol
sebenar
norek
##adani
ditunjang
najis
##asid
dibintangi
menitik
koko
didatangkan
khususpenawaran
menjam
teratasi
menggembirakan
##anai
wars
category
tersinggung
cegah
wk
325
##pengumumans
##cabang
bomb
kelistrikan
lobang
diangkut
trimester
insomnia
dengk
memasok
gowa
pankreas
suf
seyog
hrd
##video
##emarnya
venus
143
encer
menggandeng
kerind
alihalih
menonjolkan
##pagi
bertubuh
dipaparkan
ngintip
sirup
electric
mnc
1000000
ensiklopedia
##neg
##uning
seen
ditungg
condong
tawuran
adrenal
menggugah
##ebruari
##gatal
terbantu
kakao
lecet
kinerjanya
250000
heav
ea
##kebutuhan
##otasi
graduateman
bankbumncpnsd
##tren
perbukitan
penasihat
homedownload
##hurt
##adabad
amsterdam
menyengat
##stream
keharmon
tematik
lawang
gengg
pembuahan
##ekatkan
sepupu
preview
lompat
cord
##ewahan
ee
riya
##ihara
##width
layu
##akit
menghias
mengobrol
##pengumumansmk
aktu
cantumkan
##erob
##ciuman
ngg
cengkareng
detak
berpur
##itudo
homogen
earth
lalai
pembibitan
tangkapan
kharis
##elektr
##ungkidul
##akwah
perabotan
delivery
mistis
sector
bakrie
diag
##aliran
esdm
dijatuhkan
topologi
menyeramkan
normatif
pemerkosaan
##eso
gob
benerbener
terhal
memompa
berakar
vokalis
brad
darwin
pemrosesan
##sl
cakra
sisinya
majal
##emer
udin
wapres
##yukuri
sorong
kompati
wajahku
##sab
sedimen
memonitor
habisnya
panda
0700
jagat
##enna
jones
berhati
daj
meninggalkannya
024
##ilaan
tertular
ctrl
pacu
torsi
tersingk
presenter
mongol
##urator
ulu
dikabulkan
##rokan
##ograph
rais
siri
takaran
ranking
bour
seung
fikiran
##ule
css
##apeng
menekuni
blaz
dahi
zip
lever
dibolehkan
frustasi
letnan
ramp
##ecoid
guy
sac
responsif
kelar
mengemban
common
membujuk
lapas
soph
perbuat
waduh
##emoga
menyangkal
sutera
mengocok
permusuhan
factory
temurun
##fin
##utrisi
maryam
pke
kc
mengurusi
##intik
0815
##esc
wij
banteng
esq
british
##ald
diberbagai
tisu
snork
semak
kartika
segudang
istan
##ontek
rajawali
terpuruk
pelacur
disebarkan
frag
##remas
pernikahannya
prematur
tutor
kebis
elizabeth
beck
##tang
ust
##uktif
##aksel
diadopsi
##aptis
classic
##kov
dslr
abah
meriam
##sang
mengampuni
chick
##thanks
tergugat
##kemudian
##abet
menul
dend
cile
##enggalek
##prs
draft
belok
diperbarui
penyiapan
skotlandia
ceritacerita
terpusat
##irmidzi
brain
disentuh
dus
##nyk
kecoklatan
##wr
##itional
##perim
##gam
##ize
##asilitas
kapasitor
selling
##tc
##jain
##belajar
sebaya
tertuju
##ucikan
lord
napoli
kentu
mahfud
mesinnya
lm
jubah
jerami
imlek
aksinya
busur
voice
##urr
solat
menor
menuk
snow
menyadarkan
##yati
##enol
rancang
ayahmu
##ofa
##this
mantab
##omon
taala
##belum
javas
supers
##jaz
puber
tos
testis
sirip
rx
kelal
aktivitasnya
##ebatkan
dikeringkan
terpanjang
gili
yess
pandeg
untk
##ugu
sunset
##hering
##arangan
##aneh
##anty
diku
nyi
kelahirannya
nangka
##arutkan
dikhususkan
menteng
uru
##alannya
meredam
##loker
terbitan
##uce
sukacita
##langit
bekam
##negara
orisin
memilik
agregat
penjumlahan
##sam
##bali
keharmonisan
ektp
dikaruniai
badung
automatic
menggantinya
bintan
lawas
##ansa
yoghurt
terjawab
hitler
kent
tinja
soet
##gal
kavling
##googl
kmjam
janganjangan
seberat
185
yth
##tuaku
dibuk
diganggu
lucky
position
penderitanya
ngeh
hokum
hartanya
8000
mahmud
albaqarah
sapu
ck
popok
bahawa
mencatatkan
endang
harfiah
mengupas
pair
supportnya
##isial
kilo
kades
##oglobin
geometri
darul
putraput
fatimah
kacangkac
pantangan
paroki
harmoni
##industri
##entul
enteng
sandra
bookmark
rubah
##rec
##onaris
##iiii
julia
##jati
hurairah
merap
##enarnya
##acoid
pantauan
mempekerjakan
##injamkan
jugak
lubis
object
seruan
karburator
iron
##isiensi
korek
penumbuh
berjaya
martabak
lina
production
berjaga
rangkap
bertempur
##rejo
polo
##emua
##alsuan
tungk
berpurapura
bebatuan
##wahai
##elle
##iket
bhinn
kains
cub
masal
ahlus
pengangkut
berlam
##atory
jeng
##ategori
##psi
konseptual
sbl
ngaku
hos
organorgan
insting
mintalah
paksaan
##antulisan
diperluas
pho
fard
gojek
bulutangkis
mungkinkah
##utradarai
tottenham
dedi
##oneksi
dipanen
apart
##303
melemahkan
miniatur
penyis
linier
teris
##group
bajak
sanak
oom
##uteracom
dikatakannya
terencana
adrian
bersalin
desakan
vin
memberlakukan
disaring
alpha
mika
spons
##star
##jas
syams
##item
heri
bundar
##rung
pvc
pakaiannya
urea
akuisisi
baitul
valencia
##ohatta
##bangunan
sekuler
##tuku
##engkaran
arca
adak
lipstik
sushi
##lumi
defin
gelembung
badak
mengeluhkan
menjelajah
mutakhir
##boleh
akuarium
kepres
##brid
runner
follower
##ims
##ulikan
galian
juan
kaji
##edom
meluruskan
kekosongan
hawai
megap
##ogel
axi
##abrik
beralamat
lippo
tinggalnya
uz
##aperistiwa
sediaan
sanj
pergunakan
kainsuteracom
##endo
football
##alowongan
cid
##baan
goresan
kupikir
##map
mentor
benef
eksotis
proyektor
##uuu
##odium
incl
simal
##ngan
rhoma
filef
##trasi
diutus
##ois
didaftarkan
##aking
##bow
##enue
bhay
sesuatunya
homos
remeh
bolong
elo
##komun
easy
pemakan
##aubat
pask
bercabang
##9000
ketuban
membutuhkannya
melangsungkan
##ukuhan
penget
##angkaan
lex
permasalahannya
sungk
ahmadiyah
##phi
annual
ukraina
##uarkannya
ning
memerah
btp
##trav
manu
priok
kasian
##108
pnpm
spy
memanfaat
menyaring
penerapannya
perhari
diperkosa
berlamalama
##usial
lebihlebih
gulma
berdatangan
merkuri
kisahkisah
degradasi
meriwayatkan
sebesarbesarnya
selebritis
adab
acap
gondok
melak
pemakaiannya
stars
kronik
asem
cf
peru
bts
blogs
##rans
trimakasih
urg
favoritlayanan
7000
persendian
bersosialisasi
##usur
yuli
##ello
ketidakny
##gratis
klitoris
konsum
spiral
memperbaik
refleks
mengingkari
pemaparan
##roc
complet
##rab
##unes
menerobos
trenggalek
kacangkacangan
hotelhotelhotel
ns
diferensi
berisik
perti
##...”
##tid
##bis
kalijaga
tapanuli
##oder
irisan
##membuat
gate
coz
rebo
##emaskan
##168
proba
kraton
penata
menggarap
ipar
##yong
menetr
mukosa
sanggar
##rough
hehehehe
pleno
kisahnya
penyayang
perfect
luncurkan
ditakuti
didatangi
bouti
seadanya
##ungun
marquez
jga
315
conference
##ilau
wanitawanita
laur
toshiba
interpersonal
kuasai
##ologinya
##endagri
berjamjam
didek
aktifkan
dariku
##sebuah
bunganya
zinc
abdomen
reform
##aget
##ariannya
mengencangkan
kelebihannya
florida
perumpamaan
katarak
##apitul
##oboro
beraktifitas
##akal
some
folat
##usein
kemewahan
nova
komentarnya
##sung
electronic
pajang
create
##ombak
rey
##umpal
##unto
prambanan
##olri
menghirup
nasionalis
aba
fisiologi
petak
##mengapa
##isata
tshirt
ihsg
ekspres
##gil
habiskan
ilang
suri
carry
lidahku
pegadaian
diwaspadai
##uts
balance
polip
##erdaskan
##itari
jane
kapalkapal
tiki
serbag
menstim
membek
michel
##mn
campak
maghrib
tow
berpenampilan
luw
rtrw
154
memant
##1999
sagu
gunungkidul
##7000
pia
##ulatif
311
kemang
pencabutan
fren
suharto
kic
terukur
##kie
hell
mencintainya
moc
##iho
##onium
nged
push
##inggit
##2002
langkahnya
##ungu
##survey
penghambat
kids
rudy
tertata
belimbing
amil
tergoda
advokasi
##vet
pier
##mann
##imbar
lingga
gulungan
60000
jamak
solok
irfan
they
##antuan
penutur
##tech
pemandian
alah
melbourne
190
ekuitas
##tia
arit
response
barb
dpc
krakatau
terlintas
cintaku
terharu
##yata
engineer
##kor
pasukannya
##utunggu
selembar
lumpuh
hunting
panasonic
penumpukan
##univers
pdb
linguistik
joker
berciuman
##adh
tulisantulisan
smoga
ngeri
revolusioner
##abul
keriput
inspiratif
informasikan
##die
pertengkaran
soleh
serah
persik
ati
188
##endapat
##iha
ketempat
tutupnya
##ulsi
pembela
tomohon
720
##ahulukan
menyebalkan
higi
##ability
khodam
ita
musyrik
##opia
kls
kurniawan
tumpah
bisul
##eanonymous
imf
penggemarnya
bla
sudahlah
mesinmesin
friendly
##eriv
terkirim
131
barito
rig
perbendaharaan
##parah
shower
##adapun
lily
menundukkan
stakeholder
jumbo
seutuh
direkam
##ombia
berpacaran
lincah
##ensor
valve
perbanyak
pandeglang
pemanis
lgi
referral
moch
dicontoh
melampiaskan
##memang
disimak
borneo
panther
jdi
plato
battery
bike
##artis
keusk
##elemen
##asiswaan
pemij
gorden
krusial
belerang
dilibatkan
meremehkan
##adap
konting
maq
mengunggah
##erto
##ontin
serap
tragis
stef
wahabi
kiblat
terpecah
##instein
##umbatan
kef
kadis
lewati
keponakan
##tanah
##bed
lembur
##kejadian
optimasi
##zh
##ubi
kump
spektrum
##ordan
ember
mengharap
deal
terbayang
sebabkan
politiknya
reuni
parsial
fikih
##erge
akte
mandat
lon
##zuki
##aharga
##opong
##amerika
jangankan
dinobatkan
##pcs
sistemik
##omotor
sudi
mengelus
socc
pencaharian
wonder
mf
##potong
analysis
alga
berkolaborasi
communication
ditiru
uefa
ludah
majalengka
##oooo
##rir
##etode
posko
kodam
hadirin
##ertanyaan
doraemon
##umpung
##sign
menendang
##timp
##ekasan
##ewscom
##opori
loyal
##ijian
##indu
masanya
serabut
desig
168
aksen
diimbangi
lagian
##ijak
senter
cupang
berkarir
bandwidth
terhapus
trust
ast
besutan
menginter
##rell
ekspektasi
##urigai
##member
##eplay
anjurkan
nasdem
bergelar
arkeologi
##heim
##edung
##oning
morfologi
##arisi
##individu
kuatnya
dipindah
bertaubat
148
##melayani
##adiri
ingatkan
alc
segelintir
##tudi
luis
rita
dimulainya
leste
baya
memerankan
lunas
##yp
tontonan
tro
##screen
650
##awakan
modelmodel
menyir
##aaaaa
dilipat
bidangbidang
bbc
chara
##acle
gatalgatal
##urung
kert
reseptor
taylor
tube
##kumpulan
there
dewas
ojk
keping
##ruf
##komentar
menim
##eva
previous
intra
dioksida
karton
mosk
dadaku
phk
followers
gri
solution
##aitu
annisa
luh
dievaluasi
##apitulasi
yuan
diblokir
terperinci
amien
anyaman
##akreditasi
gembala
hewanhewan
##133
bpn
ngec
bergabunglah
tetangganya
##idium
sharp
penangkaran
pengampunan
panaskan
perkembang
##aber
konsultasikan
audisi
pancing
penunjukan
##anjar
##elahian
eq
spiritu
taks
memintanya
walk
##ensus
vita
videonya
dipajang
biang
kemahasiswaan
menganggapnya
##pc
medic
mengambilnya
rewards
korosi
cham
outsour
xam
yer
menyeret
coleoptera
gunakanlah
##umba
brigjen
menik
nalar
diusir
##zed
ort
gx
membentang
nia
korbannya
##manusia
memud
memo
liur
wild
dihabiskan
##lahatan
angan
dii
##grah
mhz
aya
antarmuka
hamster
bertumpu
detikcom
pengunduran
boutique
perisai
agraria
edge
##ujar
milis
##rest
kodok
penjaminan
mv
sentul
##alism
glen
didiknya
zo
meras
diaktifkan
pret
aid
kongk
alif
faq
arahkan
kecilkecil
##mir
pembenahan
donald
berselang
limited
terpapar
justin
yasin
nana
tuang
situlah
jump
doanya
rekanan
inspeksi
afgan
cache
pelembab
kemiri
syawal
pajajaran
153
permod
johnson
kedelapan
keriting
disep
wibowo
firda
##tuti
##ajaknya
berdakwah
ern
kpud
rahimahullah
##113
sepengetahuan
bruto
##eros
chipset
##tium
##102
otentik
menindaklanjuti
karma
##bre
president
##raf
kram
fleksibilitas
##abiasa
theory
frasa
hipnotis
sampoerna
##lia
kirk
mencerdaskan
biara
berlomba
timun
dibalas
‘’
grill
zuh
ald
gadjah
seutuhnya
##urikuler
##etereply
wales
##hae
tebet
##perbuatan
merac
siam
##apola
jenius
peninjauan
koni
##doc
##edral
##itimasi
culture
domin
margar
##alak
rangga
keluh
resources
subjektif
pustak
nazi
wina
##ensik
merangkak
difusi
sinusitis
005
yoo
##penas
haru
berkekuatan
##last
spread
##elain
mara
latih
tangis
menghayati
tho
##atarbelak
oya
##anced
mist
oscar
##lusive
kubus
letkol
simbolsimbol
terjer
##ente
husein
##ayung
dicurigai
var
trs
hed
kemiripan
radius
kocak
patih
dilontarkan
midd
andri
mungk
keses
sunting
sempurn
resistor
menukar
ketidakp
##188
membasahi
responsi
kanvas
keberagaman
perdesaan
membernya
strawberry
kamil
mereg
isikan
penitipan
feses
jelajahi
aris
screens
diwariskan
kerinduan
teruskan
exchange
berwawasan
##thing
brut
##kalimat
pemalang
##mol
##aden
1928
header
serbaguna
##essor
keaslian
##apen
##emang
organization
keuskupan
department
binaan
##ired
perekrutan
##entangkan
ski
conci
kramat
cie
mengalokasikan
envir
##print
adidas
percintaan
dihimpun
perkelahian
dajjal
##forum
tanyaku
pulak
147
diunggah
##stick
deddy
##umband
antum
hasanuddin
##paling
tree
keep
##ulurkan
##bach
##green
sekira
##sheet
blum
kelalaian
laksamana
teknikteknik
##andengan
perampokan
sayak
kasusnya
gendut
##amid
bean
##edoman
diket
muridmuridnya
ajaranajaran
##umentasikan
gif
##rida
bost
dikejar
penyumbatan
##114
dipul
spong
mobilmobil
medik
meh
kodim
##rolet
purp
##atapi
spider
pertiga
menyapu
sdmi
mistik
subhanallah
sks
kedeng
theat
umi
aplikasikan
mengabadikan
##risten
respirasi
##nish
tq
powerpoint
menentu
teduh
bef
##leng
550
ptt
diatasnya
mean
protocol
fai
lekas
vampir
##118
terkontaminasi
quar
ceng
##hamdulillah
dibudidayakan
sadis
tif
##116
kedewasaan
gantinya
sanc
toner
##rai
##rosa
propaganda
thor
##emparkan
##antina
manggarai
vonis
bolakbalik
pengelompokan
menjilat
dop
##yawaratan
monggo
##arno
remb
kupas
literasi
perasan
##fax
baunya
perangkap
##atib
gelora
commentload
##evolusi
ditata
##entinya
berjasa
rawit
##bm
ombud
bersedih
memperjelas
nikon
omzet
translate
##alt
esai
tikar
membaw
##gaya
conven
azab
##yalir
menetas
batubatu
##udut
napi
sekolahmadrasah
##cas
visitor
ina
aran
mengiringi
hash
donasi
bih
punggungnya
kolektor
nda
disinggung
146
bnyk
##judul
yudi
loyang
akb
##elahi
isp
pmk
##135
##action
memuliakan
##ents
menir
cuplikan
bijibijian
##dij
proyekproyek
terjangkit
tabi
##enah
##imasukan
esc
owner
##impahan
piranti
keemasan
qatar
##erawat
##cinta
lng
lalul
shampo
tekateki
##namakan
mendongkrak
feng
##anami
seven
sltp
halte
remun
primordi
biarpun
konkrit
##istika
absor
boe
suram
titi
perempuannya
lac
##asaya
relevansi
hybrid
152
##224
semprot
mengutarakan
##170
##anggilan
##asib
intip
merakit
##ekwensi
passion
##sim
concierge
adj
bermukim
persenj
##dragon
##mont
bojong
##atak
##gap
##andel
##tial
berkebangsaan
rug
drumband
##asya
rail
belia
math
teguran
##ingginya
saga
##ejahter
menyisihkan
pansus
addict
modalnya
gerakanger
turbin
##wave
rimba
##fal
##obar
##akibat
putu
panasnya
bosen
ombudsman
##kaidah
keseri
filefile
tentulah
##ancong
##erve
vidi
dinaikkan
tarawih
kegemukan
##format
kesediaan
electronics
citar
floor
##pekerjaan
hampa
##raan
adem
reader
##asiaan
ard
rumpun
##abung
istiq
##ovask
menggenggam
##uko
dont
andapertanyaan
##ontrak
komnas
azhar
pementasan
195
singel
##arani
vaksinasi
umumhubungi
##oleransi
kerucut
dipecahkan
##eptik
baking
##cover
barbie
##sol
bukittinggi
murtad
mengijinkan
boedi
psych
diawal
weh
##ichi
merob
kamimasukan
faisal
mening
dibiayai
dikep
akankah
death
rekonstruksi
detektif
sunyi
settingan
##xxx
kapanlagi
##andalan
dipikir
score
detilnya
berkorban
nod
mengimbau
##tafs
nge
keikhl
ketekunan
neymar
grab
slta
istanbul
##2001
##ristek
##bun
karl
##anggi
loop
biasabiasa
meramaikan
kurakura
selai
pengetahuannya
pda
pesen
ketombe
pemikirannya
epil
1952
parit
kpp
qt
##190
##unyian
gorengan
diin
berebut
##angkir
zero
berkeli
disun
arahnya
##oven
puyuh
menamakan
##otic
kadangkala
eddy
elektromagnetik
shalawat
buas
reptil
mengabulkan
heg
##ibel
islamiyah
hewani
forest
wing
edukatif
bankbank
pesanpesan
polapola
saudarasaud
terms
cind
##khusus
kejauhan
kancah
##ners
hanafi
##ikanya
finlandia
##iyyah
siregar
misa
ksatria
##cow
ibm
##aceae
botak
##awir
jalak
mengi
##icity
##grosir
pertahankan
istilahistilah
tiruan
konspirasi
##imensi
penjagaan
rambu
membungkus
##arsipan
##edug
memeriksakan
siksa
##edri
divonis
memilah
perancang
ngej
##aratan
row
sda
organizer
vegetarian
visit
article
sunat
mitologi
##angkatkan
##wir
sunni
##ogoh
sye
mempraktikkan
permusyawaratan
bioteknologi
konstitusional
checklist
##kategor
konservatif
##cv
##keh
##hoi
sungkan
kehakiman
unil
murahan
mencaricari
apartments
##cia
talenta
jatin
airsoft
##hhhh
##amiin
cen
gengsi
##apur
bungabunga
narap
reduksi
perhimpunan
##elek
kemudi
##otori
##did
menurutmu
pendahulunya
##rac
##angkasan
##asam
biog
disatukan
kelam
##april
##ongsong
##ukseskan
motivator
##uarai
kadalu
limf
plak
##unnah
dipad
sahih
proton
haditshadits
perhelatan
cristiano
xamth
##aktik
forward
bercahaya
##kit
mengemas
##akimi
resepnya
zombie
diband
kabid
##amo
oval
pamekasan
jalinan
##zation
628
age
juna
vila
javascript
##idh
##103
mempelajarinya
##taruhkan
ferd
##antin
pemutar
sastrawan
duel
##okin
mempublikasikan
rampung
terkoneksi
polar
dananya
lukal
merambat
teles
kesalahannya
##ategi
keseluruh
menyerukan
sinerg
kmu
pray
terangter
##jun
gelaran
pencetak
mbok
penamaan
lumrah
##embuskan
branding
bersaksi
depdiknas
desakel
##ajaman
##yard
hidrop
booting
##andak
women
kegelis
mempres
##agh
##httpwww
einstein
fakir
soccer
##energi
##arkis
##usianya
##dong
bengkalis
pandu
cotton
berlombal
##android
sdt
firaun
berkeliaran
wallpapers
memperbaikinya
cort
gadai
##bersih
##ewe
quantum
mengunyah
ilir
beradab
beruntun
oz
##arr
boys
genggaman
task
nats
wasiat
##onment
pedih
receiver
penyihir
pasp
rusuk
##sahabat
##aken
alut
gateway
ngurah
sedari
##oporosis
narsis
##trik
vib
fs
dipel
digali
mengendap
##afalkan
hidayatullah
ketidakadilan
berhadiah
##orized
jelasjelas
sult
kebisingan
##arsa
##irestoran
suamiistri
merangkul
##aktivitas
##entific
bush
evalu
##itansi
berabadabad
255
157
yuridis
siks
stad
yaku
dibongkar
berapakah
kate
figh
matrix
berdebat
ananda
melan
##sarapan
##inatif
babel
negar
sesepuh
merekalah
maps
terdorong
##owoso
quraisy
perekat
senar
viagra
maksudmu
delima
lop
merauke
##uluk
##emprotkan
situb
mengusap
berdi
ragi
##lom
brom
joint
pref
mengeksplorasi
government
memanfaatkannya
blazer
digabung
pencitraan
terhadapnya
##alb
dlu
sepekan
reporter
mengatakannya
duet
berry
diem
pemuj
message
##adewa
##itam
blokir
pamor
produktifitas
##cool
##fusi
##imbas
eksplisit
##ogol
boul
disangka
pembalut
ducati
##utih
034
sista
berger
##kant
diakhir
tuangkan
##amadya
mbps
memanipulasi
tanganmu
osaka
dermat
##hg
hoki
laos
trig
##awahan
imigran
memblokir
##eun
wawan
cards
tokek
umb
inchi
menemu
##medi
melambung
menyeberang
salin
dzul
##penelitian
bersertifikat
beginilah
dikemudian
giro
ditumbuhi
aditya
kail
acaranya
##minggu
sgt
indic
##jakar
##ilayah
##att
141
ora
##ucon
langitlangit
##eba
konsekuensinya
berkelahi
##atua
ekstrakurikuler
pinus
berbisik
luwu
mengubahnya
seindonesia
##kopi
##yallahu
hyd
eksportir
menyimpannya
amandel
amdal
tumpeng
dilema
membalikkan
##kotak
prasetyo
separ
sakral
disempurnakan
158
wajan
didahului
##cg
sic
lembu
##itment
1953
matematik
mining
tengahnya
sapaan
malamnya
grey
lesi
##sky
dumai
saklar
##nen
##agonis
abaikan
biasakan
komputasi
peraih
flex
dimuka
perilakunya
keramat
##roll
hw
kampar
newbie
lost
##tha
rekapitulasi
##cbet
gerakangerakan
amandemen
218
wine
pedal
tidakkah
persenjataan
senen
diberitahukan
orch
berhijab
##apel
resistensi
harris
course
optimalisasi
##ermis
##berb
button
pengur
nyai
maulid
graduate
##jemahan
ele
files
##gram
sebabsebab
##okoan
split
wes
teaching
##silakan
##impung
external
yogurt
##ungai
terluar
kesungguhan
##ermati
fatmawati
mengungsi
squ
##angsel
gaharu
perpres
##ahhh
mencermati
cart
dago
menas
##hlak
statement
ester
cendek
tercantik
bintangbintang
seenaknya
ventu
kemaslahatan
##esign
memaknai
##maj
vac
##jd
##okah
kalteng
1912
beritab
scholar
insek
narapidana
kembalinya
memantapkan
fondasi
mengagumi
gathering
##shire
bayang
clip
pulo
menyamb
disain
wy
korps
spora
sepulang
##ivora
##etubuh
operating
##ikutan
pengep
ditrans
jepit
penyad
desakelurahan
senat
bagusnya
##andari
kekej
feature
##mac
prec
kepanjangan
msc
1954
luarnya
##bib
149
jahanam
sahamnya
rack
darma
berair
vote
skrip
uteri
elp
boston
datangi
ign
touring
##iput
warnawarni
intrinsik
anto
isya
terangterangan
ff
shinta
sepintas
##perempuan
gabus
##cik
pleci
been
miras
rahayu
marinir
##pendaftaran
217
lukaluka
dusta
##adanan
avi
francisco
##entrok
itunes
putraputri
bright
multibahasa
lentur
kumuh
revitalisasi
gali
##water
puzzle
highl
membusuk
incaran
skep
racikan
mencontohkan
##iva
sepuas
novi
idealisme
mok
35000
berpedoman
dicuri
saras
berlapis
mbh
raket
motto
menantu
membebani
rektum
menjuarai
payment
mengatasnamakan
##kategorip
##ihh
bangkalan
hon
235
khianati
illegal
ketidaknyamanan
kerasnya
sofyan
kakiku
bapp
almasih
mencuat
gambut
hihihi
##got
misionaris
##okrasi
gpp
sperm
airasia
lau
lintah
pesert
terhalang
eric
komunikatif
##eadd
disembunyikan
designer
##sertakan
bandeng
musiknya
##imeter
mediteran
menyembelih
tergi
multikultur
##begitu
maroko
keputusannya
dish
seba
mengisyaratkan
205
etos
hold
massage
810
##juga
deterjen
bkk
rencanakan
osteoporosis
##wd
##ework
syuk
sengg
dagu
dunk
menghimbau
mengutuk
menyalin
tad
mempraktekkan
juragan
jawabku
setahu
dalih
syahadat
merenungkan
pewarn
minut
running
scientific
guang
##itian
andreas
bondowoso
magma
nii
##travel
kecuriga
gtu
mpv
hambah
penunjuk
kalkulator
isbn
poli
##ijk
btpn
nac
kalu
##epad
prad
struc
sf
unesco
persebaya
bertebaran
##fly
##tron
mengek
##igakan
pamulang
gerakannya
klorofil
simalungun
ze
pantatku
chall
dididik
ambulan
centang
##anditerbitkan
##injaman
freezer
menolaknya
beranak
berlombalomba
digarap
diingatkan
##nye
dinan
tarbiyah
vulkanik
matinya
##jul
als
##lands
330
olga
dawud
pengikat
teuku
polemik
adblock
##prof
pemakainya
##oha
dilak
suraba
##arnegara
##gue
1951
krem
yr
##ikasinya
horisontal
wolf
steven
bisabisa
asl
symbol
permodalan
fanatik
optimistis
##mengh
purna
2300
##huk
dakwaan
ketum
primadona
perburuan
trofi
vitalitas
##loy
diungkap
kerikil
menganggu
disutradarai
partaipartai
##masalahkan
connection
elok
gayus
##intar
lesu
rober
pecandu
dialaminya
salem
##asw
retina
norekening
ngajak
springs
bru
monica
memungut
lih
konstitu
##dalil
berkecimpung
##oret
onani
pematang
kategoris
pencetakan
panutan
014
merel
punk
tepuk
##ogenik
selamatkan
##oal
##komputer
##utut
basil
##rov
muncullah
##pis
##tafsirkan
indomaret
##anegara
piringan
##antulkan
merespons
##aui
firmware
mengabarkan
shel
##adio
kelelawar
cerdik
bermuara
honey
##penj
##124
##andy
recom
ridha
dudukan
menggugurkan
mumpung
##apping
##ather
ponpes
merica
##engkan
##zid
carrier
375
giant
yakini
anugrah
menta
dibubarkan
##xt
##ikk
why
moderator
##sburg
##117
subject
df
taxi
##catatan
perduli
bersamamu
akulah
##atri
penyaringan
##afe
##ribd
twin
kehendaki
kecangg
malware
polimer
dzat
menangkal
##endy
##etek
raihan
pengharapan
trit
theatre
chain
##echat
tahaptahap
mengasy
ketulusan
bentar
kerakyatan
##rud
angga
##ringan
menghangat
recent
##more
##perso
##olus
ikl
mention
namamu
kemendikbud
keruh
pebruari
membangunkan
church
terakreditasi
##104
komplain
hidrok
antigen
lionel
sependapat
##eko
perant
abri
##iany
genangan
kapiler
darm
firdaus
wide
seleb
ayunan
dibimbing
sitem
##peran
bermalam
##epos
batangnya
inspektur
berkicau
atmos
dieksekusi
mencurigakan
klan
erwin
##kapan
##agog
dede
facial
monoton
##ovit
##obs
##sara
##ulatan
pertokoan
##araannya
##uai
penyisihan
hayat
beladiri
situbondo
penggambaran
aco
rf
hihi
denny
kompleksitas
preferensi
##atom
164
brokoli
oriental
ons
diperolehnya
keikhlasan
##ici
##uket
mewarisi
romo
tuba
##kanlah
##isida
melaksanakannya
bius
##odorkan
##icial
menanjak
purb
dimatikan
alz
toples
mcd
meleleh
##odes
telaah
profesinya
vig
##osinya
pengobatannya
utomo
075
melap
bontang
memberkati
paytren
mengaitkan
waspadai
also
stephen
##omputer
hidroponik
ditindaklanjuti
casual
camer
lempar
songket
##ungkinan
roro
##endiknas
mengaji
expert
living
muq
##indasan
feedback
pindahkan
berkeluarga
mengoleksi
adakalanya
pemancar
9000
bersin
kaidahkaidah
menghuj
ish
dicat
dtg
lir
freel
princess
pejalan
##ansinya
##bahwa
meninggalnya
formulasi
litur
terurai
##oyok
kasta
ferrari
civil
##muh
pembahasannya
roboh
province
##kara
libido
pertiwi
##ontokan
blib
tvri
capaian
tart
##oworo
##fasilitas
rubrik
mengkilap
memihak
tindakannya
kekerabatan
batangan
##padahal
sepihak
perserikatan
jimmy
dynam
pencal
oranye
jokow
bengkok
antri
tanjungpinang
civic
##encer
##ilar
setup
daunda
pamong
bidik
letter
kategorit
##opulerkan
bersiapsiap
berbintang
##okumentasikan
standarisasi
experience
anang
hung
kontingen
##tentang
membekali
suaras
mencalonkan
##ampakan
kosa
memerhatikan
barus
mimbar
environment
##elnya
0823
terutang
jenar
rambutan
kegelisahan
gos
apat
kiprah
terserap
terpaku
219
eti
##izin
amr
fosfat
dipus
chinese
primordial
##sms
##asio
##itivitas
newslowongan
trombosit
omset
samurai
fert
journ
netbook
gacor
mencerna
rival
hijriyah
organic
##stm
digantung
dipandu
pranata
nev
tabanan
gigih
kelambu
001
dikisahkan
##stabil
nv
menca
##ets
berilmu
batalyon
##999
slow
##np
##icoba
rafa
sambas
##look
elastisitas
batara
222
luntur
ws
prosesproses
responses
##seorang
prasyarat
dicermati
permukaannya
prasejarah
mengerjakannya
persuasi
menghidup
##exe
penyertaan
##osteron
mendingan
jarinya
sandang
fried
ikanikan
##oyeksikan
##asas
1020
##standar
##odadi
##assus
books
memandu
##apaan
murka
nurdin
##vol
orisinil
tersambung
mediasi
available
##dc
malioboro
gumpalan
jebol
bentrok
mendunia
dinyal
siwa
dewata
paranormal
##ready
ditegakkan
##mii
give
##abuh
jamal
berduka
diren
ohh
menggiring
idea
giling
ciptaannya
string
##mant
##orid
##nea
##stein
##biakan
bulub
memikul
tergiur
##poin
##leting
syok
sentosa
dipak
pelapor
kehendaknya
keberk
awsurvey
pintunya
##dua
##don
merantau
##otif
hort
pemujaan
mell
melalu
##askia
antusiasme
menaikan
va
noor
##enet
peminatnya
tinju
menko
kontinu
aje
mencurahkan
direalisasikan
ekonominya
prasangka
sekuritas
ssh
##period
tampung
##220
jongkok
dikira
hahahah
##webid
samosir
##enjot
antre
sperti
##ompakan
sesuka
champion
karuan
##lydeletereplies
sebatang
kutukan
runcing
kegunaannya
penyalur
##anjal
succ
##sunnah
katalis
trawang
kurungan
622
malum
234
mengupdate
tertanggal
penjabaran
##tok
pemilikan
ronde
##indonesiacom
jelaslah
menyoroti
indie
absensi
pemisah
mematahkan
##xon
365
wenger
andajasa
##enh
noid
##andingi
##agereja
penegasan
baz
six
ahlul
##ploitasi
tangkis
berba
menebus
nigeria
abal
bubar
hood
yeon
kpop
berik
prime
hmi
fok
uretra
mengerang
brapa
vegetasi
##irahkan
##disclaimer
##awancarai
berdaulat
oliv
awsurveys
published
belt
raffi
location
penghentian
pluralisme
kapasitasnya
reaktor
##nies
jpeg
dilewatkan
kesek
clark
resin
kemud
##opp
##ulistiwa
memperdalam
##ants
##artinya
seperempat
blackjack
poto
banjarnegara
psm
haq
susunya
keperawanan
##mania
kolombia
lid
spm
##huruf
aliyah
termudah
##latul
juice
polwan
cukur
maslah
normalnya
equip
trendy
ovulasi
penguapan
nobel
##onial
reng
sesegera
terendam
mif
##ervice
##akanya
sell
booth
stage
devi
terpesona
ampel
terpidana
akarnya
##alayan
kecurigaan
##desain
hanura
menyuarakan
tunjuk
secangkir
blom
rules
##ebohkan
psi
oxford
pemotretan
perker
lebanon
sudahkah
elemenelemen
##apalagi
##dani
##ukada
##bawi
kapita
##persi
fikir
bujur
boeing
##wt
syeikh
karakternya
teleskop
preventif
##tupat
rans
mendung
lav
rika
##bian
arisan
muhamad
mensyaratkan
spl
169
brantas
homest
##umbar
publisher
##ostr
menyiarkan
##pikir
letih
istilahnya
##idato
pembayarannya
pneumonia
pecel
membasmi
pemuka
##objek
terapis
cus
upi
hous
gayo
##elamat
disertasi
indot
323
ngem
paw
bumd
dikej
162
##ahahaha
##agnosa
pempek
penang
keikut
chicken
modalbagaimana
seal
parahnya
terusan
##hop
##adalam
##acuma
daster
tonjolan
independent
dirgoworo
autis
##aruk
##1998
walang
sandwich
jengkel
kapak
theater
##side
pemotong
mengomentari
gambir
##akinya
mengajaknya
##eprivacy
kandungannya
sahut
##antun
helai
##ilya
bijih
kukar
subyektif
hartono
##shi
vid
##odong
##tusuk
##zine
tama
belle
anjlok
keberhasil
##itamin
##ugihan
xamthone
bukas
##ological
smo
true
##iry
brip
mudahan
pelunasan
##alkohol
ekstraksi
##mor
ngambil
mash
ilmuan
nawawi
jesus
ironisnya
##asiapa
satya
gerah
##biasanya
recommend
##mid
##dri
##eplus
mewujud
membenahi
mengcopy
keseriusan
sahabatku
##anus
datuk
trainer
kekristen
##25000
growth
trio
harvard
##ujurnya
outsourcing
keguruan
tahl
district
kiki
pemudik
plac
kelangkaan
networking
tuas
salman
##nag
##rotan
##asati
##isari
sahaja
##anka
lipi
memilihnya
keaktifan
manajemenfoto
remunerasi
gratismelayani
buf
##full
tao
memposisikan
##apu
cuba
dibawahnya
##assan
merdekacom
tuju
idn
brew
##kesalahan
disewa
dihidupkan
kiss
ditelan
hidrol
kesederhanaan
mengetuk
diis
kanjeng
##akuannya
gerbong
biayabiaya
##ento
gre
dinkes
##atarbelakangi
nr
kargo
mimin
topic
##cis
mulyani
bekerjabisnis
##eware
alexa
melihatmu
“1400
##ratarata
vr
gprs
bnyak
clin
future
jalal
dpl
mansur
##nh
disinyalir
##intus
##ersil
ibunda
##perl
mengincar
taqwa
##onjong
tipsnya
##109
##soalkan
renangpantai
##enix
kabag
perawatannya
kronologis
wargan
##epam
playstation
membedakannya
metam
berkantor
##etris
musi
kepemimpin
##alloh
wahab
mengkh
diperbaharui
hemoglobin
##ausan
grob
menyusu
##ilu
pagelaran
##aug
kairo
##unggul
diperintah
lelucon
keagungan
sunter
zaskia
dirut
sepadan
deret
plastic
diskusikan
memakannya
##arman
cartr
pengger
lpse
elpiji
##efleksikan
penyelamat
diajar
gmana
bergoyang
simpulkan
numer
##cks
gerejagereja
resepsionis
jed
labuhan
primitif
##wanto
wirausah
pesiarprogram
huda
##123456789
trafik
##hom
nurh
mempercayakan
kecanggihan
206
chapter
##pindah
castle
kecukupan
##harinya
##oocom
agamaagama
##xs
##kip
##apnya
ques
pemenangnya
kesaktian
##uner
##gle
stylish
harmon
174
etim
##artika
313
gmna
sekat
idris
agunan
ditanami
telak
terbitnya
hangus
hubung
minder
dipenjara
##ayanan
##free
cutting
tempel
seksualitas
verb
##not
kolon
terealisasi
pemko
kejadiannya
dow
##obal
microsd
dalildalil
pengasihan
##persoalan
mengucap
##layang
pancaran
ngab
mempererat
dilihatnya
terong
mangsa
##kok
dinda
ditafsirkan
ej
carbon
kudeta
waktuwaktu
ngurus
scott
discount
166
brook
depend
##sius
oak
##apal
scorp
ampas
lalulintas
simbolis
robek
##embilan
##abahasa
convention
##klo
hormonal
karate
merugi
sevilla
mexico
bertakwa
jagad
fiktif
kodrat
kamarku
belang
mencairkan
dell
azhari
nyawanya
delux
pembor
pakem
##engineer
emiten
featur
##ulut
rendam
imag
kwart
##perintah
seconds
moda
andrew
##ilh
direndam
berbakti
mendasarkan
apol
##etap
cih
beluk
pewarnaan
danny
angklung
kyu
151
##akarida
pengerti
sampeyan
mahu
aljabar
macem
inteleg
911
cinder
reklamasi
regency
menindak
arabia
ditahun
##enturan
sedalam
eyes
kekristenan
##enial
sinkronisasi
##liga
menularkan
##tl
tahaj
digun
therap
##ihatinan
intellig
erp
uts
kompilasi
oles
##126
202
muas
guntur
kebak
cookies
kedatangannya
##ulina
tkd
menggairahkan
dbd
dort
##amak
173
##incangkan
##anggungan
relay
berbulanbulan
dikons
berpandangan
taufiq
slank
mgmp
0852
##sehingga
observ
awalan
##ebet
kamal
melihatlihat
sistematika
##uuuu
mcc
##ungkas
billy
##ecehkan
pencalonan
blanc
terpal
##ostal
zionis
burhan
##name
##engger
scann
ian
bertaraf
economic
kaldu
pendiam
dipetik
##20120
circ
##arawa
badm
kumohon
statistika
manda
menelaah
bip
##diri
menstimulasi
univ
mengulum
bertingkah
autocad
jualbeli
deriv
inku
meraba
##ampek
mainnya
mrt
kya
disuguhkan
##mart
##ibaratkan
kirana
salafi
imran
##abad
dihadap
penulisnya
menempelkan
ende
##comm
jant
dedikasi
1030
##eprice
psikomotor
bentang
then
erg
inik
emirat
swalayan
316
memanggilnya
pemecah
ditelusuri
menyerbu
steam
##oding
membanding
untu
jimat
siapsiap
shaleh
ketupat
##akes
kadi
paginya
##gers
##kominfo
kemenkes
pasutri
semacamnya
kedap
jatinegara
bamb
##aspadaan
pemadaman
pandawa
nazaruddin
rewel
berinovasi
syaif
tuhanku
answ
##chan
bloom
passing
binti
##oam
##formal
dropship
terekam
arbitr
leadership
uno
##obus
major
##repot
##mall
##unggulkan
##ether
cass
wahh
##mmm
perist
siapkah
menyamar
stereo
159
yanti
current
terkendala
##sista
rendang
rajab
sakin
release
mengarungi
##imun
bentrokan
memberitah
berlatar
brutal
##egun
##ewat
bilah
multin
jebakan
pendistrib
substr
unic
pemilukada
avsec
perjam
ngotot
haluskan
kotanya
rimb
tabu
##ission
kelemahannya
downline
##sering
tumbang
terjerumus
##aiyah
khayalan
kekuningan
ditebak
wor
##2019
panwaslu
imperi
##jr
lv
oksida
konektivitas
bahagian
fisip
##universitas
mengkonfirmasi
dihaluskan
##ostik
jahili
kontestan
penyempitan
orif
iskan
muamalat
##edikasikan
rolling
##dll
##walaupun
wheel
perintahnya
resume
233
cig
1111
##121
crown
singkawang
##fak
kuper
jurusannya
##......
buton
##fre
tercela
melitus
berapapun
kreditur
##irausaha
##thn
vera
menaf
jai
##elian
diversi
choi
pemesan
penertiban
scholarship
pog
bercocok
menjaring
cec
physi
tabir
cobacoba
zamannya
##open
bising
mediterania
hafalan
##dirkan
keluargaku
kepresidenan
asp
terlampir
##utch
pesepak
subk
dahul
1939
dikom
janjinya
bhayangkara
titipan
sayakamar
##walik
##friend
keabs
kesangg
naek
##ungnya
tambun
cra
##6000
##tanggung
##dikan
moderat
kewaspadaan
##arit
178
angi
penghuninya
##imin
sita
multiple
bermainmain
puerto
eug
tlg
variatif
##qyah
iks
sabit
malap
yesaya
##pei
draf
##wide
##jog
smash
membeku
dioleskan
diplomasi
itali
cumacuma
malumalu
tawanan
menjulang
ozon
artist
##athan
##amik
kiic
##isasikan
penindasan
tandanya
##ikot
##ameng
melindung
memeriahkan
##zul
pkp
berhutang
mami
mayjen
##sha
mmg
softwar
ehh
progo
kkp
##icer
scrub
##gala
dinner
almu
##jadwal
##nyalah
berhari
queries
pernak
plate
167
suarasuara
sutan
imunitas
##marah
filenya
##iller
merapat
bongk
sne
chlor
balkon
siluman
fatin
ppl
kuba
penculikan
paguy
perencana
lainlainnya
##sian
everton
arts
##gol
bajaj
##alink
memanjat
bilateral
sawi
ufo
##iaw
##away
##ceng
products
##zikir
vinc
khol
ppi
##periodicity
ketidakt
##107
karawa
meninggikan
takjub
rateprice
bukaan
##ombolan
diplomatik
diuj
hook
connect
rateperiodicity
##amel
purnomo
gianyar
berwajah
regular
pamit
khair
##kwk
##inergi
oki
ngomongin
kalimatkalimat
pede
burungburung
##fon
tembang
##artono
menantikan
##indih
bons
rice
##onetworkcoid
kawanan
terab
sutr
tiri
##utannya
profitab
##udo
##uras
genting
##obolan
sunah
wen
getar
dibangkitkan
##ompi
pencerahannya
177
epistem
berhatihat
##riel
1520
kliennya
langs
princip
##aboutcontact
amun
##isha
vall
pms
dortmund
coach
menghantam
atraktif
accept
emerg
##evakuasi
kroto
mulya
##engineeringg
anest
masyar
##kins
syndr
pashm
##imbon
224
diah
081
indr
santunan
costa
shoes
cemara
keprihatinan
camping
##achi
peranannya
syahid
mz
berinisial
ditanggapi
acuh
mayora
##106
##prod
bulatan
sayangi
kiu
beradu
mendagri
##aset
kunt
kebo
ott
##qoh
##arahi
dokumend
jua
1530
coast
pinggulnya
fatah
##bagikan
##actor
sentimen
andrea
lahirlah
bawahannya
##fen
perundangan
ave
dijauh
tekno
cermati
pashmina
perkap
antim
matamu
pembenaran
vegetatif
##ptk
erit
komisioner
##endek
##masukan
smama
army
dng
ict
mertuaku
menjaganya
perhotel
percikan
ptc
tana
hti
audiens
diwilayah
wag
##ulama
cable
dipamerkan
menengok
export
mangun
symbian
logat
##ilingan
##suatu
taimi
##sey
bermata
##jaran
ricky
menegur
loncat
birth
relationship
lamban
lou
orb
##atum
homeprivacy
alutsista
cukuplah
dimaknai
blur
roof
terselengg
kardiovask
pikiranku
maker
roller
1012
##rana
their
spermat
##255
##ahim
lengkung
ginseng
serdang
menguc
bobby
penggantinya
dipidana
penyebutan
##health
mengasuh
keikuts
##telp
catalogue
terjepit
apung
amplifier
potter
bersambung
atletik
raka
##anjiri
inkub
programnya
##occus
##ayatan
pudar
bappenas
membal
temanmu
##bung
nongol
radhiyallahu
manufacturing
##itacita
assalamu
dipersembahkan
prosentase
damar
##imo
nita
kuadrat
dinosaurus
motorola
syafii
gema
lyric
##selama
##aksananya
##tampilkan
muhar
handph
sistemnya
pertahun
kesesatan
bisanya
ciledug
latest
##hani
183
sei
berimbang
cepatcepat
kyung
active
aan
##antui
tertimpa
krl
hawaii
##gor
perakitan
yad
##peluang
##dewasa
galon
membintangi
persoalannya
noah
dideteksi
ikutikutan
edo
dirintis
defisiensi
memijat
0219
##kang
zainal
membidik
florist
bintara
merdu
bajingan
kotamadya
seyogyanya
##atalaksanaan
##ady
emg
dica
##arilah
complete
kompromi
##ques
bathin
dimata
##run
diemb
pariaman
trafo
terbatasnya
waras
dinyalakan
pelelangan
##alip
kenceng
qi
##yul
athena
terpikir
landas
pelit
taun
##you
##ehati
##ejaran
##pernik
photos
sisir
deluxe
peruntungan
mangkok
melukiskan
hank
larang
kwa
dialirkan
ajarannya
##cek
corolla
##burn
##efinisi
mentrans
##laporan
##ifera
berjerawat
effendi
pelni
##umental
senti
##eren
granit
diving
omongan
##adel
anita
##overnmentman
advanced
perez
##guay
menangkan
480
hkbp
tingk
marine
pengukur
##akam
##omodir
mrk
##topik
##menjadi
cerminan
chemical
##itaran
mengkhususkan
ilusi
telinganya
merasakannya
##eps
##ebagai
partisipan
mengupload
bari
mina
##akarena
adopsi
fahri
repotrepot
gadisgadis
##world
##mikan
discovery
brush
yellow
jaf
##putra
terdalam
etc
shaf
musnah
##uria
##hand
milk
##trib
kombes
meneman
pembub
pori
##andaan
karenakan
dokumenter
lakon
##tigo
berhatihatilah
##umpuhkan
##ause
##ammad
influenza
kospin
gemetar
##amater
mamah
##tualang
kyoto
bailly
teksturnya
ulum
##untasan
indicator
pembungkus
##oleksi
##upang
elearning
##uin
pembangunannya
##ombol
##akteri
##ajan
penjas
ikhtiar
izinkan
pebalap
20152016
pertik
penahan
ketajaman
##ajarnya
urungkan
trima
elektroda
drink
dinonaktifkan
moskow
tril
##ulasinya
investment
perhotelan
##dot
##pahaman
##ipolri
surplus
koloid
prostitusi
baghd
sasuke
##erhanakan
##etuai
fasih
hormati
##ihin
biogas
assunnah
sekolahan
##ights
menyeru
##istribusi
ftv
##atihan
##chool
rusun
brid
majah
disita
##opel
kumparan
##fot
pomp
persimpangan
##rahan
penginj
masjidil
163
moderen
##uyur
soer
gitaris
hul
##144
280
mahab
berir
##loh
resikonya
prabayar
##edian
rmh
##surabaya
##ress
##sedangkan
20142015
haruskah
pse
##ended
tergambar
gendang
ditunggutunggu
lpg
etanol
termuda
siber
sulfur
dikelas
##elur
feat
perempatan
sau
improv
ila
proaktif
kegemaran
##erc
miris
hammer
io
soekarnohatta
coreldraw
erupsi
menawar
dokumendokumen
ampat
kerahasiaan
##afir
makasi
geram
kaj
##wet
bakau
agresi
presisi
kukatakan
850
persipura
magrib
patin
paguyuban
##sama
peribahasa
ogan
sukun
situsnya
##formulasikan
##acuum
tumpuan
##132
juk
kkm
utsman
menggugat
usang
fuel
tmp
panja
##amanusia
kuping
phuket
##kekuatan
##136
##ogle
cobain
##fb
arung
cheng
banting
sleep
nasibnya
sebel
terges
traveler
ape
itis
##adin
images
alber
hister
menyalahi
penggolongan
pengasih
merangkum
bully
toleran
menjalankannya
##ewall
lomp
##intaannya
##izer
uruguay
##usuku
##tolong
undipir
mengorganisasi
pantura
anggotaanggota
generik
##vy
berdiameter
0818
75000
##beratkan
maur
aston
membubarkan
##pember
thi
karsin
penyemprotan
alaz
strong
cipto
kemdikbud
##pera
##mos
##mnya
many
menayangkan
pipih
inbox
membukukan
##127
meta
suppor
pengund
battle
disematkan
##usion
hadiri
arthur
sampang
fluktuasi
feri
otoriter
##ebrata
columbia
degan
kentut
residu
diuntungkan
consult
adl
mengharamkan
##engsek
embun
syara
chevrolet
##ingcom
teritorial
##haq
##bintik
berdurasi
penyimpan
akrilik
scribd
abe
pijakan
putingnya
lai
##reat
epitel
##sebenarnya
memperbolehkan
kepram
matur
suasan
kebalikan
kesah
homestay
kaz
curam
##gagalkan
chief
12000
710
tami
legitimasi
##div
##andaian
nes
##pilihan
sedini
persawahan
ttp
sigit
dikenalkan
gates
pemainpemain
##pertama
nahdlatul
##222
silih
##binatang
##ught
berkali
epidemi
lobi
##cuma
pengapian
##suk
kompatibel
valuta
wayan
korsel
##rise
berakhlak
gabah
malin
##10000
spion
##ejahterakan
aquarium
layarnya
begadang
##otil
menanc
merangkap
obati
merenung
dibeberapa
##arja
##andalam
dibandrol
tubuhmu
menumpang
##alum
##olehan
berlemak
atlantis
swas
ampunan
darimu
memuncak
minumlah
##onsentrasi
kha
peluk
shot
hisab
##idalam
menyeleksi
border
feeling
##larasikan
baill
kandungnya
##dat
ikip
##ension
bidah
kicauan
prefek
bertemakan
##etaka
hingg
##leks
0600
pemalsuan
tanggul
yoona
rooney
bangsanya
##129
diramp
tindih
##bury
##zani
benefit
610
ritme
shampoo
aerobik
sengsara
##rih
gta
bobo
pure
##keputusan
sukusuku
kurung
penyatuan
##karakter
akustik
##dig
act
##tail
build
mustaf
karik
kasad
disembah
doank
##oad
talang
##kepala
shooting
kearsipan
ditit
##ebol
##ross
##oklam
tungkai
mira
beralkohol
pagipagi
snapdragon
ketimp
##1500
ishak
rian
##arengan
jasanya
kecepatannya
fh
ihsan
through
grogol
kopassus
dipasangkan
##andarkan
##arasan
pisah
finger
pintas
strategy
##utk
artikelartikel
disegani
##amarkan
perbud
magnetik
kebelakang
barel
wirausahawan
##edulikan
farmak
beritaberita
siksaan
faktual
grid
before
antv
miya
vpn
pembacanya
magnitudo
sejujurnya
menghakimi
ding
##idengan
##ear
cartridge
bersungguh
tavak
munich
kembal
galat
##praktek
menimba
nicolson
gaga
penampang
koto
equipment
naz
maga
##goin
##dad
##biar
##elajaran
##isius
##ikeras
simetris
snorkeling
rapid
hep
tahi
tavakilian
reserve
jij
tail
kebaktian
##355
##posisi
garapan
nugraha
##lov
memupuk
##ramen
seledri
shahabat
osm
setrika
cdi
lava
##tipasi
##anikan
##alhamdulillah
trovit
3500
##indai
penimb
cangkang
dirayakan
kfc
mukt
komunisme
zig
##search
031
##pecah
guardi
##turi
##urban
245
stro
kontan
metodem
headline
karawaci
bolehkah
##edangkan
dating
merangkai
##scape
cerob
antark
##cin
diduduki
##black
diijinkan
galuh
kepramukaan
terry
preval
meresmikan
##opik
##front
menyusut
meranti
##aralah
handic
cro
kepemimpinannya
grobogan
induktif
margarin
##eskrim
mujizat
bertanda
friends
dicairkan
almond
##155
eleg
atp
come
bermod
ketimpangan
serunya
frase
phoenix
bram
##aknaan
nc
suryo
##argeon
ventr
berumah
cerna
20102011
##irs
menget
bourgoin
kerib
mediator
keberlangsungan
mpu
edema
ouvr
##455
tikungan
menggangu
dibawanya
baillargeon
carlos
doni
sesamanya
pemanggilan
##orek
orrell
##ursor
mikrok
round
roskov
##134
bisby
paglin
menghaluskan
ouvrard
epilepsi
paglinawan
##adengan
spirulina
##cial
gajinya
##warn
azas
berdu
hengkang
differ
reklame
marzuki
##alur
muc
ultimate
villas
##osiasikan
##osongkan
kesombongan
##ikultura
##ahuan
mudh
ganggang
baper
bersinergi
sinta
##harapan
terminologi
dosanya
##kategoripilih
bubut
acounting
sambungnya
vb
##park
paspasan
##opat
berst
gesek
reskrim
katakatanya
memor
pertikaian
customernya
diaf
vidio
fasilitasi
giginya
personalia
transl
##egeri
dibina
tissue
menerapkannya
menggendong
setapak
barcode
eksist
pipis
spesifikasinya
##ahli
optimum
plagi
terperangkap
terak
roch
##qa
##ewi
##undan
bingo
buangan
apanya
sugeng
##orialnya
##intih
pesatnya
##bln
##rina
##ankas
260
bulanbulan
##ejamkan
balutan
christi
askes
scar
aver
##elitik
sukam
tonggak
alasanalasan
kabah
##etuskan
ppat
##owisata
bertuah
##ampton
magis
gd
penyiksaan
derb
##elisih
##unculkan
##agesa
libya
mendambakan
gigit
perku
safe
berimbas
widi
pascal
223
pgn
santet
##adoa
##ilink
insektisida
vertical
318
notasi
pearl
189
digunakannya
##ihab
##ustin
keteladanan
##sejarah
celaka
arie
kategorik
anonymous
kuli
kewalahan
pembekalan
adrenalin
mengkonsumsinya
##tics
lafadz
tepian
##edai
penel
pragmatis
menyewakan
##kerj
kitabnya
xanth
uan
berangsurangsur
##asilah
##mum
kubik
lantang
bersikeras
melontarkan
pill
capa
farid
ketiadaan
membukanya
creative
keberhasilannya
olig
diaman
vacuum
holl
peer
probabilitas
higienis
fro
mengeringkan
writ
excell
##ajadi
mangan
application
##jito
guardiola
bagiannya
cakraw
residen
nay
##bayi
diperingati
1926
hadapannya
0819
drone
pendistribusian
cepatnya
pindahan
used
migran
petarung
rn
tcp
##walikota
inkuiri
cashback
cabangcabang
albuk
terpampang
##amena
ditengahtengah
##ianyiakan
##otop
kalahkan
wajahmu
##luaskan
vv
krna
bulubulu
203
##putar
dilukis
pengenal
##akita
morgan
mob
##onoid
bph
##intu
erotis
##ternyata
##333
merogoh
314
204
##fire
infokan
banjarbaru
promosikan
abjad
lumbung
nyok
blind
menciumi
today
mengah
##ibal
samsat
iba
dicap
##antoro
crew
mission
nitrat
sister
##erman
komersil
browse
dilanggar
pemalu
berteknologi
diind
pengairan
suksesnya
kres
timtim
munas
1944
scene
heterogen
tangsel
heat
##750
konsult
reality
terbarukan
lonjakan
##dek
##ladesh
muter
##oxy
brio
berbobot
520
##ihari
##ulawak
poltek
dipingg
resource
laura
##acontoh
buntut
merapikan
alhamdulilah
cili
klorida
alexand
fraktur
redup
ipod
##dos
chu
##iputi
halamannya
##usin
kelip
budayanya
menggantungkan
##trak
##oncat
biof
berkilau
##evard
##yaki
##ocokkan
##enggut
##uiz
##perg
ibcbet
permais
1001
menyianyiakan
merger
merampas
ngerjain
pubertas
tebakan
berinisiatif
612
menyayangkan
##ulation
demand
pengeboran
superh
ulasannya
kantoran
##iramai
memprioritaskan
operation
berbaris
delhi
perincian
websitenya
disebuah
##ariyah
merawatnya
tergesagesa
origin
exclusive
nons
##uriang
penyembahan
jap
bull
guling
antiseptik
diadakannya
##fred
matte
mengarang
terr
lebay
lupus
terapung
wakilnya
ppob
proj
karikatur
sholawat
kakeknya
berdialog
mimpinya
menonaktifkan
busway
184
landak
dipromosikan
##ennya
1908
casio
susanto
antasari
172
tiara
korintus
mendiami
##sma
sajadah
memanglah
tipstips
rik
menyesali
kebab
simultan
lens
dapati
tolok
pencetus
jobsdaftar
##taqwa
mengoleskan
##nomor
##upload
bikini
manisnya
berselisih
bangunannya
keberkahan
membungkuk
makar
prestasinya
##berbagi
penghujung
nafsunya
troto
alkali
menstabil
memperburuk
informatif
sajakah
pelancong
kasub
kedinginan
##ayuran
curi
##imam
##lakuan
alang
mencampurkan
siwon
ngumpul
terbaring
penghayatan
berpenghasilan
##gur
amf
mereb
pesugihan
cancer
pendopo
##ofer
##apian
ditingkat
penebangan
zte
selangkah
still
hijriah
##alamin
asha
kore
arwana
nyaring
berwirausaha
gugat
urang
berkedip
renungkan
blade
kesalahpahaman
##arkas
sahabatsahabat
##unk
sanur
tatto
dalamdalam
dipraktekkan
##cukup
ibar
badminton
teran
fjb
rekons
belilah
pembanding
trailer
uran
erlangga
role
abor
keasaman
screenshot
hidungnya
##gw
pengecatan
312
##rated
diketuai
headset
operasinya
serbia
jw
##etta
##202
mapel
ending
##impikan
menjamur
badanku
alamatnya
galak
memberontak
jig
##eptember
##ogenesis
anthony
berselancar
sebah
karn
monok
tersaji
mtq
berlutut
metodemetode
taubat
primbon
terbelah
remember
uka
matan
##epang
meringk
##sampai
continu
##itri
tina
##ulyo
nisa
##lab
mahalnya
dengerin
##torial
mentok
kece
jalla
histor
##eprint
bercitacita
##rasul
sandaran
kemurnian
tnipolri
memandikan
virginia
##mei
ramayana
memudar
menghangatkan
##zel
bash
terlindungi
diantisipasi
ngaj
##2500
##isel
##ariah
##opul
beringin
terind
##ologik
broadband
slimming
perbudakan
70000
hamka
testosteron
apollo
##losan
ijma
pie
kepikiran
##habisan
buleleng
##pros
sejawat
malapetaka
asknet
perusakan
##oir
nelpon
##138
1941
##nyar
sponsored
parade
demografi
iga
kesembilan
tc
terpec
##opol
fortuner
cakrawala
##edarnya
##pemimpin
##jne
mempersatukan
venez
djarum
##upport
##castle
##erhana
##shared
boyband
##akualifikasi
vertigo
##75000
ituk
##tonik
sangga
saputra
tetesan
cumi
sugar
winter
247
##anhu
pero
playboy
angker
mengkudu
##engku
hargai
lahiri
kudengar
rpj
1910
manila
lewis
##ampah
qud
##usu
terorganisir
travelling
ujungujungnya
galil
jaksel
pluit
temple
##yama
keong
cawapres
swift
kontruksi
338
kwartir
##anyang
baghdad
malay
##zona
node
cucunya
sanas
jagalah
epidermis
##hua
menjij
apl
##elli
kompol
penagihan
hercul
meresahkan
##informasikan
##imateri
##aight
matamata
penghancuran
##bond
adhi
cendana
desanya
1010
bermotif
dug
menag
##walitas
##berapa
208
diupdate
##paut
ditukar
##ontar
##udikan
400000
aden
dermawan
prefektur
elu
##anggunya
##tre
hdd
koes
pawai
keburu
##esannya
pamungkas
multinasional
bpbd
ambruk
##lid
jingga
refr
penggilingan
jawara
mao
mahdi
sukma
bop
httpr
##saran
erop
##eland
diinstal
##ompong
jh
dimunculkan
menyongsong
hening
kejari
temulawak
penghinaan
liturgi
miliaran
eden
mengoreksi
hiks
dee
pelarian
dihidangkan
##apada
khaz
talak
##iagaan
vocal
##seg
fail
##itaman
##ambal
sistematik
taruhannya
rara
pemerhati
##ston
yok
bersedekah
##adia
##ikor
bergemb
polresta
shortcut
xy
hormone
##itage
##sementara
270
raff
kontinyu
selambat
dilegalisir
##pabrik
bpkp
dibenci
octa
parts
dipantau
kontributor
##lee
sedayu
##astra
ringt
disiksa
hibrida
kocek
belalang
pentil
##istributor
terpendam
didapati
rsu
2400
##ungkung
pesimis
unilever
##self
bangladesh
##emy
noh
##kont
konduktor
##201
takutnya
kerutan
memar
unsure
##sment
teratai
rna
##777
moratorium
weblog
##unggedung
##ebelum
bimbel
hargaharga
fasa
neutr
habishabisan
mirror
##uper
into
176
clock
marco
sold
##mari
berpose
cdr
##linik
lembek
sosiologis
##mic
kanji
##utani
1830
materinya
suj
multifungsi
terpelihara
sulam
##olanya
##230
dipertemukan
sql
achi
bergelombang
komet
riang
sinis
menpora
barokah
##icester
depag
everc
##jong
karangasem
##join
batok
diferensiasi
biskuit
##auw
perfil
mencela
ceko
biola
kath
##eles
nonformal
berna
##ils
ventrikel
pidat
##antasnya
tajuk
##ehendak
palem
doug
##pmk
perekaman
khatulistiwa
##tibmas
sarannya
##tanggal
intuisi
##erda
##refour
dijat
kencur
digigit
##pj
sekujur
##etal
temat
panit
diram
ungkapkan
palangka
seminyak
canggung
jod
##ikuk
linknya
alghazali
williams
gemer
orkes
trotoar
uii
pemat
##eduh
perawi
keributan
penjualannya
jauhnya
##cons
jerry
parcel
showroom
prosa
menunduk
2025
kekar
##idr
bersebelahan
##ssss
lati
kelor
##amika
##lubang
##irmasikan
meramalkan
crit
lanud
civitas
##bok
##haka
mudanya
##ulosa
behel
menjabarkan
##otomi
perij
sirna
lekat
ngef
webmaster
##sono
ambillah
##mkg
aamiin
saman
adaro
nges
jogging
pressure
habit
menghantarkan
tongkol
kerapatan
dashboard
qa
##illus
##dokter
bantah
kei
memandangi
terbentang
410
fuji
##harus
##emonstr
matt
##esit
prakarsa
isk
berkutat
merajal
keterangannya
moy
cms
ungaran
##tg
mengisap
diamalkan
bear
menstabilkan
oriflame
ditampung
toni
rajut
menyebarluaskan
##review
insurance
dicanangkan
nin
##rame
rome
kasasi
##pikiran
tanjakan
berkecepatan
penghujan
rutan
##gadir
##elen
kontaminasi
badu
georgia
##bayang
##itno
dv
genit
gedunggedung
##hehe
diinter
bandel
wilson
lipstick
##ongkaran
memban
##dd
bulunya
penyeberangan
berwi
##onlinecom
menghadapinya
skl
labil
steroid
haryono
blood
identitasnya
menipis
penguji
ims
lesbian
obor
rimpang
menghidupi
retensi
konsumennya
bersetubuh
##entarisasi
gazebo
gamblang
kenab
dijemput
diperbuat
gagas
uraikan
menggeliat
##abasi
##image
radioaktif
##power
kind
ldii
serambi
##duk
diasumsikan
##rick
ditunjukan
menyusup
##oty
##uasainya
pasalpasal
##enai
##maan
unair
championship
##etti
itc
matras
##888
holdem
##penulis
doctor
langgeng
berbondong
dipecah
tungku
leicester
wafatnya
fixed
hadap
sekte
eksperim
##angkai
konstruktif
akhlaq
##adarma
paint
##iant
##jalanan
stories
pengelasan
##pej
menerangi
menyisipkan
mempunya
menghapuskan
##atr
##208
copa
pembeda
hills
kebat
317
##olahkan
kepandaian
##nad
##240
semboyan
menyelimuti
yakinlah
mindset
pamannya
saks
gudeg
diberikannya
##ostalgia
array
##angkaraya
valentino
1011
##nggak
pencampuran
atsiri
##files
setiab
wetan
mengecam
rewardstm
##icsson
perangko
paradise
pengenaan
carrefour
penanggalan
inang
juang
##mut
##loma
015
##motor
keing
mikirin
hotelwelcome
diperjuangkan
##undi
ipdn
petra
rewardstmmasuk
jeep
1112
doadoa
kemanapun
##wit
dau
mengobat
1938
mellitus
maki
bercakap
bomba
infin
##char
##endahan
archive
pengamalan
##inting
sembahyang
rasyid
etal
syria
jj
##mill
##araskan
records
##masa
timbunan
rapor
hercules
##cil
##unnya
avenue
##andah
##isimal
choice
##demikian
pendahulu
80000
nata
pusp
harahap
wujudnya
ukhu
mensyukuri
##200000
##anium
toge
sodium
##808
membeberkan
##ahak
mengim
##ohongi
yaudah
##abd
##lina
waswas
medika
memangkas
jelajah
##ohor
creek
lokakarya
varis
garda
pijatan
determin
pemelihara
hg
##indir
kontur
kpi
tampang
##pertemuan
substrat
zebra
##ahahahah
kelembutan
##kif
##adiksi
nutri
liu
oto
pusatpusat
depot
boulevard
reruntuhan
penyewa
templat
##145
function
petaruh
vega
siapasiapa
planetisimal
345
##lub
trily
##oval
##tiup
pelarangan
freder
booster
##entaskan
##osaan
bermoral
too
vatikan
yahh
kesanggupan
kotakabupaten
tkw
bater
disyaratkan
mencair
##saw
tasbih
##asain
scorpio
favorite
gemini
##203
memanaskan
berkerja
##toro
muar
lokomotif
pemenangan
##artabat
antarik
evi
jenn
##enceng
kbri
##aindonesia
##rasa
1927
afc
googling
santapan
bijinya
mulyadi
kekejaman
didekat
tirmidzi
wassalam
ln
##iska
meloncat
pertunjukkan
187
pulsar
hypn
dambaan
membasuh
sepuasnya
nabawi
merid
sudan
##wajah
ayub
##encet
straight
plays
seukuran
fkip
radik
gubuk
aturannya
kemungkinannya
tung
##bh
berpijak
##merupakan
brownies
porto
##zoa
kakakku
tgk
pustakawan
##scomtm
##sty
memeg
willy
amunisi
dinamo
falls
cleaner
340
nantikan
pembubaran
207
keindahannya
element
##diq
num
bian
roger
character
mencegahnya
dirah
listen
berikanlah
##berkas
##leg
zikir
chocol
simpatis
working
##aswasta
costum
sewajarnya
boediono
menirukan
ngikut
##eliling
eco
pemutusan
direvisi
dipercayai
bakter
terdesak
brilian
diversifikasi
syamsul
gom
deadline
smooth
penerjemahan
shid
##alsukan
pemasyarakatan
pengidap
##lt
##embada
##klusi
##real
aulia
syaitan
pengendapan
##calon
johor
keteraturan
kakap
pusatnya
bappeda
wibawa
perfilman
milikku
auth
##embatani
mrs
negerinya
hurufhuruf
alice
sangkuriang
miami
##hyun
##egu
##acar
metamorf
asim
##gis
kesepuluh
##partikel
dipimpinnya
dimasuki
diperjual
##usy
##level
meremasremas
##ukt
yaris
##diploma
daring
sisihkan
perhutani
fran
ventura
again
imm
birokrat
raut
anaerob
kharisma
pendaratan
munir
diinformasikan
jemur
##metode
##latihan
memejamkan
merefleksikan
##sid
bermartabat
mencapainya
fath
podium
dae
penyebar
pembongkaran
##intahan
infant
1933
laci
byson
stab
rekonsiliasi
militan
tatacara
pemimpinnya
memberanikan
remi
menghadang
tentram
bertandang
karantina
technical
##icus
nyesel
##naskah
bintikbintik
##eem
hassan
dominoqq
manuver
##oknya
direkrut
mengimpor
[...]
